<unk>	0
<s>	0
</s>	0
▁ਸ	-0
▁ਦ	-1
▁ਕ	-2
▁ਹ	-3
▁ਨ	-4
▁ਵ	-5
ਾਂ	-6
▁ਪ	-7
▁ਜ	-8
▁ਮ	-9
ਾਰ	-10
▁ਅ	-11
▁ਤ	-12
▁ਦੇ	-13
▁ਬ	-14
▁ਇ	-15
▁ਵਿ	-16
▁ਲ	-17
ਾਲ	-18
ਿਆ	-19
▁ਗ	-20
▁ਰ	-21
▁ਹੈ	-22
ੂੰ	-23
▁ਦੀ	-24
▁ਉ	-25
ਸ਼	-26
ਤੇ	-27
ਿੰ	-28
੍ਰ	-29
▁ਨੂੰ	-30
▁ਕਿ	-31
▁ਕਰ	-32
▁ਆ	-33
ੋਂ	-34
ਾਨ	-35
ਆਂ	-36
▁ਦਾ	-37
▁ਹੋ	-38
ਤੀ	-39
ਦਾ	-40
ਿੱ	-41
▁ਚ	-42
▁ਨੇ	-43
ਤਾ	-44
ਰੀ	-45
▁ਅਤੇ	-46
ਹੀ	-47
ਹਿ	-48
ੱਚ	-49
ੁਰ	-50
▁ਭ	-51
੍ਹ	-52
ਦੇ	-53
▁ਪ੍ਰ	-54
▁ਇਸ	-55
▁ਖ	-56
▁ਤੇ	-57
ਲਾ	-58
ਜ਼	-59
ਦੀ	-60
ੁੱ	-61
▁ਵਿੱਚ	-62
▁ਵਿਚ	-63
▁ਕੀ	-64
▁ਸਿੰ	-65
▁ਸ਼	-66
▁ਸਿੰਘ	-67
ਹਾ	-68
▁ਵੀ	-69
▁ਨਾਲ	-70
▁ਫ	-71
ਵਾ	-72
▁ਤੋਂ	-73
▁ਜਾ	-74
ਰਾ	-75
▁ਹਨ	-76
ੀਆਂ	-77
▁ਲਈ	-78
▁ਸੀ	-79
▁ਕੇ	-80
▁(	-81
ਣਾ	-82
▁ਸਾ	-83
੍ਹਾਂ	-84
ਵੇ	-85
ਕਾਰ	-86
ਨਾ	-87
ੱਕ	-88
..	-89
▁ਆਪ	-90
ਟੀ	-91
ਿਆਂ	-92
▁ਹੀ	-93
ਜਾ	-94
▁ਸਮ	-95
ਿਸ	-96
ਕੇ	-97
ੱਲ	-98
▁ਇਹ	-99
ਹੀਂ	-100
ਲੀ	-101
ਦਰ	-102
▁ਸੰ	-103
ਕਾ	-104
ਨੀ	-105
ਨ੍ਹਾਂ	-106
ੈਂ	-107
ਲੇ	-108
▁‘	-109
▁ਉਸ	-110
▁1	-111
▁ਨਹੀਂ	-112
ਣੀ	-113
▁ਉਹ	-114
ਸੀ	-115
▁ਰਾ	-116
▁ਪੰ	-117
▁ਡ	-118
ਰੇ	-119
ੁੰ	-120
▁ਬਾ	-121
ੱਖ	-122
▁ਗੁਰ	-123
ਣੇ	-124
ਾਈ	-125
▁ਦਿੱ	-126
ਿਲ	-127
▁ਪਰ	-128
▁'	-129
ਿਰ	-130
▁ਕੋ	-131
▁ਜਾਂ	-132
▁ਮੁ	-133
▁ਕਰਨ	-134
▁ਵਾਲ	-135
▁ਸਕ	-136
▁ਤਾਂ	-137
ਗਾ	-138
▁ਸਰ	-139
▁ਗਿਆ	-140
ਇਆ	-141
▁ਪਾ	-142
▁ਧ	-143
▁ਨਾ	-144
ਤਰ	-145
ਡੀ	-146
ਜਾਬ	-147
ਿਕ	-148
ੰਗ	-149
▁ਘ	-150
ਮੀ	-151
▁ਐ	-152
ੋਕ	-153
ਨਾਂ	-154
▁2	-155
▁ਕੀਤਾ	-156
▁ਉਨ੍ਹਾਂ	-157
ਜੀ	-158
ਟਰ	-159
▁ਯ	-160
ਮਾ	-161
▁ਜ਼	-162
ਹੇ	-163
▁ਜੀ	-164
▁ਪੰਜਾਬ	-165
ਬਰ	-166
ਫ਼	-167
▁ਸੁ	-168
ਸੇ	-169
▁ਇਕ	-170
▁ਇੱਕ	-171
ਿਹਾ	-172
ਉਣ	-173
ੌਰ	-174
ਬਾ	-175
▁ਜੋ	-176
▁ਕੁ	-177
ੰਤ	-178
ਾਰੇ	-179
ੱਸ	-180
▁ਸਿੱ	-181
ੂਰ	-182
ਾਰੀ	-183
▁ਟ	-184
ਿਤ	-185
▁ਕਿਹਾ	-186
▁ਕੀਤੀ	-187
ਸ਼ਨ	-188
▁ਮਾ	-189
▁ਦਿ	-190
▁ਅੱ	-191
ਗੀ	-192
ੁੱਖ	-193
▁ਕਾਰ	-194
▁ਆਪਣੇ	-195
▁ਲੋਕ	-196
▁ਜਿ	-197
ਸਾ	-198
ਵੀ	-199
ਵਾਂ	-200
ਮੇ	-201
ੰਧ	-202
ਥੇ	-203
੍ਰੀ	-204
▁ਦੀਆਂ	-205
ਉਂ	-206
ਗੇ	-207
▁ਸਨ	-208
...	-209
▁ਜਾਣ	-210
ਗਰ	-211
ਨੇ	-212
ਹੁ	-213
ਭਾ	-214
ਕੀ	-215
ਿੰਦਰ	-216
▁ਮਨ	-217
▁ਸਿੱਖ	-218
▁ਹਰ	-219
▁ਪਹਿ	-220
▁|	-221
ਲਾਂ	-222
▁ਵੱਲ	-223
▁ਵਰ	-224
▁ਜਿਸ	-225
▁ਵਾ	-226
▁ਛ	-227
▁ਗਈ	-228
▁ਹੁੰ	-229
▁ਰਹੇ	-230
▁ਦੋ	-231
▁ਸਾਹਿ	-232
▁ਅੰ	-233
▁ਸਰਕਾਰ	-234
▁ਮੌ	-235
ਡੇ	-236
▁ਵੱ	-237
ੋਰ	-238
▁ਨਿ	-239
▁ਕੰ	-240
ਤਾਂ	-241
ਵਾਰ	-242
▁।	-243
ੁਲ	-244
ਾਲੀ	-245
ਜੇ	-246
ਾਇ	-247
ਬੰਧ	-248
ੋਗ	-249
▁ਕੋਈ	-250
▁ਰਿਹਾ	-251
ਸ਼ਾ	-252
ੜੀ	-253
▁ਲੈ	-254
▁ਗੁਰੂ	-255
▁ਮੇ	-256
▁ਸਾਹਿਬ	-257
ਵੇਂ	-258
▁ਭਾ	-259
▁ਹੁ	-260
ੰਦ	-261
▁ਤੁ	-262
ਧਾਨ	-263
▁ਹੋਰ	-264
▁ਦਿੱਤਾ	-265
▁ਤਰ	-266
ੜ੍ਹ	-267
▁ਸਿ	-268
ਿਆਰ	-269
▁ਵੱਲੋਂ	-270
▁ਪੈ	-271
▁ਮੈ	-272
▁ਦਰ	-273
ਬੀ	-274
ਸਤ	-275
▁ਜੇ	-276
ਵਰ	-277
▁ਲੱ	-278
▁ਗਏ	-279
▁ਰਹੀ	-280
▁ਵਾਲੇ	-281
▁ਏ	-282
▁ਅਕ	-283
▁ਲਾ	-284
ਿੰਗ	-285
ੜੇ	-286
▁ਮੈਂ	-287
▁ਉੱ	-288
ਲੋਂ	-289
ਪਰ	-290
ਕਰ	-291
▁ਹੋਣ	-292
▁ਕਾ	-293
▁ਹੋਏ	-294
ਖੇ	-295
▁ਜਦ	-296
▁ਫ਼	-297
ਸਰ	-298
▁ਚਾ	-299
ੋਲ	-300
▁ਭਾਰ	-301
▁...	-302
ਡਾ	-303
▁ਦੁ	-304
ੈਕ	-305
▁ਸਮੇ	-306
▁ਗੱਲ	-307
▁ਬਹੁ	-308
▁ਕਿਸੇ	-309
ਥਾ	-310
ਸ਼ੀ	-311
)-	-312
ਜੀਤ	-313
▁ਖੇ	-314
ਦਾਰ	-315
▁ਸੋ	-316
▁ਸਾਲ	-317
ਰਮ	-318
▁ਅਮ	-319
ੜਾ	-320
▁ਬਣਾ	-321
▁ਬਿ	-322
ਪੀ	-323
ੋਟ	-324
ਕਿ	-325
▁20	-326
▁ਦੱਸ	-327
ਧੀ	-328
ਦਿਆਂ	-329
▁ਕਰਕੇ	-330
▁ਅਨ	-331
ਅਦ	-332
ੂਲ	-333
ਾਨੂੰ	-334
▁ਸ੍ਰੀ	-335
▁ਰੱਖ	-336
▁ਕੈ	-337
ੰਡ	-338
▁ਵੇ	-339
ੰਤਰੀ	-340
▁ਲੋਕਾਂ	-341
ੱਟ	-342
▁ਮਿ	-343
ਪਾ	-344
ਕਾਂ	-345
▁ਵਲੋਂ	-346
ਸੀਂ	-347
ਹਰ	-348
ਹਿੰ	-349
▁ਰਾਜ	-350
▁ਖ਼	-351
ਮਾਂ	-352
▁ਅੱਜ	-353
▁ਪ੍ਰਧਾਨ	-354
ਪੁਰ	-355
ਕਾਰੀ	-356
▁ਜਾਵੇ	-357
▁ਬੇ	-358
▁ਜਨ	-359
ਵਾਈ	-360
ਵਾਲ	-361
ੁਰੂ	-362
ਮਾਨ	-363
▁ਬਾਅਦ	-364
ਵਾਨ	-365
▁ਤੱਕ	-366
ਸਲ	-367
ੋੜ	-368
▁ਪਾਰ	-369
▁ਮੰਤਰੀ	-370
ਿਸ਼	-371
ਨੂੰ	-372
ੰਬਰ	-373
▁ਹਾ	-374
▁ਮਿਲ	-375
ਰੋ	-376
▁ਦਿੱਤੀ	-377
ਟਾ	-378
▁ਬਹੁਤ	-379
ਦੀਆਂ	-380
▁ਹੋਈ	-381
▁ਇੰ	-382
ਜ਼ਾ	-383
▁ਪੱ	-384
ਪਤ	-385
ਿੰਡ	-386
▁ਸ਼ਾ	-387
▁ਬੀ	-388
▁ਸਭ	-389
▁ਆਪਣੀ	-390
▁ਮੋ	-391
▁ਅਜ	-392
▁3	-393
▁ਸਮਾ	-394
ਤਿ	-395
ਅਰ	-396
ਸਾਰ	-397
ੇਸ਼	-398
▁ਅਧ	-399
▁ਮਾਰ	-400
▁ਮੰ	-401
▁ਡਾ	-402
▁ਹੋਵੇ	-403
▁ਜਾਂਦਾ	-404
▁’	-405
▁ਪਿ	-406
▁ਸੇ	-407
▁ਵਿਸ਼	-408
▁ਸਮੇਂ	-409
▁ਵਿਖੇ	-410
▁ਅਗ	-411
▁ਹੋਇਆ	-412
▁ਲਿ	-413
ਚਾਰ	-414
ਖ਼	-415
▁ਪੀ	-416
▁ਬਣ	-417
▁ਸੂ	-418
00	-419
▁ਕੁਝ	-420
▁ਕਰਦੇ	-421
ਸਟ	-422
▁ਹੁਣ	-423
▁ਪੂ	-424
ਹਿਰ	-425
ਾਰਾ	-426
ਸਾਨ	-427
ਿੰਦ	-428
ਹੁੰ	-429
▁ਸਿਰ	-430
▁,	-431
▁ਪਿੰਡ	-432
▁ਮੀ	-433
▁ਯੂ	-434
▁ਲਿਆ	-435
▁ਹਾਂ	-436
▁ਬਾਰੇ	-437
▁ਪਹਿਲਾਂ	-438
▁ਜਦੋਂ	-439
▁`	-440
ੁਆ	-441
▁ਘਰ	-442
▁ਪੁਲ	-443
▁ਚੋ	-444
▁ਮੁੱਖ	-445
▁ਵਾਰ	-446
▁ਤਰ੍ਹਾਂ	-447
▁ਦੂ	-448
ਟੇ	-449
▁ਰੁ	-450
▁ਦੌਰ	-451
▁ਝ	-452
▁ਅਰ	-453
▁ਕੀਤੇ	-454
▁ਦੱਸਿਆ	-455
▁ਥ	-456
ਵਨ	-457
ਲਾਈ	-458
ਚਾ	-459
▁ਆਦ	-460
ਾਨਕ	-461
▁ਕੰਮ	-462
▁ਦਿਨ	-463
▁ਉਹਨਾਂ	-464
▁ਰੋ	-465
▁P	-466
▁ਸਾਰੇ	-467
ਿਆਨ	-468
▁“	-469
ਵਿ	-470
er	-471
▁ਸਕਦਾ	-472
▁ਢ	-473
▁ਕਾਰਨ	-474
▁ਮੌਕੇ	-475
▁ਕਈ	-476
▁ਇਲਾ	-477
▁ਰਹਿ	-478
▁ਰੂ	-479
▁ਅਨੁ	-480
▁ਗੁ	-481
▁ਦੇਸ਼	-482
ਖਿਆ	-483
ਤਾਰ	-484
▁ਹੇ	-485
▁ਸਬੰਧ	-486
▁ਕਮ	-487
▁ਦੌਰਾਨ	-488
▁ਚੁੱ	-489
▁ਹੁੰਦਾ	-490
▁-	-491
ੱਤ	-492
▁ਪੰਜਾਬੀ	-493
▁ਕੌ	-494
▁ਇਨ੍ਹਾਂ	-495
ਖਾ	-496
▁ਭਾਈ	-497
▁ਕਮੇ	-498
▁ਸਥ	-499
ਦੇਸ਼	-500
ਤਮ	-501
੍ਹਾ	-502
▁ਬੱਚ	-503
▁ਮਨੁੱਖ	-504
▁ਨਿਰ	-505
ਕਤੀ	-506
▁ਭਾਰਤ	-507
▁ਪੁੱ	-508
ਬੇ	-509
▁ਗ੍ਰ	-510
▁ਖਾ	-511
▁॥	-512
▁ਕਮੇਟੀ	-513
ਰਨ	-514
▁ਵੱਖ	-515
ਦਲ	-516
▁ਨਾਮ	-517
ਗਤ	-518
ਸਿ	-519
▁ਕਰਵਾ	-520
▁ਟੀ	-521
▁ਦੇਣ	-522
ੋਜ	-523
▁ਸ਼ੁਰੂ	-524
▁ਜੁ	-525
▁ਫਿਰ	-526
▁5	-527
ਖੀ	-528
▁ਵਾਲੀ	-529
▁ਲੱਗ	-530
▁ਮਹ	-531
▁ਪੁਲਿਸ	-532
ਾਲਾ	-533
▁ਰਿ	-534
ਮਾਰ	-535
▁ਠ	-536
▁ਕਾਂ	-537
▁ਵਿਦ	-538
ਪੰ	-539
ਜ਼ੀ	-540
▁ਬਲ	-541
▁ਓ	-542
ੈਸ	-543
ਕਤ	-544
▁ਦਿੰ	-545
▁ਪਾਰਟੀ	-546
▁ਪ੍ਰਾ	-547
ਵੀਂ	-548
▁19	-549
ਯੋਗ	-550
ਗੂ	-551
▁ਪੁ	-552
▁ਵਧ	-553
▁201	-554
▁ਚੋਣ	-555
▁ਲਗਾ	-556
▁ਚਾਹੀ	-557
▁ਸੁਰ	-558
ੱਥ	-559
▁ਦਿੱਲੀ	-560
▁N	-561
▁ਬੈ	-562
ਰਾਂ	-563
▁4	-564
▁ਕੌਰ	-565
▁=	-566
▁ਮੰਗ	-567
▁ਨੌ	-568
in	-569
ਮਲ	-570
ਾਨੀ	-571
▁ਕਾਲ	-572
▁ਵਾਲਾ	-573
▁ਕਰਦਾ	-574
▁ਅੰਦਰ	-575
▁ਤੌਰ	-576
▁ਮਹਿ	-577
▁ਕਿਉਂ	-578
▁ਅਪ	-579
▁ਜਾਣਕਾਰੀ	-580
ਕਲ	-581
or	-582
▁ਸਮਝ	-583
ਵਿੰਦਰ	-584
ਹਮ	-585
▁:	-586
▁ਭਰ	-587
▁ਦਲ	-588
▁ਆਈ	-589
▁ਜਿੱ	-590
▁ਅਸੀਂ	-591
▁ਵਰਤ	-592
un	-593
ਜ਼ਰ	-594
▁ਔ	-595
ਦੁਆ	-596
ੈਨ	-597
▁ਪੁਰ	-598
ਮਰ	-599
▁ਕਰਨਾ	-600
ਪਾਲ	-601
▁ਪਿਛ	-602
▁ਅਧਿ	-603
▁ਦਸ	-604
ab	-605
an	-606
▁ਜੀਵਨ	-607
ਵਲ	-608
on	-609
ੈਲ	-610
▁ਕੁੱ	-611
ਿੰਨ	-612
▁ਸਕੂਲ	-613
▁ਵੱਧ	-614
▁ਖਿ	-615
▁ਨਵ	-616
▁ਅਨੁਸਾਰ	-617
ਜੂ	-618
▁ਗੋ	-619
▁ਧਰਮ	-620
ਰਤ	-621
▁ਸੱ	-622
ਚੇ	-623
ਲੋ	-624
▁ਅਜਿ	-625
ੱਡ	-626
▁ਰੂਪ	-627
▁ਚੰ	-628
▁ਐਸ	-629
▁ਰਹਿੰ	-630
▁ਆਮ	-631
ਬਦ	-632
▁ਅਮਰੀ	-633
▁ਰੁਪ	-634
▁6	-635
▁ਪਹੁੰ	-636
▁ਕਾਂਗਰ	-637
▁ਉੱਤੇ	-638
▁ਸੇਵਾ	-639
ਿਆਰਥ	-640
▁ਹਾਲ	-641
▁ਕਿਸਾਨ	-642
ਤੂ	-643
▁ਅਸ	-644
▁ਖੁ	-645
▁ਅਕਾਲੀ	-646
▁ਪਰਿ	-647
ਟਨ	-648
▁ਆਦਿ	-649
▁ਸਾਬ	-650
▁ਯਾ	-651
▁ਦੇਖ	-652
▁ਡਿ	-653
ਭੂ	-654
ew	-655
੍ਰੋ	-656
੍ਰਿਤ	-657
▁ਗੁਰਦੁਆ	-658
ਤਾਬ	-659
▁ਤਕ	-660
▁ਜਲ	-661
▁ਆਰ	-662
▁ਵਿਦਿਆਰਥ	-663
▁ਸਮਾਜ	-664
▁ਯੂਨੀ	-665
ਦੀਪ	-666
ਬਲ	-667
ਧਾਰ	-668
▁ਵਿਅ	-669
▁ਮਾਨ	-670
ੇਰ	-671
▁ਮਾਮ	-672
▁ਕੋਲ	-673
▁ਉਪਰ	-674
▁ਸਹਿ	-675
ews	-676
ੱਦ	-677
▁ਨਾਂ	-678
▁ਜਿਹ	-679
▁ਸਾਡੇ	-680
jab	-681
▁ਬੰ	-682
▁ਲੇ	-683
ੂਨ	-684
unjab	-685
▁ਸਪ	-686
ਅਨ	-687
▁ਭਾਰਤੀ	-688
ਿਸਤ	-689
▁ਕਲ	-690
▁ਪ੍ਰਬੰਧ	-691
ੈਂਟ	-692
▁ਜ਼ਿਲ	-693
▁ਵਿਚਾਰ	-694
▁ਉਪ	-695
▁ਸੁਖ	-696
▁ਹੇਠ	-697
▁ਨੀ	-698
▁ਜਾਂਦੇ	-699
▁ਨਾਨਕ	-700
▁ਸਕਦੇ	-701
▁ਹੁੰਦੀ	-702
at	-703
ਮਣੀ	-704
▁ਗਿ	-705
▁ਰੁਪਏ	-706
ਬੂ	-707
ਧੂ	-708
▁ਸੈ	-709
▁ਵਿਅਕਤੀ	-710
ਧਾ	-711
▁ਇਤ	-712
▁ਲੜ	-713
▁ਕਹਿ	-714
▁ਪ੍ਰਤੀ	-715
▁ਪਰਿਵਾਰ	-716
▁ਭੇ	-717
▁ਸੰਸ	-718
੍ਰਿ	-719
▁ਕੇਂ	-720
▁"	-721
ਜਨ	-722
▁ਕੱ	-723
ਟਿੰਗ	-724
▁ਸਤ	-725
▁ਕਾਂਗਰਸ	-726
▁ਤਾ	-727
ੁੱਲ	-728
ਭਾਗ	-729
▁News	-730
ਣੀਆਂ	-731
ਰਾਮ	-732
▁ਖੇਡ	-733
ਭਾਵ	-734
ਧਰ	-735
▁ਤੁਹਾ	-736
▁Punjab	-737
▁ਆਪਣਾ	-738
ar	-739
▁ਤੁਸੀਂ	-740
▁ਲਗ	-741
▁ਪਾਣੀ	-742
▁ਸਾਂ	-743
▁ਸਬੰਧੀ	-744
▁ਕਰਦਿਆਂ	-745
▁ਘੱਟ	-746
ਕਸ	-747
ਸ਼ਟ	-748
▁ਮੈਨੂੰ	-749
▁ਜਾਂਦੀ	-750
▁ਸ਼ਰ	-751
ੁੱਧ	-752
ਗੜ੍ਹ	-753
ਮਤ	-754
▁ਟਰ	-755
▁ਚੀ	-756
▁ਬੈਠ	-757
ਰੀਆਂ	-758
▁10	-759
ੋਰਟ	-760
ਉਂਦੇ	-761
▁ਗੁਰਦੁਆਰਾ	-762
ਾਨਾ	-763
▁ਮੇਰੇ	-764
▁ਪੇਸ਼	-765
▁ਸੰਗ	-766
▁ਪ੍ਰਾਪਤ	-767
▁ਹਿੱ	-768
ੱਬ	-769
▁ਚੱਲ	-770
▁ਸ਼ਹਿਰ	-771
▁ਦੁਆ	-772
▁ਵਿਭਾਗ	-773
ਵਾਦ	-774
▁ਜਿਨ੍ਹਾਂ	-775
ਪੂਰ	-776
ਹਾਨੂੰ	-777
ਜਵਾਨ	-778
▁ਵਿਆ	-779
▁ਇਨ	-780
▁ਪ੍ਰਭੂ	-781
▁ਮੈਂਬਰ	-782
ਿਆਦਾ	-783
ਿਆਣਾ	-784
▁ਆਗੂ	-785
ੁਕ	-786
▁ਈ	-787
▁ਡੀ	-788
੍ਰੋਮਣੀ	-789
ੁੱਟ	-790
▁ਤੁਹਾਨੂੰ	-791
▁S	-792
ਮੁ	-793
▁ਰਾਹੀਂ	-794
▁ਸ਼ਬਦ	-795
▁ਲੋੜ	-796
ਪਤੀ	-797
ਬੀਰ	-798
ਿਊ	-799
▁ਪਿਆ	-800
▁12	-801
▁ਚਾਹੀਦਾ	-802
▁7	-803
▁ਗਰ	-804
ੱਤਰ	-805
ੱਥੇ	-806
ਜ਼ਾਰ	-807
▁ਸਭਾ	-808
▁ਇਸੇ	-809
ਹਿਤ	-810
▁ਲੰ	-811
ਹਾਂ	-812
▁ਰਾਮ	-813
▁ਪਤਾ	-814
▁ਬਾਹਰ	-815
▁ਨੌਜਵਾਨ	-816
▁ਅੱਗੇ	-817
ਦਾਨ	-818
▁ਜਾਵੇਗਾ	-819
ਬਾਰ	-820
ਹਾਰ	-821
▁ਭਾਵ	-822
▁ਬਾਬਾ	-823
▁ਪਿਛਲੇ	-824
ਰੂ	-825
ੋਨ	-826
ਿਲਮ	-827
▁ਕਿਉਂਕਿ	-828
▁ਰੇ	-829
▁ਹੱਥ	-830
ੈਂਡ	-831
▁–	-832
al	-833
▁ਸਾਹਮ	-834
▁ਹੁੰਦੇ	-835
▁ਵਿਰੋ	-836
▁ਘਟ	-837
ਿਸਤਾਨ	-838
▁ਜਾਰੀ	-839
▁ਆਉਣ	-840
▁ਨਵੀਂ	-841
ਨਿ	-842
▁ਅੰਮ	-843
ਚੀ	-844
▁ਸ਼੍ਰੋਮਣੀ	-845
ਡੀਆ	-846
ਗਮ	-847
▁ਸੱਚ	-848
▁ਦਿੱਤੇ	-849
▁ਬਾਦਲ	-850
▁ਲਿਖ	-851
ਪ੍ਰ	-852
ਕਾਸ	-853
▁ਉਤ	-854
▁ਤੀ	-855
ਕਮ	-856
▁ਪੜ੍ਹ	-857
ਿਹਾਸ	-858
▁ਸਾਨੂੰ	-859
▁ਕੁਮਾਰ	-860
▁ਸ਼ਿ	-861
▁ਅਕਤੂ	-862
▁ਅਕਤੂਬਰ	-863
ੋਹ	-864
▁ਮਰ	-865
ਟਾਂ	-866
ਫੀ	-867
ਐਸ	-868
▁ਧਾਰ	-869
▁ਜਨਮ	-870
▁ਚੌ	-871
▁ਵਿਚੋਂ	-872
▁ਲੱਖ	-873
▁ਕੰਪ	-874
ਪ੍ਰੀ	-875
ਹਤ	-876
ੰਥ	-877
▁ਇਲਾਵਾ	-878
▁ਹਮ	-879
▁8	-880
ਸਮ	-881
▁ਤਿੰਨ	-882
▁ਸਰਕਾਰੀ	-883
▁ਜਗ	-884
ਵਰਸਿ	-885
▁ਬੁ	-886
▁R	-887
ੈਟ	-888
ਵਰੀ	-889
▁ਸੋਚ	-890
▁ਵਜ	-891
ਬੰ	-892
ਅਤ	-893
ਬਾਣੀ	-894
▁ਚੇ	-895
am	-896
▁ਸਾਰ	-897
▁ਨਹੀ	-898
ਮਨ	-899
▁ਜਿਵੇਂ	-900
▁ਅਧਿਕਾਰ	-901
ਣਤੀ	-902
▁ਬਰ	-903
▁ਜੇਕਰ	-904
▁ਕਰੀ	-905
ਤਮਾ	-906
ਪ੍ਰੀਤ	-907
▁ਲੁ	-908
▁ਇਤਿਹਾਸ	-909
▁ਡੇ	-910
▁ਬੰਦ	-911
▁ਫਰ	-912
▁ਸਿਆ	-913
▁ਵਿਸ਼ੇਸ਼	-914
▁ਮੰਨ	-915
ਤਕ	-916
▁ਲੈਣ	-917
ਛਾ	-918
▁ਚੁ	-919
ਿਸ਼ਨ	-920
▁ਨਵੰਬਰ	-921
▁ਯੂਨੀਵਰਸਿ	-922
▁ਵੱਡੀ	-923
▁ਅਮਰੀਕਾ	-924
▁ਜਥੇ	-925
▁ਸਿੱਖਾਂ	-926
▁ਅਦ	-927
▁ਯਾਦ	-928
▁A	-929
੍ਰੇ	-930
▁ਸਰੀ	-931
ਪੰਜਾਬ	-932
▁ਪੂਰੀ	-933
ਆਈ	-934
▁ਮਾਮਲੇ	-935
▁ਸਟ	-936
▁ਕਰੇ	-937
▁ਕਦੇ	-938
▁ਕਲਾ	-939
ਕਾਸ਼	-940
▁ਪੈਦਾ	-941
▁ਦਿਲ	-942
ੰਭ	-943
ਤਨ	-944
▁ਪਾਕ	-945
▁ਵਿਕਾਸ	-946
੍ਹੇ	-947
▁15	-948
▁ਆਏ	-949
▁ਅਜਿਹੇ	-950
▁ਖੇਤਰ	-951
▁ਅਮਰ	-952
en	-953
ਉਣਾ	-954
ਨਾਮ	-955
ਣਾਂ	-956
ਚਨਾ	-957
▁ਕਾਲਜ	-958
▁M	-959
▁ਇਹਨਾਂ	-960
▁ਗ੍ਰੰਥ	-961
▁ਬੱਚਿਆਂ	-962
ਡਰ	-963
ਸਨ	-964
▁ਕਮਿਸ਼ਨ	-965
▁ਧਰ	-966
▁9	-967
▁ਮੁੱ	-968
▁ਜ਼ਿਲ੍ਹਾ	-969
▁ਬੋਲ	-970
ਨੀਅਰ	-971
▁18	-972
▁ਐਲ	-973
▁ਸੁਣ	-974
▁ਮੁਕਾ	-975
▁ਮੌਤ	-976
▁ਪੰਜ	-977
▁ਯੂਨੀਵਰਸਿਟੀ	-978
ੱਜ	-979
▁ਬੋ	-980
ਤਲ	-981
▁C	-982
▁ਉਦ	-983
ੰਮ	-984
ਦੇਵ	-985
▁ਥਾ	-986
੍ਹੀ	-987
▁ਟੀਮ	-988
ਤੀਆਂ	-989
▁ਦੌ	-990
▁ਬਣਾਉਣ	-991
▁ਪ੍ਰੋ	-992
▁ਮਹੀ	-993
▁ਚਾਰ	-994
ਜੂਦ	-995
ਉਂਦਾ	-996
▁ਅੰਮ੍ਰਿਤ	-997
▁ਨਗਰ	-998
▁ਵੱਡੇ	-999
st	-1000
▁ਪਿੱ	-1001
▁ਦੂਜੇ	-1002
ਜਰ	-1003
▁ਦੁਆਰਾ	-1004
▁ਵਾਸ	-1005
▁ਪਹੁੰਚ	-1006
▁ਸਮਰ	-1007
▁ਹਲ	-1008
▁ਸੌ	-1009
▁ਸ਼ਾਮ	-1010
ੰਨ	-1011
▁ਰਹਿਣ	-1012
▁t	-1013
▁ਤਿਆਰ	-1014
▁ਕੁੱਝ	-1015
▁ਗੁਰਬਾਣੀ	-1016
▁ਕੋਰ	-1017
ਵਸ	-1018
▁ਪੈਂ	-1019
▁ਲੀ	-1020
ਦਾਸ	-1021
▁ਮਾਂ	-1022
▁ਗਿਣਤੀ	-1023
▁ਕੇਂਦਰ	-1024
ਗੁਰ	-1025
▁ਜੁਲਾਈ	-1026
▁ਗਲ	-1027
▁ਸਕੇ	-1028
▁#	-1029
▁ਮਾਲ	-1030
▁ਪੱਤਰ	-1031
▁ਵਿਦਿਆਰਥੀਆਂ	-1032
▁ਵਿਰ	-1033
▁p	-1034
▁ਸਾਬਕਾ	-1035
ੜੀਆਂ	-1036
▁ਵਿੱਚੋਂ	-1037
▁E	-1038
▁ਵਜੋਂ	-1039
▁ਛੱਡ	-1040
▁ਹੋਵੇਗਾ	-1041
▁ਥਾਂ	-1042
▁ਸੰਤ	-1043
ਵੱਖ	-1044
le	-1045
ੈਰ	-1046
▁ਕਰੋ	-1047
▁ਸਾਹਮਣੇ	-1048
ਿਨ	-1049
▁ਸਕਦੀ	-1050
▁ਸਰੀਰ	-1051
▁ਕਾਨੂੰ	-1052
ੱਠ	-1053
ਕਤਾ	-1054
▁ਸ਼ਾਮਲ	-1055
▁ਪੇ	-1056
▁ਗਾ	-1057
▁ਆਇਆ	-1058
▁ਲਾਲ	-1059
▁ਚੰਗ	-1060
ਪੋਰਟ	-1061
ਗੁਰੂ	-1062
▁ਮੀਟਿੰਗ	-1063
ੂਹ	-1064
▁ਕਾਰਵਾਈ	-1065
ਿਸਟ	-1066
▁ਰੰਗ	-1067
▁ਜ਼ਿਆਦਾ	-1068
▁ਕੇਸ	-1069
▁ਯੋਗ	-1070
▁ਚੰਡੀ	-1071
▁ਸ਼੍ਰੀ	-1072
▁ਸਮੇਤ	-1073
▁ਚਾਹੁੰ	-1074
▁ਰਹੀਆਂ	-1075
▁ਘਟਨਾ	-1076
▁ਵੈ	-1077
▁13	-1078
▁ਮਨਾ	-1079
ਮੀਦ	-1080
ੱਗ	-1081
re	-1082
ਸੂ	-1083
▁ਅਗਵਾਈ	-1084
ਤਰੀ	-1085
▁ਅੰਗ	-1086
▁ਕਾਰਜ	-1087
ਰਲ	-1088
▁ਲੇਖ	-1089
▁ਗੀ	-1090
ਕਾਰਾਂ	-1091
▁ਵੇਖ	-1092
▁ਤਹਿਤ	-1093
▁ਚਲਾ	-1094
▁ਦੂਰ	-1095
ad	-1096
▁ਪ੍ਰਗ	-1097
▁ਚੋਣਾਂ	-1098
ਾਲੇ	-1099
▁ਸਾਂਝ	-1100
▁ਸਕੱਤਰ	-1101
▁ਮੁਤਾਬ	-1102
▁ਵਾਪ	-1103
▁ਲੈਂ	-1104
▁ਉਮੀਦ	-1105
▁ਰੋਕ	-1106
▁ਬੈਂ	-1107
ਪਟਨ	-1108
▁ਨਿੱ	-1109
ਘਾ	-1110
▁ਸੁਰੱਖ	-1111
▁ਸ਼ਹੀ	-1112
▁ਕਰਮ	-1113
▁ਚਰ	-1114
▁ਹਿੰਦ	-1115
▁ਪ੍ਰਕਾਸ਼	-1116
▁ਸਿੱਖਿਆ	-1117
▁ਦੋਸ਼	-1118
▁ਜਿੱਥੇ	-1119
▁ਆਖ	-1120
▁ਅਰਥ	-1121
▁ਕਰੋੜ	-1122
▁ਜੂਨ	-1123
ਸ਼ਟਰ	-1124
▁ਰਸ	-1125
▁ਕੋਸ਼	-1126
ਹਨ	-1127
▁ਪਾਕਿਸਤਾਨ	-1128
ੰਸ	-1129
▁ਵਾਂ	-1130
▁ਵੇਲੇ	-1131
ਨੀਆਂ	-1132
ਤਰਾ	-1133
▁ਅਕਾਲ	-1134
ਕੂ	-1135
ਦਾਂ	-1136
▁ਪਾਸ	-1137
▁ਪਾਸੇ	-1138
▁ਹਸ	-1139
ਿੱਲ	-1140
▁11	-1141
▁ਤੂੰ	-1142
▁ਬ੍ਰ	-1143
▁ਮੁਹ	-1144
▁ਤੁਰ	-1145
▁ਜਸ	-1146
ਰੂਰ	-1147
▁ਅਦਾਲ	-1148
ਮਿਕ	-1149
▁ਲੋ	-1150
▁ਪੱਧਰ	-1151
ਇਕ	-1152
▁ਸੈਕ	-1153
▁ਪੋ	-1154
▁ਕੁਲ	-1155
ਰੀਦ	-1156
▁ਫੈਸ	-1157
▁ਸੰਭ	-1158
▁ਕਿਸਾਨਾਂ	-1159
▁ਪ੍ਰੀ	-1160
ta	-1161
▁ਤੁਹਾਡੇ	-1162
ਮਤੀ	-1163
ਵਿੱ	-1164
▁ਰਾਤ	-1165
ਯਾ	-1166
....	-1167
ਪਲ	-1168
pa	-1169
▁ਮੇਲ	-1170
▁ਤੋ	-1171
▁ਭੂ	-1172
▁ਛੇ	-1173
ਵਾਸ	-1174
▁ਕੱਢ	-1175
▁ਵੱਡਾ	-1176
ਨੀਆ	-1177
▁ਸੰਸਥਾ	-1178
।”	-1179
▁ਬਦ	-1180
▁ਸਤੰਬਰ	-1181
▁ਵਰਗ	-1182
ਜਪਾ	-1183
ਬੋ	-1184
▁ਪੂਰ	-1185
ਪੇ	-1186
▁ਅਜੇ	-1187
ਵੀਰ	-1188
▁ਰੈ	-1189
▁ਸੰਬੰਧ	-1190
▁ਮੁੰ	-1191
▁ਧਿਆਨ	-1192
▁ਸਮਾਗਮ	-1193
▁ਚੰਡੀਗੜ੍ਹ	-1194
ਿਆਪ	-1195
▁ਕਹਾ	-1196
▁ਕੌਮ	-1197
▁ਦੇਵ	-1198
▁ਖਿਲਾ	-1199
ਕਟ	-1200
▁ਕੈਪਟਨ	-1201
▁ਅਹਿ	-1202
).	-1203
▁ਕਹਿੰ	-1204
▁ਦਰਜ	-1205
ਮਾਤਮਾ	-1206
▁ਪਤ	-1207
▁ਪਟ	-1208
▁ਸੰਸਾਰ	-1209
▁ਵਧੀ	-1210
▁ਚਲ	-1211
▁ਇੱਥੇ	-1212
▁ਵਰਤੋਂ	-1213
ਦੂ	-1214
▁ਨਵੇਂ	-1215
▁ਜਾਂਚ	-1216
ਾਇਕ	-1217
ੱਡੀ	-1218
▁ਖੇਤੀ	-1219
▁ਦਿੰਦੇ	-1220
ਡੀਓ	-1221
ਿਕਾ	-1222
▁ਜਿੱਤ	-1223
▁ਹਰਿ	-1224
▁ਪਹਿਲੀ	-1225
▁ਕੇਵਲ	-1226
▁ਨਿਯ	-1227
▁ਪੰਥ	-1228
▁ਗ਼	-1229
▁ਅਫ਼	-1230
▁ਸੜ	-1231
▁ਪਾਲ	-1232
▁ਅਗਸਤ	-1233
▁ਸਤਿ	-1234
▁ਸਹ	-1235
▁ਅਜਿਹਾ	-1236
▁ਹਜ਼ਾਰ	-1237
▁ਭੀ	-1238
ਇਸ	-1239
▁ਉਥੇ	-1240
▁ਛੋਟ	-1241
as	-1242
ਜਿੰਦਰ	-1243
▁ਮੁਕਾਬ	-1244
▁ਮੱ	-1245
▁ਸਮਾਂ	-1246
▁16	-1247
▁੧	-1248
per	-1249
▁ਸਟੇ	-1250
ਵੰਤ	-1251
▁ਹੋਣਾ	-1252
▁ਲੁਧ	-1253
ਸਿੱ	-1254
▁ਕਰਦੀ	-1255
▁ਪੁਰਾ	-1256
▁ਪੱਖ	-1257
▁ਰੱਖਣ	-1258
▁ਉੱਚ	-1259
▁ਜਿੰ	-1260
▁ਪਿੱਛ	-1261
▁ਵਾਲਿਆਂ	-1262
it	-1263
▁ਰਾਸ਼ਟਰ	-1264
▁ਵਿਆਹ	-1265
▁ਸਿਰਫ	-1266
ਦਰੀ	-1267
▁ਨਸ਼	-1268
▁ਕਰਾ	-1269
ਵਾਲੀ	-1270
▁ਸਥਾਨ	-1271
ਚਰ	-1272
ਜੋ	-1273
▁ਬੱਚੇ	-1274
▁ਉਤੇ	-1275
▁ਪਿਆਰ	-1276
▁ਉਮਰ	-1277
is	-1278
▁ਮਜ਼	-1279
▁ਅੱਖ	-1280
ion	-1281
▁ਬਦਲ	-1282
ਵੈ	-1283
▁ਰੱਖਿਆ	-1284
ਮੀਨ	-1285
ag	-1286
▁14	-1287
ਠਾ	-1288
▁ਐਲਾਨ	-1289
▁ਸਹਾ	-1290
ਾਇਰ	-1291
ੀਸ	-1292
▁ਉਦਾ	-1293
ਿਆਲਾ	-1294
▁ਬਚ	-1295
ਟਕ	-1296
he	-1297
),	-1298
▁ਬਰਾ	-1299
ਸ਼ਾਹ	-1300
ਖ਼ਤ	-1301
ਜੰ	-1302
▁ਆਜ਼ਾ	-1303
▁ਪਹਿਲੇ	-1304
▁ਭਗ	-1305
ਚੋਂ	-1306
ਾਲਸਾ	-1307
ਰਾਜ	-1308
▁ਵਿਧ	-1309
▁ਗਈਆਂ	-1310
▁ਕਿਰ	-1311
▁ਨਰ	-1312
▁Punjabi	-1313
▁ਸੀਨੀਅਰ	-1314
▁ਵਾਂਗ	-1315
▁ਮਿੱ	-1316
ਿੰਦਗੀ	-1317
▁ਨਜ਼ਰ	-1318
▁ਭਾਸ਼ਾ	-1319
ਠੀ	-1320
▁ਪੂਰਾ	-1321
ing	-1322
▁ਅਲ	-1323
▁ਫਿਲਮ	-1324
▁ਪ੍ਰੋਗ	-1325
▁ਤਲ	-1326
ੈਕਟ	-1327
om	-1328
▁ਨਿਕ	-1329
ur	-1330
▁ਬਚਾ	-1331
ੰਪ	-1332
ਫ਼ੀ	-1333
▁ਪ੍ਰਚਾਰ	-1334
ਕੋ	-1335
ਖਤ	-1336
▁ਹਾਈ	-1337
▁ਲੁਧਿਆਣਾ	-1338
▁ਵਾਸਤੇ	-1339
▁ਮੁਲਾ	-1340
▁ਉਨਾਂ	-1341
▁ਸੂਬੇ	-1342
▁ਮਦ	-1343
▁ਅਦਾਲਤ	-1344
▁ਭੁ	-1345
ਨੇਡਾ	-1346
ਗੋ	-1347
▁ਰਣ	-1348
▁ਕੈਂ	-1349
▁ਅੰਮ੍ਰਿਤਸਰ	-1350
▁ਮੋਦੀ	-1351
ਹੋ	-1352
ਿਕਰ	-1353
ਅਮ	-1354
▁ਅੰਤ	-1355
▁ਸਦਾ	-1356
ਆਰ	-1357
ਪਤਾਲ	-1358
▁ਪਾਠ	-1359
▁ਕਰਵਾਇਆ	-1360
ਂਡ	-1361
▁ਜੰਗ	-1362
ਕੁ	-1363
੍ਰਿਸ਼	-1364
ਘਰ	-1365
▁ਤਸ	-1366
▁ਗੇ	-1367
▁ਕੋਸ਼ਿਸ਼	-1368
ੌਲ	-1369
▁ਜਾਨ	-1370
▁ਸਫ	-1371
ਰੂਰੀ	-1372
▁ਹਸਪਤਾਲ	-1373
ਇਤ	-1374
▁ਸੁਰੱਖਿਆ	-1375
ਸ਼ਕ	-1376
▁ਪੁੱਤਰ	-1377
▁ਬਿਆਨ	-1378
▁ਚੁੱਕ	-1379
ਥੀ	-1380
▁ਸਲਾ	-1381
▁ਮਾਣ	-1382
▁ਵਿਗ	-1383
▁ਮਈ	-1384
▁ਮਹੀਨੇ	-1385
▁ਪ੍ਰਭਾਵ	-1386
▁ਹਿੱਸਾ	-1387
ਸ਼ਣ	-1388
ਮੇਸ਼	-1389
▁ਲਾਈ	-1390
▁ਅਧਿਆਪ	-1391
▁ਗੀਤ	-1392
▁ਮੇਰੀ	-1393
▁ਅਜਿਹੀ	-1394
ਕੌ	-1395
▁ਜਾਵੇਗੀ	-1396
il	-1397
▁ਸੈਂ	-1398
ਜ਼ਾਂ	-1399
ੈਕਟਰ	-1400
▁ਸੰਗਤਾਂ	-1401
ੀਰ	-1402
000	-1403
▁ਕਬ	-1404
▁ਇਥੇ	-1405
ਥੋਂ	-1406
ੰਧਰ	-1407
▁ਕੋਰਟ	-1408
ਧਨ	-1409
▁ਨੰਬਰ	-1410
▁ਮੁੜ	-1411
ਟੀਆਂ	-1412
▁ਧਾਰਮਿਕ	-1413
▁ਪੁੱਛ	-1414
▁17	-1415
▁ਚਿ	-1416
▁ਭਾਜਪਾ	-1417
▁ਮੁਤਾਬਕ	-1418
▁ਏਕਤਾ	-1419
▁ਉਦਾਹਰ	-1420
▁ਚੁੱਕੇ	-1421
ਗਲ	-1422
▁ਕਿਸ	-1423
▁ਸਿਹਤ	-1424
▁ਸਨਮਾਨ	-1425
ਗੋਂ	-1426
▁ਮੁਲ	-1427
▁ਫੌ	-1428
▁ਤਰੀ	-1429
▁ਪ੍ਰਬੰਧਕ	-1430
ਰੀਆ	-1431
▁ਉਲ	-1432
▁ਅਣ	-1433
ੈਕਸ	-1434
▁ਮਾਰਚ	-1435
▁ਵਿਰੋਧੀ	-1436
ਮੀਰ	-1437
ੰਦਰ	-1438
▁s	-1439
ਕਟਰ	-1440
ਧਾਂ	-1441
ਜਣ	-1442
▁ਕੀਤੀਆਂ	-1443
▁ਮਲ	-1444
ਿਲਾ	-1445
-1	-1446
▁200	-1447
ਮਤਿ	-1448
ਕਿਆਂ	-1449
ਸੁ	-1450
▁ਖਿਡ	-1451
▁ਦਿਨਾਂ	-1452
▁ਨਿਊ	-1453
▁ਰਿਸ਼	-1454
▁ਡਿਪ	-1455
▁ਹੋਵੇਗੀ	-1456
ਗੁ	-1457
▁ਜਵਾ	-1458
▁ਆਦਮੀ	-1459
▁ਰਿਪੋਰਟ	-1460
▁ਹੁਕਮ	-1461
▁ਨਿਸ਼	-1462
ਬਾਦ	-1463
ਵਾਦੀ	-1464
▁ਗਿਆਨ	-1465
▁ਸ਼ਰਮਾ	-1466
▁ਵਿਸ਼ਵ	-1467
ਮਾਣ	-1468
ੜਾਂ	-1469
▁ਬਲਾ	-1470
▁ਅਧਿਕਾਰੀਆਂ	-1471
ਰੀਬ	-1472
▁ਪੰਚ	-1473
▁ਐੱਸ	-1474
▁ਹੱਕ	-1475
ਰਾਬ	-1476
▁ਮੀਡੀਆ	-1477
▁ਸਹੀ	-1478
▁ਆਧਾਰ	-1479
▁ਔਰ	-1480
▁ਸਾਲਾਂ	-1481
ਨਾਲ	-1482
▁ਕਰੀਬ	-1483
▁ਆਨ	-1484
ਬੰਦੀ	-1485
▁ਜ਼ਰੂਰ	-1486
▁ਵਾਲੀਆਂ	-1487
▁ਜਲੰਧਰ	-1488
▁ਅਫ	-1489
▁ਪਿਤਾ	-1490
▁ਮਿਲੀ	-1491
▁ਖੋਜ	-1492
ਸਾਈ	-1493
ot	-1494
ਧੀਨ	-1495
ੰਡੀ	-1496
▁ਪ੍ਰੋਗਰਾਮ	-1497
▁ਗੋਲ	-1498
▁ਪਰਮਾਤਮਾ	-1499
▁ਰਹਿੰਦੇ	-1500
▁ਉਮੀਦਵਾਰ	-1501
ੰਤਰ	-1502
▁ਇਕੱਠ	-1503
ਜਲੀ	-1504
ਸ਼ਲ	-1505
▁ਮਦਦ	-1506
▁ਚਿੱ	-1507
▁f	-1508
ਬਾਤ	-1509
ੱਸਿਆ	-1510
ਸਾਂ	-1511
ਧੇ	-1512
▁ਵਿਧਾਨ	-1513
ੂੰਹ	-1514
▁ਸਵੇ	-1515
ਵਾਜ਼	-1516
ੜ੍ਹੀ	-1517
▁ਜਾਣਾ	-1518
ਜਿ	-1519
▁ਸਿੱਧੂ	-1520
▁ਪਹਿਲਾ	-1521
ed	-1522
▁ਰਹਿੰਦਾ	-1523
ਪਾਦ	-1524
▁ਤਿ	-1525
▁21	-1526
▁ਵਜੇ	-1527
▁ਤੈ	-1528
ਉਂਦੀ	-1529
▁ਹਿੰਦੂ	-1530
▁ਭਾਵੇਂ	-1531
▁ਟੈ	-1532
▁ਅਖ	-1533
ੁਰਾ	-1534
ਤਮਕ	-1535
▁ਅਧੀਨ	-1536
▁ਜਦਕਿ	-1537
es	-1538
ੱਲੇ	-1539
ਆਪ	-1540
ਹਿਰਾ	-1541
ਦਮ	-1542
▁ਜੀਵ	-1543
▁ਹਾਸਲ	-1544
ic	-1545
▁ਡਰ	-1546
▁ਪਈ	-1547
ਨਰ	-1548
▁ਲੱਗੇ	-1549
▁25	-1550
▁ਸਫ਼	-1551
▁ਦਿੰਦਾ	-1552
▁ਵੀਡੀਓ	-1553
ਮੈਂਟ	-1554
▁ਬਾਕੀ	-1555
▁ਜੋੜ	-1556
ਿਆਚਾਰ	-1557
▁ਕਮਿਸ਼ਨਰ	-1558
▁ਕਾਮ	-1559
▁ਕ੍ਰ	-1560
▁ਬਿਨਾਂ	-1561
ਬਿੰਦ	-1562
▁ਸਬ	-1563
▁ਸਹਿਯੋਗ	-1564
ਕਾਨ	-1565
▁ਸਾਈ	-1566
ਸ਼ਟਰੀ	-1567
▁ਖਰ	-1568
ਵੱ	-1569
▁ਸਵਾਲ	-1570
▁ਦਸੰਬਰ	-1571
▁ਇਲਾਕੇ	-1572
▁ਮੁਕਾਬਲੇ	-1573
▁ਸਥਾਨਕ	-1574
▁ਧਰਤੀ	-1575
▁ਸਕੀ	-1576
ੈਸ਼ਨ	-1577
ਹੂ	-1578
paper	-1579
▁ਕੈਨੇਡਾ	-1580
▁Newspaper	-1581
▁ਜੈ	-1582
▁ਆਖਿਆ	-1583
▁ਪਟਿਆਲਾ	-1584
▁ਸਾਹਿਤ	-1585
ਲੈਂਡ	-1586
▁ਛਾ	-1587
▁ਅਮਰਿੰਦਰ	-1588
▁ਮੌਜੂਦ	-1589
▁ਨਤੀ	-1590
▁ਢੰਗ	-1591
ੱਕੀ	-1592
▁ਸਥਾ	-1593
▁ਬੁੱ	-1594
ਗਾਰ	-1595
▁ਬਣਾਇਆ	-1596
▁H	-1597
▁ਸਕੂ	-1598
▁ਪੂਰੇ	-1599
▁ਖਾਸ	-1600
▁ਸਾਰੀ	-1601
▁ਮੇਰਾ	-1602
orn	-1603
▁ਵਿਰੋਧ	-1604
▁ਵਧੀਆ	-1605
▁ਵੋਟ	-1606
ਸ਼ਤ	-1607
▁ਹਾਰ	-1608
▁ਬੱਸ	-1609
▁ਪ੍ਰਸ਼ਾ	-1610
▁ਕੰਪਨੀ	-1611
ਤਿਆਂ	-1612
▁ਸਰਬ	-1613
▁ਸ਼ਾਮਿਲ	-1614
ੇਰੇ	-1615
▁ਸਾਰਾ	-1616
▁c	-1617
▁ਉੱਪਰ	-1618
▁ਸਗੋਂ	-1619
▁ਜਥੇਦਾਰ	-1620
▁ਜਨਵਰੀ	-1621
▁ਆਪਣੀਆਂ	-1622
▁ਪੁਸਤ	-1623
▁Q	-1624
▁ਗਾਂ	-1625
▁ਜਨਰਲ	-1626
▁ਗੁਣ	-1627
▁ਸਮੂਹ	-1628
▁ਸੁਪ	-1629
▁ਜ਼ਿੰਦਗੀ	-1630
▁ਕਿਵੇਂ	-1631
▁ਬਾਲ	-1632
▁ਸਦ	-1633
▁ਸਾਰੀਆਂ	-1634
▁ਵੰਡ	-1635
▁ਵਿਰੁੱਧ	-1636
20	-1637
▁ਸਾਡੀ	-1638
▁ਅਵ	-1639
▁ਔਰਤ	-1640
▁ਸਮੱਸਿਆ	-1641
▁ਬਾਰ	-1642
ਟਲ	-1643
▁ਆਸ	-1644
▁ਭਾਗ	-1645
▁ਐਮ	-1646
ਾਇਮ	-1647
▁ਜਿਹੜੇ	-1648
ਕੌਮੀ	-1649
▁ਗ੍ਰਿ	-1650
▁ਅਸਲ	-1651
▁ਬਣਾਈ	-1652
ੋਰਡ	-1653
▁ਫੇ	-1654
▁ਲਗਾਤਾਰ	-1655
▁ਭਗਤ	-1656
ਤਾਵਾਂ	-1657
▁Qu	-1658
▁ਜੇਲ	-1659
▁ਰੀ	-1660
ore	-1661
ੁੰਦਰ	-1662
▁ਖਿਲਾਫ	-1663
▁ਲੱਗਾ	-1664
▁ਮੋਹ	-1665
▁ਕਾਫੀ	-1666
▁ਪਾਇਆ	-1667
▁ਗੱਲਾਂ	-1668
▁ਕਰਨੀ	-1669
▁ਡਿਪਟੀ	-1670
ਕਸ਼	-1671
▁ਨੁਕ	-1672
ੀਕ	-1673
ਗੀਆਂ	-1674
▁ਪੜ	-1675
▁ਧੰਨ	-1676
▁ਉਸਨੂੰ	-1677
▁ਬਿਲ	-1678
▁ਸਿਆਸੀ	-1679
▁ਜ਼ਰੂਰੀ	-1680
▁ਉਪਰੰਤ	-1681
▁.	-1682
▁ਉੱਥੇ	-1683
▁ਜਵਾਬ	-1684
ਗ਼	-1685
▁ਹਿੰ	-1686
▁ਵਧਾ	-1687
▁ਖੁਦ	-1688
▁ਠੀਕ	-1689
▁ਮਿਲਣ	-1690
▁ਚਾਹੀਦੀ	-1691
ir	-1692
ਸਟਰ	-1693
ਸਥ	-1694
▁ਪ੍ਰੇ	-1695
▁ਉਸੇ	-1696
)।	-1697
▁ਉਦਾਹਰਨ	-1698
ਚਨ	-1699
▁ਰਾਸ਼ਟਰਪਤੀ	-1700
▁ਸਲ	-1701
▁ਬਣੇ	-1702
ਸ਼ਿਆਰ	-1703
ami	-1704
▁ਲਾਗੂ	-1705
▁ਅਹਿਮ	-1706
▁ਮਿਲੇ	-1707
▁ਕਾਨੂੰਨ	-1708
ਪੂ	-1709
ਫ਼ਤ	-1710
▁ਵਸ	-1711
ਕਰੀ	-1712
▁ਨੇੜੇ	-1713
of	-1714
▁ਮੁਖੀ	-1715
ਵਾਲਾ	-1716
▁ਫੈਸਲਾ	-1717
ਵਾਰੀ	-1718
▁ਕੁਦਰ	-1719
▁ਲਿਖਿਆ	-1720
▁Ek	-1721
ਪੁ	-1722
▁d	-1723
▁Ekta	-1724
▁Quami	-1725
▁ਡਾਕਟਰ	-1726
▁ਹਰੇ	-1727
ਿੰਡਾ	-1728
ਬੂਤ	-1729
▁ਘਾ	-1730
▁ਸਿਖ	-1731
▁ਗੱਲਬਾਤ	-1732
▁ਸੂਰ	-1733
▁ਅੰਤਰ	-1734
▁ਪਤਨੀ	-1735
▁ਔਰਤਾਂ	-1736
▁ਕਹਿਣਾ	-1737
ਿਅ	-1738
▁n	-1739
▁ਚੜ੍ਹ	-1740
ਕੀਆਂ	-1741
▁ਆਗੂਆਂ	-1742
▁ਵਿਧਾਇਕ	-1743
▁ਸਰੋ	-1744
▁ਪਾਈ	-1745
▁ਕਿਤਾਬ	-1746
▁ਅਧਿਕਾਰੀ	-1747
▁ਵਾਪਸ	-1748
▁ਹਾਜ਼ਰ	-1749
ਵੇਗਾ	-1750
▁ਦਾਖ	-1751
▁ਰਚਨਾ	-1752
▁b	-1753
▁/	-1754
▁ਮੂੰਹ	-1755
▁ਅਫ਼ਸਰ	-1756
▁ਪਰਮ	-1757
ਬਾਲ	-1758
▁ਅਪੀ	-1759
▁30	-1760
▁ਹਿ	-1761
▁ਮਹਿਲਾ	-1762
▁ਪਏ	-1763
▁ਬਾਣੀ	-1764
▁ਕਰਵਾਉਣ	-1765
▁ਫ਼ਿਲਮ	-1766
ਸ਼ਿਆਰਪੁਰ	-1767
ਪਿਤ	-1768
ਸਾਇ	-1769
▁ਸ੍ਰ	-1770
▁ਅੱਗ	-1771
▁ਨਿਕਲ	-1772
ਪਾਰ	-1773
▁ਵਰਗੇ	-1774
ਵਾਹ	-1775
▁G	-1776
▁ਮਸ	-1777
▁ਕਹਾਣੀ	-1778
ੂਪ	-1779
▁T	-1780
ਮਾਰੀ	-1781
▁ਸ਼ਹੀਦ	-1782
▁ਮੁਕ	-1783
▁ਭੈ	-1784
▁ਪਿੱਛੇ	-1785
▁ਭੇਜ	-1786
▁ਮਾਤਾ	-1787
ਗਰੀ	-1788
▁ਪਾਤ	-1789
▁ਲਾਭ	-1790
ੀਸਦੀ	-1791
▁ਉਸਦੇ	-1792
▁ਭਰਾ	-1793
ੁੱਪ	-1794
ਨੋ	-1795
▁ਖ਼ੁ	-1796
▁ਸ਼ੋ	-1797
ੰਭੀਰ	-1798
▁ਕੁਰ	-1799
ਲੂ	-1800
▁ਬੂ	-1801
▁ਦੇਣਾ	-1802
▁ਊ	-1803
▁ਅਪੀਲ	-1804
ਅਰਮ	-1805
▁ਸੰਭਾਲ	-1806
▁ਵਿਦੇਸ਼	-1807
▁ਜੂ	-1808
▁ਪਲ	-1809
▁ਦਾਅ	-1810
▁ਗੰਭੀਰ	-1811
▁ਐਨ	-1812
▁ਹਾਲਤ	-1813
▁ਪਿੰਡਾਂ	-1814
ਜਾਂ	-1815
ਤਰਾਂ	-1816
▁ਨਵਾਂ	-1817
▁More	-1818
▁ਨੋਟ	-1819
ੋਜਨਾ	-1820
ਈਆ	-1821
▁ਮਹੱਤ	-1822
ent	-1823
▁ਹਮਲਾ	-1824
▁ਮੈਚ	-1825
▁ਇੰਟਰ	-1826
▁ਅੱਤ	-1827
▁ਪਾਉਣ	-1828
▁ਦੂਸ	-1829
ਹਾਨ	-1830
▁ਸਜ਼ਾ	-1831
ਡਲ	-1832
▁ਪ੍ਰਦਰ	-1833
▁ਫੈ	-1834
▁ਜਾਇ	-1835
ਅਰਮੈਨ	-1836
aa	-1837
▁ਇਹੀ	-1838
▁ਚੰਗੀ	-1839
▁O	-1840
▁ਸਿਰਫ਼	-1841
▁ਹੁਸ਼ਿਆਰਪੁਰ	-1842
▁ਅਹੁ	-1843
ੋਜਨ	-1844
▁ਘੰ	-1845
▁ਨੌਜਵਾਨਾਂ	-1846
▁22	-1847
▁ਦੋਵੇਂ	-1848
▁ਸੰਬੋ	-1849
▁ਸਲਾਹ	-1850
▁ਸੱਭ	-1851
▁ਕਿਤੇ	-1852
▁23	-1853
▁ਪੈਸੇ	-1854
ਕੜ	-1855
▁ਚੂ	-1856
▁ਦੁੱਖ	-1857
ਵੋ	-1858
▁ਛੋਟੇ	-1859
▁ਰੋਜ਼	-1860
▁ਹੋਈਆਂ	-1861
▁ਅਪ੍ਰ	-1862
▁ਚੁੱਕੀ	-1863
▁ਭਾਰੀ	-1864
▁ਦਰਸ਼ਨ	-1865
▁ਤਰਾਂ	-1866
▁ਬੈਂਕ	-1867
▁ਸਮੁ	-1868
ਕੁਲ	-1869
▁ਕੱਟ	-1870
ਂਟ	-1871
ੈਸ਼ਨਲ	-1872
▁ਵਿਦਿਆਰਥੀ	-1873
▁ਮੁਹਿੰ	-1874
▁ਜਿਥੇ	-1875
ਜ਼ੇ	-1876
▁ਨਾਲੋਂ	-1877
▁ਚਿੰ	-1878
▁ਨੁਕਸਾਨ	-1879
ਹਿਰੀ	-1880
▁ਗਾਂਧੀ	-1881
ਕਰਨ	-1882
▁ਸਥਿਤ	-1883
▁ਰਾਜਨੀ	-1884
▁L	-1885
ਮੋ	-1886
▁ਅਦਾ	-1887
▁ਹਰੇਕ	-1888
▁ਜ਼ਿਕਰ	-1889
▁ਬੱ	-1890
ਪੱਖ	-1891
ou	-1892
▁ਹੱਲ	-1893
ਲੀਸ	-1894
▁ਚਾਹੁੰਦੇ	-1895
▁ਦਿਵਸ	-1896
▁ਸਵੇਰੇ	-1897
▁ਪ੍ਰਗਟ	-1898
ਮੀਤ	-1899
▁ਯੋਜਨਾ	-1900
▁ਬੁਲ	-1901
▁ਦੁਨੀਆ	-1902
▁ਰੌ	-1903
ੈਂਸ	-1904
▁ਸੁਆ	-1905
▁ਕੱਪ	-1906
ਦਾਰੀ	-1907
ਮੁਖ	-1908
▁ਮਿਸ	-1909
ਕੋਟ	-1910
ਪੁਰਾ	-1911
ਿਪ	-1912
ਰਾਈ	-1913
▁ਆਫ	-1914
▁ਜਾਣਗੇ	-1915
ਝਾ	-1916
ਮੇਲ	-1917
▁ਅੰਗਰੇ	-1918
▁ਸੰਗਤ	-1919
▁ਸਮਾਜਿਕ	-1920
▁ਰਾਹ	-1921
▁ਗੋਬਿੰਦ	-1922
▁ਅਪ੍ਰੈਲ	-1923
▁ਚੰਦ	-1924
▁ਮੂਲ	-1925
▁*	-1926
▁ਦੁਨੀਆਂ	-1927
੍ਰਾ	-1928
▁ਕਵਿ	-1929
▁ਲਏ	-1930
ਿਤੀ	-1931
ਿਮ	-1932
▁ਪ੍ਰਦੇਸ਼	-1933
▁ਬੀਤੇ	-1934
▁ਖਾਲਸਾ	-1935
▁ਮੁਹਿੰਮ	-1936
▁ਸ਼ੁਰੂਆ	-1937
▁ਖੁਸ਼	-1938
▁ਕਲੱਬ	-1939
▁ਮਗਰ	-1940
▁ਬਸ	-1941
▁m	-1942
▁ਚੇਅਰਮੈਨ	-1943
▁ਵੇਰ	-1944
▁ਫਾਰ	-1945
▁ਫੇਰ	-1946
▁ਮਾਮਲਾ	-1947
▁ਤਿਆ	-1948
▁ਮਿਲਾ	-1949
ਛਾਣ	-1950
▁ਕੀਰਤ	-1951
▁ਮਿਲਿਆ	-1952
▁ਉਸਦੀ	-1953
▁ਸ਼ਕਤੀ	-1954
▁ਮੁਕਤ	-1955
▁ਬਿਜਲੀ	-1956
▁ਪੁਲੀਸ	-1957
ਯੂ	-1958
▁ਹਰਿਆਣਾ	-1959
▁ਢਿੱ	-1960
ow	-1961
ਿਆਲ	-1962
▁ਮੰਡ	-1963
ਫਾ	-1964
ਭਗ	-1965
▁ਵਿਗਿਆਨ	-1966
ਠਿੰਡਾ	-1967
▁2018	-1968
▁ਅਮਰੀਕੀ	-1969
ਸੀਪਲ	-1970
▁ਆਰਥ	-1971
▁24	-1972
▁ਗਿੱਲ	-1973
ਟੋ	-1974
ਸ਼ੀਲ	-1975
▁ਝੂ	-1976
▁ਹਮਲੇ	-1977
▁ਮਹਾਨ	-1978
▁ਜ਼ਿੰ	-1979
aga	-1980
▁ਦਿਖਾ	-1981
▁ਸ਼ਾਹ	-1982
▁ਕਹਿੰਦੇ	-1983
▁Re	-1984
▁ਸਾਧ	-1985
ਅਲ	-1986
▁ਅਨੇ	-1987
▁ਸੰਬੋਧਨ	-1988
▁ਬੋਰਡ	-1989
ਰੇਸ਼ਨ	-1990
▁ਦਿੰਦਿਆਂ	-1991
▁ਕੇਂਦਰੀ	-1992
▁ਦੇਸ਼ਾਂ	-1993
▁ਕੈਂਪ	-1994
ਫਰ	-1995
▁B	-1996
▁ਅਭ	-1997
▁w	-1998
▁ਚੰਗਾ	-1999
▁ਹੌ	-2000
ੰਤੂ	-2001
▁ਕਿੰ	-2002
▁)	-2003
▁ਫ਼ਿਰ	-2004
▁ਖੇਡਾਂ	-2005
ਾਈਨ	-2006
ਚਿਤ	-2007
▁ਕਰਵਾਏ	-2008
▁ਪੈਂਦਾ	-2009
ੂਕ	-2010
▁ਮਜ	-2011
▁ਮਾਇਆ	-2012
ਜਰੀ	-2013
▁ਟਾ	-2014
▁ਫਰਵਰੀ	-2015
ਇਲ	-2016
▁ਪੁਸਤਕ	-2017
ਐਮ	-2018
▁ਆਜ਼ਾਦ	-2019
▁Raga	-2020
ਲੀਆ	-2021
ਦਾਰਾਂ	-2022
▁ਮੁਸਲ	-2023
ਢੀ	-2024
ਮੈ	-2025
▁ਬਲਕਿ	-2026
▁ਹਰੀ	-2027
ਚਲ	-2028
▁ਸਬੰਧਤ	-2029
▁ਸ਼ਾਇ	-2030
▁ਮੈਂਬਰਾਂ	-2031
ਇਹ	-2032
▁ਪ੍ਰਿੰ	-2033
▁ਗੈਰ	-2034
▁ਤੇਰੇ	-2035
▁ਲੇਖਕ	-2036
▁ਪੰਚਾਇ	-2037
ਧਰੀ	-2038
▁ਦਫ਼	-2039
▁ਵਾਸੀ	-2040
▁ਦਿੱਤੀਆਂ	-2041
ਨੀਂ	-2042
▁ਤਬ	-2043
▁ਉਸਨੇ	-2044
▁ਸਚ	-2045
▁ਅਗਲੇ	-2046
▁ਸ਼ਾਨ	-2047
▁ਅੱਖਾਂ	-2048
ਵਸਥਾ	-2049
▁ਖਤਮ	-2050
▁ਕੌਮੀ	-2051
▁ਮੰਡੀ	-2052
▁ਸਮੁੱਚ	-2053
▁ਤਨ	-2054
▁porn	-2055
▁ਵਿਸ਼ੇ	-2056
▁ਡਾਇਰ	-2057
▁D	-2058
▁ਵੀਰ	-2059
▁ਕਤਲ	-2060
▁ਹਾਦ	-2061
▁ਯੂਨੀਅਨ	-2062
▁ਉਦੋਂ	-2063
ਿਓ	-2064
▁ਚਰਚਾ	-2065
▁ਗਿਆਨੀ	-2066
ੁਕਤ	-2067
▁ਧਿਰ	-2068
▁ਸਕੂਲਾਂ	-2069
▁ਬਿਨਾ	-2070
▁ਹਲਕਾ	-2071
▁ਮਿੰ	-2072
▁ਜਿਹੜਾ	-2073
▁ਸੜਕ	-2074
ੁੱਕ	-2075
▁ਖਰੀਦ	-2076
▁ਬਾਵ	-2077
ਦੋਂ	-2078
▁ਲੱਭ	-2079
▁ਸਵਾ	-2080
▁ਬੀਬੀ	-2081
ਜਿਸ	-2082
ਠੇ	-2083
▁ਕਸ਼	-2084
ਜੰਸੀ	-2085
ਤਾਵਰ	-2086
ਬਈ	-2087
▁ਬਠਿੰਡਾ	-2088
▁ਰੋਡ	-2089
▁ਰਣਜੀਤ	-2090
▁ਪਛਾਣ	-2091
▁ਇਲਾਜ	-2092
▁ਉਤਪਾਦ	-2093
▁ਸੰਘਰ	-2094
▁ਜੰਮ	-2095
▁ਕਰਨਗੇ	-2096
▁ਜ਼ਮੀਨ	-2097
▁ਸੰਧੂ	-2098
▁ਅਵਤਾਰ	-2099
ਮੁੱਖ	-2100
ਸ਼ਾਂ	-2101
▁ਗੰ	-2102
▁ਯਕੀ	-2103
el	-2104
▁ਰੇਲ	-2105
▁ਸੰਗੀ	-2106
▁ਆਉਂਦਾ	-2107
ਸੋ	-2108
▁!	-2109
▁ਚੁਣ	-2110
ਹਾਲ	-2111
ਸਪ	-2112
▁ਪੁਲਸ	-2113
▁ਸੁਣਾ	-2114
▁ਮਹੱਤਵ	-2115
▁ਬੋਲੀ	-2116
▁ਸਾਡਾ	-2117
▁ਦਰਬਾਰ	-2118
▁ਪ੍ਰਗਟਾ	-2119
▁ਮੁਆ	-2120
▁ਨਜ਼	-2121
▁ਖੋਲ	-2122
▁ਕਿਸਮ	-2123
ੱਪ	-2124
▁ਪੈਰ	-2125
▁ਸੂਬਾ	-2126
ਪੂਰਨ	-2127
ਸਕ	-2128
▁ਸਕਣ	-2129
▁ਪ੍ਰਸਿੱ	-2130
ਜ਼ਨ	-2131
▁ਲਹਿਰ	-2132
ਬਾਨ	-2133
▁ਵਰਕਰ	-2134
▁ਆਉਂਦੇ	-2135
▁ਮਨੁੱਖੀ	-2136
▁ਸ਼ੇ	-2137
▁ਬਣਨ	-2138
▁ਨਿਰਦੇਸ਼	-2139
ਫੇ	-2140
▁ਥੋ	-2141
ਸੂਸ	-2142
▁ਗਰੁੱਪ	-2143
▁ਮਨਾਇਆ	-2144
▁ਦੂਜਾ	-2145
ਇਤਾ	-2146
▁ਵਾਤਾਵਰ	-2147
ਚਾਰੇ	-2148
▁ਦੋਸ਼ੀ	-2149
▁ਤਰੀਕੇ	-2150
▁1.	-2151
▁ਬਹਾ	-2152
▁ਪ੍ਰੇਮ	-2153
▁ਪ੍ਰਸ਼ਾਸਨ	-2154
▁ਬਾਵਜੂਦ	-2155
▁ਨਿਭਾ	-2156
▁ਕਰਵਾਈ	-2157
ਲੀਆਂ	-2158
ਸੰ	-2159
▁ਦਮ	-2160
▁in	-2161
▁ਦਿਹਾ	-2162
▁ਫ਼ੈਸ	-2163
ਕਾਈ	-2164
ਘੇ	-2165
▁ਮਹਾਰਾ	-2166
▁ਜਾਗਰ	-2167
ਹਰਾ	-2168
▁ਸ਼ਾਂ	-2169
ੜਿਆ	-2170
▁ਆਯ	-2171
▁ਲੱਗੀ	-2172
ੜਤ	-2173
▁ਹਮੇ	-2174
ਕਣ	-2175
▁ਫਾ	-2176
▁ਖੜ੍ਹ	-2177
▁ਸਥਿਤੀ	-2178
ਾਨੇ	-2179
▁ਟੈਟ	-2180
▁ਸਿੱਖੀ	-2181
▁ਹਥ	-2182
ਵਕ	-2183
ਟਰੋਲ	-2184
▁ਖਾਣ	-2185
▁ਵਿਅਕਤੀਆਂ	-2186
▁ਖ਼ਬਰ	-2187
ਸਿਕ	-2188
ਡੀਆਂ	-2189
kh	-2190
▁ਨੰ	-2191
▁ਪ੍ਰਦਰਸ਼ਨ	-2192
▁ਕੱਲ	-2193
▁ਸਫਲ	-2194
▁ਭਾਵਨਾ	-2195
▁ਫਲ	-2196
▁ਬੈਠੇ	-2197
▁ਬਲਾਕ	-2198
▁ਸ਼ੁਰੂਆਤ	-2199
▁ਵਾਧਾ	-2200
▁ਜਿਹਾ	-2201
▁ਚਮ	-2202
▁ਫਿਲ	-2203
▁ਖੁੱਲ	-2204
ਪਨ	-2205
▁ਬੜੀ	-2206
▁ਵਿਚਕਾਰ	-2207
▁ਪੌ	-2208
▁ਆਰਥਿਕ	-2209
▁ਨਸ਼ਿਆਂ	-2210
▁ਰੱਬ	-2211
▁ਮਹਿਸੂਸ	-2212
ਹੱਦ	-2213
▁ਭਰੋ	-2214
ਾਈਲ	-2215
▁50	-2216
▁ਐੱ	-2217
▁ਯਤਨ	-2218
▁ਕਾਨੂੰਨੀ	-2219
▁ਜਾਏ	-2220
▁Read	-2221
▁ਤੋੜ	-2222
▁ਚੰਗੇ	-2223
ਸਤੀ	-2224
▁ਸਹੂਲ	-2225
▁ਸ਼ਿਕਾ	-2226
▁ਜਮ	-2227
▁ਪੋਸਟ	-2228
ਜ਼ਮ	-2229
▁ਭਵਿੱ	-2230
▁ਭਰੇ	-2231
ਪੋ	-2232
ਨਿਆ	-2233
▁ਝੋ	-2234
▁ਜੱਜ	-2235
▁ਮਾਲਕ	-2236
▁ਜੇਲ੍ਹ	-2237
ੁੰਮ	-2238
▁ਸੰਘਰਸ਼	-2239
▁ਨਾਲ਼	-2240
▁ਪਤੀ	-2241
▁ਦੁਕਾਨ	-2242
▁ਬਣੀ	-2243
▁ਧੋ	-2244
ਵਾਸੀ	-2245
▁ਸਹਾਇਤਾ	-2246
▁ਵਲ	-2247
▁ਕਾਇਮ	-2248
▁ਟਰੰਪ	-2249
ਲਾਈਨ	-2250
▁ਜ਼ੋਰ	-2251
▁ਪ੍ਰੇਰ	-2252
▁ਜਿਹੀ	-2253
.)	-2254
ੌਤੀ	-2255
▁ਹਮੇਸ਼ਾ	-2256
ਬਾੜੀ	-2257
▁ਚੁੱਕਾ	-2258
ਣਕ	-2259
▁ਸੰਪਰ	-2260
ਹਲ	-2261
ਐਨ	-2262
▁ਚੀਨ	-2263
ਪੰਚ	-2264
ਰੀਮ	-2265
and	-2266
▁ਕਾਨ	-2267
▁ਕਹਿਣ	-2268
▁ਭਵਿੱਖ	-2269
▁ਇਨਸਾਨ	-2270
▁ਜ਼ਿਲ੍ਹੇ	-2271
▁ਸੁਖਬੀਰ	-2272
ੜਨ	-2273
▁ਹੋਣਗੇ	-2274
▁ਬਹਿ	-2275
▁ਮਗਰੋਂ	-2276
▁ਸਿਮ	-2277
▁ਸੇਵਾਵਾਂ	-2278
ਸ਼ੂ	-2279
▁ਥਾਣਾ	-2280
ੱਕਰ	-2281
ਜੂਦਾ	-2282
ਢੇ	-2283
▁ਪ੍ਰਸਿੱਧ	-2284
ਕਾਲ	-2285
▁ਸਾਥ	-2286
▁ਬਿਊ	-2287
▁ਕਦਮ	-2288
▁ਕੋਲੋਂ	-2289
▁ਲੈਂਦੇ	-2290
▁ਵਕੀ	-2291
▁ਜਨਤਾ	-2292
ਸੰਦ	-2293
▁ਕਾਫ਼ੀ	-2294
▁ਪਾਤਸ਼ਾਹ	-2295
▁ਬਾਦ	-2296
ol	-2297
▁ਭੁੱਲ	-2298
▁ਸੂਚਨਾ	-2299
▁ਵਪਾਰ	-2300
▁ਜ਼ਿੰਮੇ	-2301
▁198	-2302
▁ਜਿਹੇ	-2303
▁ਧੰਨਵਾਦ	-2304
▁ਦੋਵਾਂ	-2305
ਕਿਰ	-2306
▁ਹਾਲਾ	-2307
▁੨	-2308
ਗਨ	-2309
▁ਲੱਗਦਾ	-2310
▁ਦੇਖਣ	-2311
▁ਫ਼ਰ	-2312
ਟਸ	-2313
▁ਕ੍ਰਿ	-2314
ਸੰਗ	-2315
ਨਿਕ	-2316
▁ਗੁਰਮਤਿ	-2317
▁ਵੇਚ	-2318
ਦਾਰਥ	-2319
▁ਕੀਰਤਨ	-2320
▁ਸ਼ਰਾਬ	-2321
ਐੱਸ	-2322
▁2.	-2323
▁ਉੱਤਰ	-2324
▁ਨਰਿੰਦਰ	-2325
ਹਰੇ	-2326
▁ਰੋਸ	-2327
▁ਸਾਲਾ	-2328
▁ਮੁਹੱ	-2329
▁V	-2330
▁ਵਾਰੀ	-2331
ਮਾਲ	-2332
▁ਸਦੀ	-2333
▁ਡਾਇਰੈਕਟਰ	-2334
50	-2335
▁ਨਾਂਅ	-2336
▁I	-2337
▁ਸਟਾ	-2338
ਉਹ	-2339
ਟਿ	-2340
▁ਬੰਦੇ	-2341
ਖੰਡ	-2342
ਪਣ	-2343
▁ਸੁਧਾਰ	-2344
▁ਆਂ	-2345
▁ਪੁਰਖ	-2346
▁ਬਣਿਆ	-2347
▁ਇੰਡੀਆ	-2348
ਦੂਰ	-2349
▁ਕਰੇਗਾ	-2350
▁ਖੇਤੀਬਾੜੀ	-2351
▁ਤਕਨੀ	-2352
▁ਤੁਰੰਤ	-2353
ਖਾਈ	-2354
ਕੇਸ਼ਨ	-2355
▁ਇਸਦੇ	-2356
ਾਰੀਆਂ	-2357
▁ਮੌਜੂਦਾ	-2358
▁ਰਹਿੰਦੀ	-2359
ਵਤ	-2360
ੌਂ	-2361
▁ਜਗਤ	-2362
▁ਸਿਧਾਂ	-2363
▁ਸੈਂਟਰ	-2364
▁ਫੌਜ	-2365
▁ਭਾਈਚਾਰੇ	-2366
ਵਾੜਾ	-2367
▁ਕਾਰਣ	-2368
▁ਗਾਇ	-2369
▁ਟਾਈ	-2370
▁ਸ਼ਾਇਦ	-2371
▁ਫੀਸਦੀ	-2372
▁ਮੋਰ	-2373
▁ਸਾਫ	-2374
ਤੋਂ	-2375
▁ਕਿਹ	-2376
ਏਸ਼ਨ	-2377
▁ਤਬਦੀ	-2378
▁ਲਗਾਇਆ	-2379
▁ਛੁ	-2380
▁ਇਲ	-2381
▁ਇਕੋ	-2382
▁ਸਾਹ	-2383
▁ਲੜਾਈ	-2384
▁2017	-2385
▁ਘਰਾਂ	-2386
▁ਮਿਹਨ	-2387
ਦਰਾ	-2388
ੱਖਣ	-2389
▁ਮਨਜੀਤ	-2390
ਡਮ	-2391
ਿਟ	-2392
▁»	-2393
▁ਇੱ	-2394
▁ਜਮਾ	-2395
▁ਨਿੱਜੀ	-2396
ਜੋਤ	-2397
▁ਗੋਲੀ	-2398
▁ਬਿਊਰੋ	-2399
▁ਸਰਵ	-2400
▁ਦੇਰ	-2401
▁ਮੰਨਿਆ	-2402
ਗਾਂ	-2403
ਪਕ	-2404
▁ਟੈਟੂ	-2405
▁ਹਾਲਾਂ	-2406
▁ਯੋਗਦਾਨ	-2407
ee	-2408
ਜਾਈ	-2409
▁ਸ਼ੁ	-2410
ਇਨ	-2411
ਢਾ	-2412
ਮਲਿਆਂ	-2413
ac	-2414
▁K	-2415
▁ਬੰਦਾ	-2416
▁ਬ੍ਰਾ	-2417
ਡੋ	-2418
▁ਜਾਪ	-2419
▁ਅਨੇਕਾਂ	-2420
ation	-2421
▁ਵਧੇਰੇ	-2422
ਦਨ	-2423
ਉਸ	-2424
▁ਦੁਰ	-2425
▁ਹੈਰ	-2426
▁ਸਮਾਰ	-2427
ਟਰੀ	-2428
▁ਉਹੀ	-2429
▁ਅਹੁਦੇ	-2430
▁ਜੱ	-2431
▁ਅੰਕ	-2432
▁ਟਿਕ	-2433
▁ਫੋਨ	-2434
▁ਆਵਾਜ਼	-2435
▁ਖਬਰ	-2436
▁ਅਧਿਆਪਕ	-2437
▁ਹੈਂ	-2438
ਵਾਲੇ	-2439
▁(1	-2440
▁ਤੁਹਾਡੀ	-2441
ਜੀਵ	-2442
▁ਆਤਮਕ	-2443
▁[	-2444
▁ਤੇਲ	-2445
ਕਾਰਾ	-2446
▁ਦੇਖਿਆ	-2447
▁ਦਸਤ	-2448
▁ਪ੍ਰਧਾਨਗੀ	-2449
▁ਚਾਲ	-2450
ਜਰਾ	-2451
ੰਡੇ	-2452
ੱਤੀ	-2453
▁ਦਿਨੀਂ	-2454
ਆਮ	-2455
▁ਖਿੱ	-2456
ਭਰ	-2457
▁ਕਾਰੋ	-2458
ਵੰਡੀ	-2459
▁ਜਸਟ	-2460
▁h	-2461
▁ਪਹੁੰਚਾ	-2462
▁ਲਾਇ	-2463
▁ਨਸ਼ੇ	-2464
▁ਸ਼ਾਨਦਾਰ	-2465
ਕਾਰਡ	-2466
▁ਪਦਾਰਥ	-2467
▁the	-2468
▁ਫ਼ੌ	-2469
▁100	-2470
▁ਸਮਰਥ	-2471
▁ਮਸ਼	-2472
▁ਧੀ	-2473
▁ਮੁਖ	-2474
ਨਿਆਂ	-2475
ਲਤ	-2476
ਤਿਕ	-2477
ਬਰੀ	-2478
▁ਅਮਨ	-2479
▁ਲਗਭਗ	-2480
▁ਸਰਪੰਚ	-2481
ੱਕੇ	-2482
▁ਕਲਾਸ	-2483
▁ਵਿਸ਼ਵਾਸ	-2484
▁ਆਫ਼	-2485
▁ਕਲਾਂ	-2486
ਸ਼ਾਹੀ	-2487
▁ਗ੍ਰਹਿ	-2488
ਡੀਕਲ	-2489
▁ਕੁੜੀ	-2490
ਾਲਰ	-2491
▁ਖੋ	-2492
▁ਅਸ਼	-2493
▁ਇਹੋ	-2494
▁ਮਹਿਮਾਨ	-2495
ਊਂ	-2496
▁ਇਤਿਹਾਸਕ	-2497
▁ਮਾਰੇ	-2498
▁ਦਫ਼ਤਰ	-2499
ਮੀਆਂ	-2500
▁”	-2501
▁ਰਿਸ਼ਤੇ	-2502
▁ਕੌਂ	-2503
▁ਅਨੰਦ	-2504
▁ਰੈਲੀ	-2505
▁ਉਂ	-2506
▁ਆਉਂਦੀ	-2507
ੈਡ	-2508
▁26	-2509
▁ਆਜ਼ਾਦੀ	-2510
▁ਖ਼ਾ	-2511
▁ਕੀਮਤ	-2512
▁ਤਖ਼ਤ	-2513
▁ਸੁਪਰੀਮ	-2514
▁?	-2515
▁ਹਾਲਾਂਕਿ	-2516
ਸਾਇਟੀ	-2517
▁ਹਿਰ	-2518
▁ਤਲਵੰਡੀ	-2519
▁ਮਸ਼ੀ	-2520
▁0	-2521
▁ਉਸਦਾ	-2522
▁ਸਰਕਾਰਾਂ	-2523
ਫ਼ਤਾਰ	-2524
ਈਏ	-2525
▁ਕਾਬੂ	-2526
▁ਹਵਾ	-2527
▁ਜਹਾ	-2528
▁ਬੇਨ	-2529
▁ਲੈਂਦਾ	-2530
▁ਜਿਲ	-2531
▁ਕਿਲੋ	-2532
▁ਅਸਰ	-2533
▁ਧਨ	-2534
▁ਖੁਸ਼ੀ	-2535
▁ਸੰਬੰਧੀ	-2536
ਕੇਟ	-2537
▁ਯਾਤਰਾ	-2538
ਬਾਜ਼ੀ	-2539
▁ਘਟਨਾਵਾਂ	-2540
▁ਜਾਂਦੀਆਂ	-2541
ers	-2542
ੂਬ	-2543
▁ਆਨੰਦ	-2544
▁ਸੰਪਰਕ	-2545
ਹੁਲ	-2546
▁ਜਿਆਦਾ	-2547
▁ਮੈਨੇ	-2548
▁ਹਲਕੇ	-2549
ਇੰ	-2550
▁ਨਿਰਪੱਖ	-2551
▁ਗੁਰਦਾਸ	-2552
▁ਸੰਗੀਤ	-2553
▁ਚਾਹੁੰਦਾ	-2554
ਭਾਰ	-2555
▁F	-2556
ਬੰਦੀਆਂ	-2557
▁ਮਿਲਦਾ	-2558
ਮਿਕਾ	-2559
▁ਦੱ	-2560
▁ਆਸਟ	-2561
▁ਪਸੰਦ	-2562
ਤੁ	-2563
▁ਵੋਟਾਂ	-2564
▁28	-2565
▁ਪ੍ਰਦਾਨ	-2566
ਜਸ	-2567
▁ਨੇਤਾ	-2568
▁ਅਧਾਰ	-2569
▁ਬਣਾਏ	-2570
▁ਮਰੀ	-2571
ਭਾਵਨਾ	-2572
ਉਣੀ	-2573
▁ਮੁਸ਼ਕ	-2574
▁ਅਫਸਰ	-2575
ਧੁ	-2576
▁ਜਵਾਨ	-2577
▁ਪਾਰਟੀਆਂ	-2578
▁ਗੁੱ	-2579
ਿੱਪ	-2580
▁ਰਿਕਾਰਡ	-2581
▁ਕਵੀ	-2582
▁ਕਪੂਰ	-2583
▁ਟੈਸਟ	-2584
▁ਦਵਾਈ	-2585
▁ਹੁੰਦੀਆਂ	-2586
-2	-2587
▁ਸੁਰਿੰਦਰ	-2588
▁ਬੰਗ	-2589
▁ਮੁਫ਼ਤ	-2590
▁ਖਾਨ	-2591
▁ਮਾਹ	-2592
▁ਸੱਤ	-2593
▁ਹੰ	-2594
▁ਸਾਫ਼	-2595
ਬਿਆਂ	-2596
▁ਐਸੋ	-2597
▁ਕੁਦਰਤੀ	-2598
▁ਗਲਤ	-2599
▁ਫਾਇ	-2600
▁ਮਹਾਂ	-2601
▁ਇੰਟਰਨ	-2602
ਸ਼ੇ	-2603
▁ਅਥ	-2604
▁ਗਰੀਬ	-2605
▁ਢਿੱਲੋਂ	-2606
▁ਦਿਤਾ	-2607
▁ਹੋਰਨਾਂ	-2608
▁ਸਿਆਸਤ	-2609
▁ਕੂ	-2610
▁ਪੰਜਾਬੀਆਂ	-2611
ਲਡ	-2612
▁ਖ਼ਿਲਾ	-2613
ਪਿ	-2614
▁ਪ੍ਰਾਪਤੀ	-2615
▁ਠੇ	-2616
▁ਗੁਰਦੇਵ	-2617
▁ਅਸਲੀ	-2618
▁{	-2619
▁ਸ਼ਿਕਾਰ	-2620
▁ਨੈ	-2621
▁ਕਸ	-2622
▁ਨੀਤੀ	-2623
▁ਭੋਗ	-2624
▁ਵਿਕ	-2625
▁ਤਾਰ	-2626
ਮੂ	-2627
▁ਭਰਪੂਰ	-2628
▁ਬੜੇ	-2629
ਜਾਇ	-2630
▁ਅਕਸਰ	-2631
ਸ਼ਰ	-2632
ਜ਼ਲ	-2633
▁ਉਕਤ	-2634
▁ਢਾ	-2635
▁27	-2636
▁ਨਸ਼ਾ	-2637
▁ਸਾਬਤ	-2638
▁ਪੂਰਨ	-2639
ਤਲਬ	-2640
ੱਕਾ	-2641
▁ਤੈਨੂੰ	-2642
▁ਭੂਮਿਕਾ	-2643
ੋਂਦ	-2644
▁ਗੱਡੀ	-2645
▁ਪੰਚਾਇਤ	-2646
ਗੜ	-2647
▁ਕਵਿਤਾ	-2648
▁ਸ਼ਬਦਾਂ	-2649
▁ਸਹਾਇਕ	-2650
ਫਤਾਰ	-2651
ਦੋ	-2652
ਵੇਸ਼	-2653
ਰਾਸ਼ਟਰੀ	-2654
▁ਦੌੜਾਂ	-2655
▁ਮਾਪ	-2656
▁ਬਿਲਕੁਲ	-2657
▁ਦੁੱਧ	-2658
▁ਰੋਗ	-2659
▁ਚਾਹ	-2660
▁ਕਸ਼ਮੀਰ	-2661
▁ਨੁ	-2662
▁ਐਕਟ	-2663
ਠਨ	-2664
ਫ਼ਾ	-2665
▁ਸਵਾਰ	-2666
ਸ਼ਿਪ	-2667
▁ਰੋਕਣ	-2668
ਵਾਉਣ	-2669
▁ਉਪਲ	-2670
▁ਮੋਟਰ	-2671
▁ਵੱਸ	-2672
▁ਦਾਸ	-2673
▁ਉਦਯੋਗ	-2674
ਨਿਟ	-2675
▁ਹਵਾਈ	-2676
▁ਸੰਸਥਾਵਾਂ	-2677
▁ਲਾਇਆ	-2678
▁ਆਲ	-2679
▁ਡੈ	-2680
ਸ਼ੀਆ	-2681
▁ਮੁੰਬਈ	-2682
▁ਪਹੁੰਚੇ	-2683
ਾਈਆਂ	-2684
▁ਮਨੁੱਖਾ	-2685
ਗਿ	-2686
▁ਕਰਤਾਰ	-2687
▁ਸਾਹਿਬਾਨ	-2688
▁ਰਾਸ਼ਟਰੀ	-2689
▁ਪੈਣ	-2690
▁ਹਥਿਆਰ	-2691
ੁਸਤ	-2692
▁ਤਿਉ	-2693
▁ਪੱਛ	-2694
▁ਸਖ਼ਤ	-2695
▁of	-2696
▁ਵਕੀਲ	-2697
▁ਮੂਰ	-2698
:-	-2699
▁ਲੰਗ	-2700
▁ਜਗ੍ਹਾ	-2701
▁ਟੇ	-2702
▁ਡਿੱ	-2703
▁ਸ਼ਿਕਾਇਤ	-2704
▁ਘੰਟੇ	-2705
▁ਸਰੂਪ	-2706
▁ਦਾਅਵਾ	-2707
▁ਹਾਲਾਤ	-2708
▁ਫੈਸਲੇ	-2709
ri	-2710
▁ਸੁੰਦਰ	-2711
▁ਡੇਰਾ	-2712
▁ਮੈਡੀਕਲ	-2713
▁ਤੇਜ਼	-2714
▁ਮਿਹਨਤ	-2715
▁ਅਧਿਆਪਕਾਂ	-2716
ਂਹ	-2717
▁ਲੰਘ	-2718
▁ਦੀਵਾਲੀ	-2719
▁ਦੂਸਰੇ	-2720
▁ਸੂਚੀ	-2721
▁ਨੌਕਰੀ	-2722
▁ਲਾਉਣ	-2723
ਚਾਰਜ	-2724
ਮੈਂ	-2725
▁ਸਮਰਪਿਤ	-2726
▁ਲਗਾਉਣ	-2727
▁ਮੁਹੱਈਆ	-2728
▁ਦਿਸ਼ਾ	-2729
▁ਰਾਏ	-2730
ੂਰੀ	-2731
ਧਾਰੀ	-2732
ਵੇਗੀ	-2733
▁on	-2734
▁ਜਲਦੀ	-2735
▁ਦੂਜੀ	-2736
▁ਮੀਤ	-2737
▁ਬ੍ਰਿ	-2738
▁ਲਗਾਏ	-2739
▁ਬਖ	-2740
ਬਲਿਕ	-2741
▁ਸਪਸ਼ਟ	-2742
▁ਫੋਟ	-2743
ੱਧ	-2744
▁ਬਰਾਬਰ	-2745
▁ਖ਼ਤਮ	-2746
▁ਸੰਭਵ	-2747
▁ਰਖ	-2748
▁ਖ਼ਿਲਾਫ਼	-2749
▁ਘੋ	-2750
ਅੰਤ	-2751
▁ਐਸੋਸੀ	-2752
▁ਲੜੀ	-2753
ਛੀ	-2754
03	-2755
ਗਿਆ	-2756
▁ਸੱਭਿਆਚਾਰ	-2757
।’	-2758
▁ਬਹਾਦਰ	-2759
▁ਹਿੱਸੇ	-2760
▁ਸੁਭਾ	-2761
▁ਡਾਲਰ	-2762
▁ਮਿੰਟ	-2763
▁ਏਅਰ	-2764
▁ਖਾਂ	-2765
▁ਸੋਹ	-2766
▁ਪੁਰਾਣੇ	-2767
ਚਕ	-2768
et	-2769
▁ਸੁਰਜੀਤ	-2770
▁ਬਾਂ	-2771
▁ਮੌਕਾ	-2772
▁ਸਿਵਲ	-2773
▁ਪੈਨ	-2774
▁ਪ੍ਰਗਟਾਵਾ	-2775
--	-2776
▁ਮੇਲੇ	-2777
▁ਸੋਸ਼ਲ	-2778
▁ਸਤਿਕਾਰ	-2779
▁ਮੁਸਲਮਾਨ	-2780
▁ਐਂ	-2781
▁ਮਾਨਸਿਕ	-2782
▁ੳ	-2783
ਮੋਹ	-2784
▁2014	-2785
▁ਹੋਇ	-2786
▁ਦਫ	-2787
ੋਟੀ	-2788
▁ਸਾਂਝੇ	-2789
▁ਮਹਾ	-2790
▁ਸਾਰਿਆਂ	-2791
▁ਆਤਮ	-2792
▁ਤਿਉਹਾਰ	-2793
▁ਕਥ	-2794
ਤਾਵ	-2795
▁ਡੂੰ	-2796
▁ਮੰਦਰ	-2797
▁ਲੜਕੀ	-2798
▁ਅਸੀ	-2799
▁ਤਖਤ	-2800
ਜ਼ਮਾਂ	-2801
▁ਭੋਜਨ	-2802
▁ਲੈਣਾ	-2803
ਫਤ	-2804
▁31	-2805
▁ਸੱਤਾ	-2806
▁ਕੌਂਸਲ	-2807
▁ਵੇਖਿਆ	-2808
▁ਅਪਣਾ	-2809
▁ਨਕ	-2810
ਚਾਰੀ	-2811
▁ਪ੍ਰਮੁੱਖ	-2812
ਪਿੰਦਰ	-2813
ment	-2814
▁ਸਿਸਟ	-2815
ਮੀਟਰ	-2816
▁1,	-2817
▁ਉਨ	-2818
ਿਆਈ	-2819
▁ਲਿਖੇ	-2820
▁ਕੁੱਲ	-2821
▁ਮੰਤਰ	-2822
▁ਹਾਦਸੇ	-2823
ਜਾਏ	-2824
▁ਝਾ	-2825
▁ਲਾਹ	-2826
▁ਨਾਗਰ	-2827
▁ਤਲਾ	-2828
▁ਵਿਸ਼ਾ	-2829
ੜਿਆਂ	-2830
▁ਜਰਨ	-2831
▁ਸੌਂ	-2832
ਵਿੱਤਰ	-2833
▁ਯੂਰ	-2834
ਦੇਸ਼ੀ	-2835
▁ਕੌਮਾਂ	-2836
ਪਤਾ	-2837
▁ਭਲਾਈ	-2838
▁ਮਤਲਬ	-2839
ਗਣ	-2840
▁ਇੰਗ	-2841
▁ਦਬਾ	-2842
▁ਖਿਡਾਰੀ	-2843
▁ਨੈਸ਼ਨਲ	-2844
▁ਵਾਅ	-2845
▁ਤੇਰੀ	-2846
▁ਸਾਹਮਣਾ	-2847
ਹੂਰ	-2848
ch	-2849
ੋਰਨ	-2850
▁ਬੰਨ	-2851
ਨਾਕ	-2852
▁ਦਰਦ	-2853
▁ਸੰਸਦ	-2854
ਜੈ	-2855
▁ਬੁਰ	-2856
▁ਲੀਡਰ	-2857
▁ਪਾਏ	-2858
ਬਲੀ	-2859
ੱਤਿਆ	-2860
▁ਸਿਮਰਨ	-2861
▁29	-2862
▁ਕਾਂਗਰਸੀ	-2863
▁ਜਸਟਿਸ	-2864
ੰਡਨ	-2865
▁ਖਰਚ	-2866
▁ਰੱਖੀ	-2867
▁ਸਿਸਟਮ	-2868
ਂਦ	-2869
ਮਤਾਂ	-2870
▁ਤਹਿ	-2871
os	-2872
▁ਰੱਦ	-2873
▁ਵਰਤਿਆ	-2874
▁ਉਠਾ	-2875
▁ਘੁ	-2876
▁ਅਸਥ	-2877
▁ਮੁੱਦੇ	-2878
▁ਨਾਗਰਿਕ	-2879
ਊਸ	-2880
▁ਪਰਿਵਾਰਾਂ	-2881
▁ਬਿਰ	-2882
▁ਪਰਮਜੀਤ	-2883
▁ਦੋਹਾਂ	-2884
▁ਦਿਓ	-2885
ਸਿਆ	-2886
▁ਸਾਬੋ	-2887
ਜਰੀਵਾਲ	-2888
▁ਬਣਦਾ	-2889
▁ਅਟ	-2890
▁ਧਾਰਾ	-2891
▁ਦੁਖ	-2892
▁ਸੰਘ	-2893
▁ਟੈਕਸ	-2894
▁ਬੇਨਤੀ	-2895
ਕਾਤ	-2896
▁ਲਾਂ	-2897
▁ਅਖ਼	-2898
ਚੀਆਂ	-2899
▁ਦਿੰਦੀ	-2900
▁ਸਦਕਾ	-2901
ਜ਼ਤ	-2902
▁ਮਿਸ਼ਨ	-2903
ਚਾਲ	-2904
▁ਸਰਦਾਰ	-2905
▁ਰੱਖਦੇ	-2906
ਧਿ	-2907
▁ਪ੍ਰਵਾਨ	-2908
ਧੀਆਂ	-2909
▁ਪ੍ਰਿੰਸੀਪਲ	-2910
▁ਮਾਹੌਲ	-2911
▁ਕੇਜਰੀਵਾਲ	-2912
▁ਬਿੱ	-2913
▁ਸਭਿਆਚਾਰ	-2914
ਲਿ	-2915
▁ਕਰਾਂ	-2916
▁ਚਿੰਤਾ	-2917
▁ਜੌ	-2918
▁ਕਮਾਈ	-2919
▁ਲਖ	-2920
▁ਵਿਦਵਾਨ	-2921
ਡੀਅਨ	-2922
▁ਯੂਥ	-2923
▁ਪ੍ਰਦੂ	-2924
ਪਨਾ	-2925
ੰਨਾ	-2926
▁ਇਕੱਠੇ	-2927
▁ਭਰੋਸਾ	-2928
▁ਮਾਰਨ	-2929
▁ਦੋਸਤ	-2930
ਿਅਤ	-2931
▁ਚਰਨ	-2932
▁J	-2933
▁ਚੈ	-2934
▁ਪ੍ਰਣ	-2935
ay	-2936
:1	-2937
▁ਲੁੱਟ	-2938
▁ਅਪਣੇ	-2939
ਮੰਦਰ	-2940
ੋਜ਼	-2941
▁ਪਸ਼ੂ	-2942
ass	-2943
▁ਸਰਗਰ	-2944
▁ਕਾਰੋਬਾਰ	-2945
▁ਮਜ਼ਬੂਤ	-2946
▁ਪਵਿੱਤਰ	-2947
▁ਪਲੇ	-2948
▁ਸਨਮਾਨਿਤ	-2949
▁ਹੋਂਦ	-2950
▁ਖਿਲਾਫ਼	-2951
▁ਸਮੱਗ	-2952
▁ਐਸੋਸੀਏਸ਼ਨ	-2953
▁ਸਪੱ	-2954
▁40	-2955
▁ਸਾਇ	-2956
ਫਾਰ	-2957
ਕਲਾ	-2958
▁ਅਰਦਾਸ	-2959
▁ਸ਼ਿਵ	-2960
▁ਸਮਾਨ	-2961
▁ਖ਼ਾਲਸਾ	-2962
▁199	-2963
▁ਟੂਰ	-2964
▁ਸੁਸਾਇਟੀ	-2965
▁ਹੋਣੀ	-2966
ਨਗਰ	-2967
led	-2968
▁(2	-2969
ਊਨ	-2970
ਚਰਨ	-2971
ਬਤ	-2972
▁ਐਕਸ	-2973
ਨਣ	-2974
▁ਮੋਗਾ	-2975
ਜਿਆਂ	-2976
ਹਾਉ	-2977
▁ਬ੍ਰਾਹਮ	-2978
▁ਮਸ਼ਹੂਰ	-2979
▁ਬਾਈ	-2980
▁ਲੱਗਣ	-2981
▁ਫ਼ੈਸਲਾ	-2982
▁ਅਤਿ	-2983
▁ਯਕੀਨੀ	-2984
▁ਪੰਥਕ	-2985
▁ਅੰਦਾ	-2986
▁ਸਾਥੀ	-2987
▁ਜ਼ਾ	-2988
▁ਜੁੜੇ	-2989
ਜੁ	-2990
ੱਖਣੀ	-2991
▁ਦੇਖੋ	-2992
ਪਟ	-2993
ਤੰਤਰ	-2994
ਰੁ	-2995
ਲਾਮ	-2996
▁ਵਿਚਾਰਾਂ	-2997
▁ਧਾ	-2998
▁ਹਟਾ	-2999
▁ਹੇਠਾਂ	-3000
▁ਅੰਗਰੇਜ਼ੀ	-3001
▁ਹਕੂ	-3002
▁ਲਿਆਂ	-3003
▁ਪੱਤਰਕਾਰਾਂ	-3004
▁ਐਂਡ	-3005
▁ਚਲਾਉਣ	-3006
▁g	-3007
▁ਕਹਿੰਦਾ	-3008
▁ਪੀਣ	-3009
▁ਗੁਰਮੀਤ	-3010
▁ਦੋਸ਼ੀਆਂ	-3011
▁ਖਿਡਾਰੀਆਂ	-3012
ਰੀਏ	-3013
ਸ਼ਨੀ	-3014
ਰਾਏ	-3015
ਿਸਾ	-3016
▁ਇਸ਼	-3017
▁ਯੁ	-3018
ੂਆਂ	-3019
▁ਇਮਤਿ	-3020
▁ਬਚਾਉਣ	-3021
ਬੂਰ	-3022
▁ਗਤੀ	-3023
▁ਕਰਾਉਣ	-3024
▁ਖ਼ੁਦ	-3025
ਹਿਗੁਰੂ	-3026
▁ਇਮਤਿਹਾਨ	-3027
▁ਫੀ	-3028
ੰਘ	-3029
▁ਕੁਲਦੀਪ	-3030
ਕਿਰਿਆ	-3031
▁ਸੋਮ	-3032
▁ਸੜਕਾਂ	-3033
ਵਟ	-3034
▁ਬੇਅਦ	-3035
ਇਤਾਂ	-3036
▁ਉਰ	-3037
▁ਅਰਬ	-3038
▁ਦੱਸਣ	-3039
▁ਿ	-3040
▁ਮਜ਼ਦੂਰ	-3041
ਐੱ	-3042
ਲੀਜ਼	-3043
▁ਵੇਰਵੇ	-3044
▁ਮਕਸ	-3045
ਝੇ	-3046
▁a	-3047
▁not	-3048
▁ਇੰਦਰ	-3049
▁ਹਵਾਲੇ	-3050
▁ਸਮਝਣ	-3051
▁ਸੁੱਖ	-3052
▁ਸੈਕੰਡ	-3053
ਬਾਦੀ	-3054
▁ਉਤਰ	-3055
▁2016	-3056
▁ਇਸਦਾ	-3057
▁ਬੁਲਾ	-3058
ਜਲ	-3059
ਮੰਤਰੀ	-3060
▁ਵਾਪਰ	-3061
▁ਨਤੀਜੇ	-3062
▁ਗੁਰਪ੍ਰੀਤ	-3063
▁ਮਰਨ	-3064
ੁੰਨ	-3065
▁ਹਾਲੇ	-3066
▁ਮੁਤਾਬਿਕ	-3067
▁ਕਤ	-3068
▁ਸੰਨ	-3069
▁ਆਦੇਸ਼	-3070
▁ਭੱ	-3071
▁ਹੁਕ	-3072
▁ਸ਼ਾਂਤੀ	-3073
▁ਐਡ	-3074
▁ਛੇਤੀ	-3075
ਦੈ	-3076
ੈੱਸ	-3077
▁ਮਿਲਦੀ	-3078
▁ਬੜਾ	-3079
▁ਕਾਲੇ	-3080
▁ਚੋਰੀ	-3081
▁ਪਹਿਲ	-3082
▁ਸਿਟੀ	-3083
▁ਲੰਗਰ	-3084
▁ਕਮੀ	-3085
▁ਟ੍ਰ	-3086
▁ਖੂਨ	-3087
▁ਸਟੇਟ	-3088
▁ਅਕਾ	-3089
▁ਨਿਰਮਾਣ	-3090
▁ਦੇਵੀ	-3091
▁ਸਪੱਸ਼ਟ	-3092
ਣਿਆਂ	-3093
▁ਲਿਆਉਣ	-3094
▁ਮੁਲਾਕਾਤ	-3095
ਾਂਸ	-3096
▁ਤਾਕਤ	-3097
▁ਇਨਸਾ	-3098
id	-3099
▁ਸਕਿਆ	-3100
ਟਲੀ	-3101
▁ਸੰਭਾਵਨਾ	-3102
▁ਬਰਨ	-3103
ਰਿਆਂ	-3104
▁ਕਦੀ	-3105
▁ਦਹਾ	-3106
▁ਸਕੀਮ	-3107
▁ਅਜਿਹੀਆਂ	-3108
▁ਹੱਦ	-3109
ਰੇਟ	-3110
ਜ਼ੁਰ	-3111
▁ਵਾਈ	-3112
▁ਅਚ	-3113
▁ਦ੍ਰਿਸ਼	-3114
▁ਸ਼ਰਧਾ	-3115
▁ਵੱਲੋ	-3116
ਰੀਨ	-3117
▁ਪੈਂਦੇ	-3118
ਜ਼ਿਲ	-3119
▁ਆਰੰਭ	-3120
▁ਵਰਕਰਾਂ	-3121
ੱਥੋਂ	-3122
▁ਥਾਵਾਂ	-3123
▁ਕਣਕ	-3124
▁ਸਫ਼ਲ	-3125
▁ਪ੍ਰਭਾਵਿਤ	-3126
▁ਇੰਚਾਰਜ	-3127
ਫਿ	-3128
ਬਾਰੀ	-3129
ਬਾਨੀ	-3130
▁ਮਾਮਲਿਆਂ	-3131
ਥਰ	-3132
ਸਾਈਟ	-3133
▁ਬੇਅਦਬੀ	-3134
▁ਹਰਾ	-3135
ਰੇਸ਼	-3136
▁ਕਮਾ	-3137
▁ਦੌੜ	-3138
▁ਐਤ	-3139
▁ਅਮਰਜੀਤ	-3140
▁ਕਾਰਡ	-3141
▁ਮਹੱਤਵਪੂਰਨ	-3142
▁ਇੰਗਲੈਂਡ	-3143
▁ਕਰਾਰ	-3144
ਭਾਈ	-3145
▁ਫੁੱਟ	-3146
▁ਪੜ੍ਹਾਈ	-3147
▁ਸੈਕੰਡਰੀ	-3148
▁ਦੇਂ	-3149
oo	-3150
▁th	-3151
▁ਹੱਤਿਆ	-3152
▁ਜਿਹੜੀ	-3153
▁ਲੱਗਿਆ	-3154
▁2015	-3155
▁ਦਿਖਾਈ	-3156
▁ਮੂ	-3157
▁ਗਵਾ	-3158
▁ਕੰਮਾਂ	-3159
▁ਕੈਲ	-3160
ਰਾਮਦ	-3161
▁ਡਰਾ	-3162
▁ਤਸਵੀਰ	-3163
30	-3164
▁ਦੀਪ	-3165
ਦਿਆ	-3166
▁ਨਾਰ	-3167
▁ਮਿਤੀ	-3168
▁ਖੋਲ੍ਹ	-3169
ਕਸੀ	-3170
▁ਮੁਰ	-3171
ਖਣ	-3172
ਚੇਤ	-3173
▁ਮਾਡਲ	-3174
▁ਗੁਰਬ	-3175
▁ਮਹਿੰ	-3176
▁ਮੰਡਲ	-3177
▁ਬਰਾੜ	-3178
▁ਹਿਰਦੇ	-3179
ਵਰਾਂ	-3180
▁ਸਤਿਗੁਰੂ	-3181
▁ਤੇਰਾ	-3182
ਦਿ	-3183
▁੩	-3184
▁ਕੰਟਰੋਲ	-3185
▁l	-3186
▁ਸਪਲਾਈ	-3187
▁ਪ੍ਰੰਤੂ	-3188
ਿੰਗਟਨ	-3189
▁ਵਿਵਾਦ	-3190
▁ਸਵਾਗਤ	-3191
▁ਪਰਮੇਸ਼	-3192
▁ਵਾਸੀਆਂ	-3193
▁ਹਫ਼	-3194
▁ਸੁੱਟ	-3195
▁ਕਰੇਗੀ	-3196
▁ਜਹਾਜ਼	-3197
▁ਸ਼ੀ	-3198
▁ਸਵੀ	-3199
▁ਦਮਦ	-3200
▁ਪਬਲਿਕ	-3201
ੁੱਡ	-3202
▁ਕਮਲ	-3203
▁ਕਨ	-3204
▁ਮੰਦ	-3205
▁ਵਿਸ਼ਾਲ	-3206
▁ਵਾਹ	-3207
▁•	-3208
ਿਅਕ	-3209
▁ਭੈਣ	-3210
▁ਮੁੰਡੇ	-3211
ੱਲੀ	-3212
▁ਰਜ	-3213
ੁਰਮਾਨ	-3214
▁ਮੁਲਕ	-3215
ਸਿੱਖ	-3216
ਵਿਧਾਨ	-3217
▁ਚਲੇ	-3218
▁ਹਦਾ	-3219
▁ਵੋ	-3220
▁ਹਉ	-3221
▁ਜ਼ਰੂਰਤ	-3222
▁ਦਾਖਲਾ	-3223
ਬਿ	-3224
ਨਿੱ	-3225
ਯੁਕਤ	-3226
▁ਕਰਦੀਆਂ	-3227
▁ਚੈਨ	-3228
▁ਸਖਤ	-3229
▁ਜ਼ਖ਼	-3230
▁ਭੁੱਖ	-3231
▁ਅਪਰਾ	-3232
▁ਕਥਾ	-3233
▁ਪੰਡ	-3234
ਸੂਰ	-3235
▁ਹਾਊਸ	-3236
▁ਅੱਠ	-3237
▁ਦੱਖਣੀ	-3238
▁ਇੰਡ	-3239
▁ਚਾਂ	-3240
ਟਰਾਂ	-3241
ਚਾਰੀਆਂ	-3242
▁ਬਟ	-3243
।[	-3244
▁ਵੈਬ	-3245
▁ਵਿਖਾ	-3246
▁ਵਿਦੇਸ਼ੀ	-3247
ਉਂਦਿਆਂ	-3248
▁ਕੰਪਨੀਆਂ	-3249
▁ਸੁਣਵਾਈ	-3250
▁ਰਾਣਾ	-3251
▁ਸੰਗਰ	-3252
▁ਮੁੱਲ	-3253
▁ਤੁਹਾਡਾ	-3254
▁ਰਾਜਾ	-3255
▁ਕੱਲ੍ਹ	-3256
▁ਪੱਤਰਕਾਰ	-3257
▁ਦਰਸਾ	-3258
▁ਪਵੇਗਾ	-3259
ਧਾਨੀ	-3260
▁ਕਰਣ	-3261
▁ਸ਼ੈ	-3262
▁ਰਾਹੁਲ	-3263
▁ਸੁੱ	-3264
__	-3265
▁ਵਾਸ਼	-3266
ਜਾਰ	-3267
▁ਨਤੀਜਾ	-3268
▁ਗ੍ਰਿਫਤਾਰ	-3269
▁ਵਧਾਈ	-3270
▁ਭਰਿਆ	-3271
▁ਯੋ	-3272
▁ਨਿਸ਼ਾਨ	-3273
▁ਗਾਹ	-3274
▁ਨਾਟਕ	-3275
▁ਸਮੱਗਰੀ	-3276
ਖਮੀ	-3277
,000	-3278
em	-3279
▁ਸਰੋਤ	-3280
▁ਨਿਗਮ	-3281
ਬੰਦ	-3282
▁ਦਾਖਲ	-3283
ਕਾਮ	-3284
ਹਰੀ	-3285
ਜੰਟ	-3286
▁ਮਸ਼ੀਨ	-3287
,,	-3288
▁ਬਿਮਾਰ	-3289
▁ਬਲਵਿੰਦਰ	-3290
▁ਸ਼ਹਿਰਾਂ	-3291
ff	-3292
▁ਜੇਤੂ	-3293
▁ਦਿਮਾ	-3294
▁ਸਮੁੱਚੇ	-3295
▁ਸਜਾ	-3296
▁ਰੱਖੇ	-3297
▁ਕੰਪਿਊ	-3298
▁ਹਫ	-3299
▁ਖਾਲ	-3300
▁ਸ਼ਰੀ	-3301
ੱਡੀਆਂ	-3302
▁ਬ੍ਰਹਮ	-3303
ਧਾਰਾ	-3304
▁ਕੈਮ	-3305
▁ਮਾਰਗ	-3306
ਅਸਲ	-3307
▁ਖੂਬ	-3308
▁ਪੁੱਜ	-3309
ਦਾਈ	-3310
▁ਵਾਹਿਗੁਰੂ	-3311
▁ਵੇਖਣ	-3312
▁ਠਾ	-3313
ul	-3314
ਕਰਾ	-3315
▁ਇਥੋਂ	-3316
▁ਕਬੱਡੀ	-3317
▁ਗੁਣਾਂ	-3318
▁ਸਿਰਸਾ	-3319
▁ਭੰਗ	-3320
▁ਲਿਖਣ	-3321
▁ਸਿਧਾਂਤ	-3322
ੀਂ	-3323
▁ਅਮਲ	-3324
▁ਝੋਨੇ	-3325
▁ਨਹਿਰ	-3326
▁ਲੜਕੀਆਂ	-3327
ct	-3328
ਿਕਸ	-3329
▁ਪੂਜਾ	-3330
ਮਣ	-3331
ੰਡਾ	-3332
▁Ex	-3333
▁ਭੋ	-3334
▁ਬਹੁਤੇ	-3335
▁ਮਾਸਟਰ	-3336
▁ਬੀਜ	-3337
".	-3338
ਸਬ	-3339
▁ਫੜ	-3340
▁ਦਫਤਰ	-3341
ਸਿਆਂ	-3342
▁ਹਰਿਮੰਦਰ	-3343
▁ਚੀਜ਼	-3344
▁ਖਹਿਰਾ	-3345
▁ਸਹੂਲਤਾਂ	-3346
ਰਥ	-3347
ਡ਼	-3348
ਮਾਇ	-3349
▁ਮਿੱਟੀ	-3350
hi	-3351
▁ਹੌਲੀ	-3352
▁ਹਜ਼ਾਰਾਂ	-3353
-0	-3354
▁ਬਿਹ	-3355
▁ਸੂਰਜ	-3356
▁ਤੀਕ	-3357
ੰਧਾ	-3358
▁ਤਸਵੀ	-3359
▁ਪੱਧਰੀ	-3360
▁ਬਰਾਮਦ	-3361
▁ਆਵਾ	-3362
▁ਫੋਟੋ	-3363
ਨੁ	-3364
▁ਗਾਇਕ	-3365
▁ਬੈਠਾ	-3366
▁ਪਲਾ	-3367
ਜ਼ਗਾਰ	-3368
▁ਸਟਾਰ	-3369
▁ਗੁਰਮੁਖ	-3370
▁ਫੁੱਲ	-3371
▁ਮੈਦਾਨ	-3372
ਰੇਡ	-3373
▁ਮੱਧ	-3374
▁ਭੁਗਤ	-3375
▁ਲਾਈਨ	-3376
ਲੀਫ	-3377
▁ਟੋ	-3378
ower	-3379
ੰਮਦ	-3380
▁ਉਦਘਾ	-3381
▁ਮੁਸ਼ਕਿਲ	-3382
▁ਘਰੇ	-3383
▁ਖਿੱਚ	-3384
ੰਦਾ	-3385
▁ਟੁੱਟ	-3386
▁ਦਲੀ	-3387
▁ਮਾਈ	-3388
ੋਜੀ	-3389
ਸ਼ਟੀ	-3390
▁ਰਹਿਣਾ	-3391
▁ਪੜ੍ਹਨ	-3392
▁ਹਕੂਮਤ	-3393
▁ਧਮਾ	-3394
▁ਸ਼ੇਰ	-3395
ਇਰ	-3396
▁ਉੱਠ	-3397
▁ਇਸਨੂੰ	-3398
▁ਜਥੇਬੰਦੀਆਂ	-3399
ਪੀਅਨ	-3400
▁ਥਾਣੇ	-3401
ਰੀਦਕੋਟ	-3402
ਬੱਧ	-3403
▁ਜੰਮੂ	-3404
▁ਇਮਾਰ	-3405
▁ਭੱਜ	-3406
▁ਮੀਟਰ	-3407
▁ਮਾਹਿਰ	-3408
▁ਵਿਰਾ	-3409
▁W	-3410
▁ਰੇਲਵੇ	-3411
▁ਵਧਾਉਣ	-3412
▁ਬਜਾਏ	-3413
▁ਮਾਰਕੀ	-3414
▁ਦਾਨ	-3415
▁ਜਰਮ	-3416
▁ਨੇੜ	-3417
੍ਤ	-3418
ਨਾਥ	-3419
▁ਕੈਬ	-3420
▁fil	-3421
ਧੁਨਿਕ	-3422
▁ਪਾਰਕ	-3423
ਜੋੜ	-3424
▁ਪ੍ਰੇਸ਼	-3425
▁ਰਹਿਤ	-3426
▁ਬਜ਼ੁਰ	-3427
▁ਕਰਮਚਾਰੀਆਂ	-3428
ੜਕ	-3429
▁ਵਾਰਡ	-3430
▁ਨਿਊਜ਼	-3431
▁ਪ੍ਰਕਾਰ	-3432
ਝੀ	-3433
iss	-3434
▁ਵਾਤਾਵਰਣ	-3435
▁ਘੁੰਮ	-3436
▁ਗੁਰੁ	-3437
▁ਸਾਂਝੀ	-3438
▁ਤਸਵੀਰਾਂ	-3439
ਐਲ	-3440
ਹੈ	-3441
▁ਜਮਾਤ	-3442
▁ਪੱਖੋਂ	-3443
▁ਬਿਮਾਰੀ	-3444
ਫੈ	-3445
▁ਉਲਟ	-3446
▁ਇਸਤੇ	-3447
▁ਬੁੱਧ	-3448
▁ਸਰੀਰਕ	-3449
ਾਲੀਵ	-3450
▁ਉਠ	-3451
▁੫	-3452
ਪਾਂ	-3453
▁ਸ਼ੂ	-3454
▁ਭ੍ਰਿਸ਼	-3455
▁ਇਨਾਮ	-3456
▁ਮਕਸਦ	-3457
▁ਨਿਯਮ	-3458
▁ਵਕਤ	-3459
▁ਮੰਚ	-3460
▁ਕਾਮਯਾ	-3461
▁ਕਰੀਏ	-3462
ਨਿਰ	-3463
▁ਲਗਦਾ	-3464
▁ਪੈਂਦੀ	-3465
ਸਲਾਂ	-3466
▁ਕੁੰ	-3467
▁ਗਰਮ	-3468
▁ਅੰਤਰਰਾਸ਼ਟਰੀ	-3469
▁Aw	-3470
ting	-3471
▁ਬੇਹੱਦ	-3472
▁ਕਟ	-3473
ਰੀਬਨ	-3474
▁ਖਾਲੀ	-3475
us	-3476
▁ਚਿਰ	-3477
▁ਸਿਰਜ	-3478
▁ਐਤਵਾਰ	-3479
▁ਗੁਰਦਾਸਪੁਰ	-3480
▁ਗੱ	-3481
▁ਨਿਰਮਲ	-3482
▁ਰੱ	-3483
▁ਰਸਤੇ	-3484
▁Cl	-3485
ਬਾਰਾ	-3486
ਸਕਾਰ	-3487
▁ਮ੍ਰਿਤ	-3488
ਸਿਲ	-3489
ਮਿ	-3490
ਵਲੀ	-3491
▁ਦੁਸ਼	-3492
▁ਆਖਰੀ	-3493
▁ਸ਼ਹੀਦੀ	-3494
▁ਚੁੱਪ	-3495
▁ਟਰੱਕ	-3496
▁ਸਮੱਸਿਆਵਾਂ	-3497
ਵਣ	-3498
ਨਿੰਗ	-3499
▁ਪ੍ਰਮਾਣ	-3500
▁ਰਹੇਗਾ	-3501
▁ਮੰਗਲ	-3502
▁re	-3503
▁ਦਰਿਆ	-3504
▁ਬਾਜ਼ਾਰ	-3505
▁ਕੌਣ	-3506
ost	-3507
ਰਾਹ	-3508
▁ਫੋਰ	-3509
▁ਜਰੂਰ	-3510
▁ਮੁਲਾਜ਼ਮਾਂ	-3511
▁ਬੇਅੰਤ	-3512
▁ਬੁਲਾਰੇ	-3513
▁ਇਸਤੇਮਾਲ	-3514
▁ਸਵੈ	-3515
▁ਤਕਰੀਬਨ	-3516
▁ਪੁੱਛਿਆ	-3517
ਰਿ	-3518
ਜ਼ਾਮ	-3519
aaz	-3520
▁Nir	-3521
▁ਘਾਟ	-3522
▁ਜ਼ਿਕਰਯੋਗ	-3523
▁ਅਚਾਨਕ	-3524
▁ਟੈਕ	-3525
▁ਅਰਜਨ	-3526
▁ਸਮਝਾ	-3527
▁ਹਿਸਾ	-3528
ੰਮਲ	-3529
▁ਜਪ	-3530
▁ਏਜੰਸੀ	-3531
▁ਮਸਲੇ	-3532
▁ਕੁਦਰਤ	-3533
ਾਰਕ	-3534
ra	-3535
ਫਲ	-3536
▁ਸਿਲ	-3537
▁ਕੁੜੀਆਂ	-3538
▁filled	-3539
pakh	-3540
▁Awaaz	-3541
ਹੁਣ	-3542
▁ਨਾਵਲ	-3543
ਿਸਤਾਨੀ	-3544
▁ਬਰਨਾਲਾ	-3545
▁ਕਿਤਾਬਾਂ	-3546
▁ਐਚ	-3547
▁ਰਾਜਨੀਤੀ	-3548
ਟਾਚਾਰ	-3549
▁ਦਰਸ਼	-3550
▁ਲੰਡਨ	-3551
▁Nirpakh	-3552
▁Ad	-3553
▁ਇੰਦ	-3554
ਡੈਂਟ	-3555
▁ਅਸਤੀ	-3556
▁ਸੰਗਰੂਰ	-3557
▁ਇੰਜੀ	-3558
▁ਸਿਮਰ	-3559
201	-3560
▁ਮੁਕੰਮਲ	-3561
▁ਬਖ਼	-3562
▁ਭਾਂ	-3563
▁ਪ੍ਰਕਿਰਿਆ	-3564
ਰਜਾ	-3565
ਜ਼ੋਰ	-3566
▁ਮੰਗਾਂ	-3567
ਤ੍ਰ	-3568
▁ਰੱਖਦਾ	-3569
ਿਆਸ	-3570
▁ਪਦ	-3571
▁ਸ੍ਰੀਮਤੀ	-3572
▁ਸੁਰੱਖਿਅਤ	-3573
▁ਪਹਾ	-3574
▁ਕਿਰਪਾ	-3575
▁3.	-3576
ਰਾਂਸ	-3577
▁ਸਵ	-3578
▁ਭਰੀ	-3579
▁ਸਬੂਤ	-3580
▁ਸਥਾਪਤ	-3581
▁ਪਾਬੰਦੀ	-3582
ਤਾਪ	-3583
▁Com	-3584
▁ਮੁਕਾਬਲਾ	-3585
:2	-3586
▁ਚੁੱਕਿਆ	-3587
▁ਸੁਖਦੇਵ	-3588
▁ਅੱਤਵਾਦੀ	-3589
▁ਅਵਸਥਾ	-3590
▁ਕਾਹ	-3591
▁ਨੰਗ	-3592
▁ਦਿਸ	-3593
▁ਚਲਾਈ	-3594
▁ਪ੍ਰਭ	-3595
▁ਰਾਜੇ	-3596
ਡਿਆਂ	-3597
▁ਜਾਣਦੇ	-3598
ਕੇਸ਼	-3599
▁ਅਰੋ	-3600
▁ਜਨਤਕ	-3601
ੋਟੇ	-3602
▁ਤੂ	-3603
ਉੜੀ	-3604
ਪ੍ਰਭੂ	-3605
▁ਮਾਤਰਾ	-3606
um	-3607
ate	-3608
▁ਪੀੜਤ	-3609
▁ਸਮਝੌ	-3610
iv	-3611
▁ਸੈਨਾ	-3612
ind	-3613
▁ਵਡ	-3614
▁ਉਮੀਦਵਾਰਾਂ	-3615
ਏਜੰਸੀ	-3616
▁ਕੰਪਿਊਟਰ	-3617
▁‘‘	-3618
ਮੋਹਨ	-3619
ਾਲੀਵਾਲ	-3620
▁5,	-3621
▁ਧੂ	-3622
▁ਇੰਸ	-3623
▁ਮਨਾਉਣ	-3624
▁ਮਾਪਿਆਂ	-3625
▁ਪ੍ਰਦੂਸ਼ਣ	-3626
੍ਹਿਆਂ	-3627
ੋਜ਼ਪੁਰ	-3628
▁ਦੌਰਾ	-3629
ਾਨਾਂ	-3630
▁ਮਜੀ	-3631
▁ਨਿਯਮਾਂ	-3632
▁ਇੱਕੋ	-3633
▁Exam	-3634
▁ਮੱਲ	-3635
ਸੁਰ	-3636
ਆਪਣੇ	-3637
▁ਗੈਸ	-3638
ਨਾਈ	-3639
▁ਮਾਸ	-3640
▁ਬਣਦੀ	-3641
ਤਰੇ	-3642
▁ਗਰੇ	-3643
▁ਆਪਸੀ	-3644
▁ਵਿਸਥ	-3645
ਖ਼ਲਾ	-3646
ਕਨ	-3647
▁ਸੰਯੁਕਤ	-3648
ਚਾਣ	-3649
ਟਕਾ	-3650
▁ਨਿੰ	-3651
▁ਛੋਟੀ	-3652
▁Lower	-3653
▁ਸ਼ੇਅਰ	-3654
ਸ਼ਦ	-3655
▁ਪੈਸਾ	-3656
▁ਪੱਥਰ	-3657
▁ਸੁਪਰ	-3658
▁ਮੁਹੰਮਦ	-3659
▁ਵਿਸਥਾਰ	-3660
▁ਆਧੁਨਿਕ	-3661
ਜ਼ਰੀ	-3662
▁ਭਰਮ	-3663
ਲਾਸ	-3664
▁ਵਾਸ਼ਿੰਗਟਨ	-3665
ਫਰੰਸ	-3666
ਬਾਂ	-3667
▁ਕੈਂਸਰ	-3668
▁ਗੁੰ	-3669
▁ਊਰਜਾ	-3670
▁ਰਾਹਤ	-3671
ov	-3672
▁ਲੱਖਾਂ	-3673
▁ਸਤਿਗੁਰ	-3674
▁ਸਬੰਧਿਤ	-3675
▁to	-3676
▁ਰਾਜਧਾਨੀ	-3677
ਟੂ	-3678
▁ਅਖ਼ਬਾਰ	-3679
▁ਭਰਤੀ	-3680
▁ਦਲਿਤ	-3681
▁ਬਦਲਾ	-3682
▁ਰੋਟੀ	-3683
ਾਈਨਲ	-3684
▁ਬਾਜ	-3685
▁ਚਾਹੇ	-3686
▁ਕ੍ਰਿਕ	-3687
▁ਕਹਾਣੀਆਂ	-3688
▁ਕੁੱਟ	-3689
▁ਬਾਬੇ	-3690
▁ਬੈਠਕ	-3691
ਬਧ	-3692
▁ਡੇਰੇ	-3693
▁ਮੁੱਢ	-3694
▁ਰਿਲੀਜ਼	-3695
▁ਰੋਜ਼ਾਨਾ	-3696
ਵਾਰਾ	-3697
ਵੀਆਂ	-3698
▁ਲਾਏ	-3699
ਸੀਲ	-3700
▁ਫ਼ਿਲ	-3701
ਬਿਊ	-3702
ਮਜ਼	-3703
▁ਕਮਰੇ	-3704
▁Pr	-3705
ਵੱਤਾ	-3706
ੋਰਾਂ	-3707
▁ਕਿਲੋਮੀਟਰ	-3708
ਲੋਕ	-3709
▁ਸੰਪਾਦ	-3710
▁ਬਿੱਲ	-3711
ੱਟਾ	-3712
ਵਾਨਾ	-3713
▁ਕੌਮਾਂਤਰੀ	-3714
▁ਗਿੱ	-3715
▁1803	-3716
ਗਾਹ	-3717
▁ਅਜੀਤ	-3718
▁ਚੈਂ	-3719
ਵਾਦੀਆਂ	-3720
▁ਤਰੱਕੀ	-3721
ਦੁ	-3722
▁ਹਿੰਦੀ	-3723
▁ਆਨਲਾਈਨ	-3724
▁ਗੋਲੀਆਂ	-3725
▁ਜਿਲ੍ਹਾ	-3726
▁ਪਿਆਰੇ	-3727
▁ਫਾਰਮ	-3728
▁ਸਾਈਟ	-3729
▁ਸਲੋਕ	-3730
▁ਸਵਰ	-3731
▁ਦਿਲਚ	-3732
▁ਮਹਿੰਦਰ	-3733
▁ਸਥਾਪਿਤ	-3734
ਿੱਤ	-3735
▁ਖੇਤਰਾਂ	-3736
ਭਵ	-3737
ੋਕੜ	-3738
▁ਮੇਲਾ	-3739
ile	-3740
ਸੁਖ	-3741
▁1984	-3742
▁ਕਾਨਫਰੰਸ	-3743
▁ਉਦਘਾਟਨ	-3744
▁ਲੋੜੀ	-3745
ਯੋ	-3746
▁ਵਰਗੀ	-3747
ੜ੍ਹਾ	-3748
▁ਪੀੜ	-3749
▁ਨਾਮੁ	-3750
▁ਸੱਦਾ	-3751
▁ਮਿਸਾਲ	-3752
ਵੇਟ	-3753
▁ਡੋ	-3754
▁ਮਨੋਰ	-3755
▁ਬਜ	-3756
▁ਸੰਵਿਧਾਨ	-3757
▁ਕੱਚ	-3758
ission	-3759
▁ਬਨਾ	-3760
▁ਜੁੜ	-3761
ੁੱਟੀ	-3762
▁ਫੈਲ	-3763
▁Class	-3764
▁ਨਿਵਾਸ	-3765
▁ਸ਼ੱਕ	-3766
▁ਸਫਲਤਾ	-3767
▁ਰੋਲ	-3768
ਉਂਦੀਆਂ	-3769
▁ਸ਼ਰਮ	-3770
▁ਜਰਨੈਲ	-3771
▁ਝੂਠ	-3772
ਦਾਦ	-3773
ਸ਼ਾਲੀ	-3774
▁ਜ਼ਿ	-3775
▁ਕਾਵਿ	-3776
▁ਪਰਮੇਸ਼ੁਰ	-3777
▁ਗੁਣਵੱਤਾ	-3778
ਰੀਕਾ	-3779
▁ਨਿਰਾ	-3780
ਸ਼ਿਤ	-3781
▁ਕਪਤ	-3782
▁ਪਾਸੋਂ	-3783
▁ਮਹੀਨਿਆਂ	-3784
ਕੈ	-3785
▁ਓਹ	-3786
▁ਖੇਤ	-3787
▁ਆਸਾਨ	-3788
▁ਫ਼ੌਜ	-3789
ਨਾਹ	-3790
▁ਭੇਜਿਆ	-3791
▁ਕਾਲਾ	-3792
▁ਵਰਗਾ	-3793
▁ਡਿਊ	-3794
▁ਸੈਸ਼ਨ	-3795
▁ਹਜ਼	-3796
▁ਮੁਸ਼	-3797
▁ਪ੍ਰਾਈ	-3798
▁ਮੌਸਮ	-3799
im	-3800
mission	-3801
▁ਹਾਈਕ	-3802
▁ਸਟੇਸ਼ਨ	-3803
▁ਜਾਣੀ	-3804
▁ਪੱਛਮੀ	-3805
▁ਗੁਆ	-3806
▁ਤਰਨ	-3807
▁ਲੰਬੇ	-3808
▁ਵਰ੍ਹੇ	-3809
...]	-3810
▁ਲਿਖੀ	-3811
▁ਕਦਰ	-3812
▁ਰਹਾਉ	-3813
▁ਹਿਸਾਬ	-3814
▁ਤਾਰੀ	-3815
▁ਦੁਪ	-3816
▁ਜ਼ਿੰਮੇਵਾਰੀ	-3817
ਵੀਨ	-3818
ਬਾਈਲ	-3819
▁ਇੰਜ	-3820
▁ਜਿਹਨਾਂ	-3821
▁ਪਹਿਚਾਣ	-3822
▁and	-3823
▁ਮੋੜ	-3824
ਲੁ	-3825
▁ਮੁਕਤਸਰ	-3826
▁ਪ੍ਰਸ	-3827
▁ਪਿਛੋਕੜ	-3828
ਗਾਨ	-3829
ਵੰਦ	-3830
▁ਦਰਮ	-3831
ਮਿੰਦਰ	-3832
▁ਤਾਲ	-3833
▁ਪੋਰਨ	-3834
▁ਦਰਅਸਲ	-3835
ਖਰ	-3836
ੰਡਰ	-3837
ਪੁਰੀ	-3838
▁ਚੋਂ	-3839
▁ਜੀਅ	-3840
▁ਰੱਖਣਾ	-3841
ਨੀਤ	-3842
▁ਕੈਬਨਿਟ	-3843
▁ਮਨੁ	-3844
ਿਆਨਕ	-3845
▁ਰੁੱਖ	-3846
▁ਅਗਲੀ	-3847
ਤਹਿ	-3848
▁ਭੰਡ	-3849
▁ਖ਼ਾਸ	-3850
▁ਹਾਕੀ	-3851
▁ਟੀਮਾਂ	-3852
▁ਸੀਟਾਂ	-3853
ਵਾਇਆ	-3854
▁ਤੈਅ	-3855
▁ਨਜ਼ਦੀ	-3856
▁ਮਾਰੀ	-3857
▁ਸੈਲ	-3858
ਖ਼ਲ	-3859
▁ਤਿਆਰੀ	-3860
▁ਪੜਾ	-3861
▁ਸਮਰਥਨ	-3862
▁ਪਹੁੰਚਣ	-3863
ੱਲਾ	-3864
▁ਧਮ	-3865
ਕਸ਼ਨ	-3866
▁ਪਿੱਛੋਂ	-3867
ਕਿਨ	-3868
▁ਕਿਉ	-3869
▁ਸੰਤੋ	-3870
▁ਕਰਤੇ	-3871
▁ਮੁਕੱਦ	-3872
▁ਡਰਾਈ	-3873
▁ਸ਼ਹਿ	-3874
▁ਖੱ	-3875
ੋਕੇ	-3876
▁ਨਵਜੋਤ	-3877
▁ਪ੍ਰੈਸ	-3878
ਗਾਰੀ	-3879
▁ਬੱਚਾ	-3880
▁Admission	-3881
ਤਾਵੇ	-3882
▁ਵਿੱਤ	-3883
▁ਚਾਨ	-3884
▁ਟਿਕਾ	-3885
▁ਤਿੱ	-3886
▁ਰਾਣੀ	-3887
ਮੇਂ	-3888
▁ਆਦਰ	-3889
▁ਜਾਗਰੂਕ	-3890
▁੪	-3891
ਧਾਰਨ	-3892
ਅੰਮ	-3893
ੱਕੜ	-3894
▁ਕੈਦ	-3895
ੰਜਨ	-3896
▁ਆਪੇ	-3897
ੱਥਾ	-3898
▁ਉਸਾਰੀ	-3899
▁ਹਰਪ੍ਰੀਤ	-3900
ੰਗਾ	-3901
▁ਆਇ	-3902
ਲੇਆਮ	-3903
▁ਸ਼ੁੱ	-3904
ਮੀਨਾਰ	-3905
▁ਸਿੰਘਾਂ	-3906
ਨਾਤ	-3907
▁ਜੁਆ	-3908
▁ਤੀਜੇ	-3909
▁ਪੀੜ੍ਹੀ	-3910
▁ਪੁੱਜੇ	-3911
ak	-3912
▁ਵਰਤਣ	-3913
ੰਟ	-3914
▁ਚਿਹਰੇ	-3915
▁ਸਕਦੀਆਂ	-3916
▁ਕਹੀ	-3917
▁ਇੱਥੋਂ	-3918
▁ਰਾਜਨੀਤਕ	-3919
।'	-3920
ਪਿਆ	-3921
▁ਫਿ	-3922
▁ਮਿਆ	-3923
▁ਉਡਾ	-3924
▁ਜਸਵਿੰਦਰ	-3925
▁ਰਾਸ਼ੀ	-3926
▁ਪਰਤ	-3927
ਤਾਲ	-3928
▁ਧਾਲੀਵਾਲ	-3929
▁ਵਾਤਾਵਰਨ	-3930
▁ਤਕਨੀਕੀ	-3931
੍ਰੇਸ਼ਨ	-3932
ਨਾਲੋਜੀ	-3933
ਹੜੇ	-3934
▁ਘਟਾ	-3935
▁60	-3936
ਵਾਰਡ	-3937
▁ਸੈਕਸ	-3938
▁ਗ੍ਰਿਫ਼ਤਾਰ	-3939
▁ਆਲੇ	-3940
▁ਲਿਜਾ	-3941
▁ਸਾਲਾਨਾ	-3942
▁ਚੱਕਰ	-3943
▁ਸੈਕਟਰ	-3944
▁ਸ਼ਲਾ	-3945
▁Comment	-3946
▁ਸੈਮੀਨਾਰ	-3947
ਿ੍ਤ	-3948
ਕਤਾਂ	-3949
▁ਸ਼ਬ	-3950
▁ਮੋਬਾਈਲ	-3951
▁35	-3952
▁197	-3953
▁ਸਿਖਲਾਈ	-3954
▁ਮੰਤਰਾਲੇ	-3955
▁ਬੋਲਣ	-3956
▁ਦਬਾਅ	-3957
▁ਵੱਖਰੀ	-3958
▁ਦਿਤੀ	-3959
han	-3960
▁ਇੱਛਾ	-3961
▁ਹੱਥਾਂ	-3962
▁ਟੂਰਨਾਮ	-3963
ੰਧਾਵਾ	-3964
▁ਚਾਹੀਦੇ	-3965
▁ਕਾਂਡ	-3966
▁ਵਿਚਾਲੇ	-3967
▁ਗ੍ਰਾ	-3968
▁ਕੀਮਤਾਂ	-3969
▁ਇਕਾਈ	-3970
▁ਉਤਪਾਦਨ	-3971
▁ਮੈਨੇਜਰ	-3972
▁ਫੇਸਬ	-3973
▁ਸੁਨੇ	-3974
ਤੋ	-3975
▁ਕਥਿਤ	-3976
▁ਸ਼ੋਅ	-3977
▁ਗਰੇਵਾਲ	-3978
▁ਅਲੀ	-3979
▁ਉਦੇਸ਼	-3980
ਸਾਸ	-3981
▁ਭਵਨ	-3982
▁ਉਤਸ਼ਾਹ	-3983
▁ਅਮੀਰ	-3984
▁ਵਿੰਗ	-3985
▁ਸ਼੍ਰੇ	-3986
▁ਸੰਦੇਸ਼	-3987
▁ਸ਼ਲਾਘਾ	-3988
▁ਕਤਲੇਆਮ	-3989
ੋਕਤ	-3990
erson	-3991
▁ਵੇਚਣ	-3992
ੁਣ	-3993
▁—	-3994
ਕਲਪ	-3995
▁ਵਿੱਦ	-3996
▁ਸਮੁੰਦਰ	-3997
ਧਾਲ	-3998
ਮਾਇਆ	-3999
ਵੱਡੇ	-4000
▁ਹਿੰਸਾ	-4001
▁ਮਨੋ	-4002
▁ਇਰਾ	-4003
▁ਆਸਟ੍ਰੇ	-4004
▁ਵਿਚਾਰਧਾਰਾ	-4005
▁ੲ	-4006
▁ਸੈਂਕ	-4007
ਅਤੇ	-4008
▁ਦਿਹਾੜੇ	-4009
▁ਆਯੋਜ	-4010
▁ਤੱਥ	-4011
▁ਆਤਮਾ	-4012
ਥਲਾ	-4013
▁ਅਧਿਐਨ	-4014
▁1803000	-4015
▁ਜਿੰਮੇ	-4016
▁Off	-4017
▁ਪਾਲਣ	-4018
ਕਰਮ	-4019
ਮਿਲ	-4020
▁ਸਪੀ	-4021
▁ਸੁਝਾ	-4022
▁ਐੱਮ	-4023
▁ਚੀਜ਼ਾਂ	-4024
ਕਿਆ	-4025
ਸ਼ੋ	-4026
▁ਖੜ੍ਹੇ	-4027
▁ਦੇਵੇ	-4028
▁ਜਾਤੀ	-4029
ਾਲੀਵੁੱਡ	-4030
▁ਛੋਟਾ	-4031
ਸਥਾਨ	-4032
▁ਫੰਡ	-4033
▁ਅਰੋੜਾ	-4034
ਬਾਈ	-4035
▁ਲਗਾਈ	-4036
▁ਸੰਗਠਨ	-4037
▁ਅੰਨ	-4038
ਹੜਾ	-4039
▁ਬਦਲੇ	-4040
▁ਦਵਾਈਆਂ	-4041
▁ਵਿਵਸਥਾ	-4042
ਜਰਾਤ	-4043
▁ਪਾਪ	-4044
▁ਭੇਟ	-4045
▁ਲੋੜੀਂ	-4046
ਵੇਅਰ	-4047
▁ਬਰਤ	-4048
▁ਸਮਾਰੋਹ	-4049
ਸਲਾ	-4050
▁ਲਾਹੌਰ	-4051
ਡੂ	-4052
▁ਕੋਹ	-4053
▁ਜ਼ਖਮੀ	-4054
ਓਂ	-4055
▁ਰੰਧਾਵਾ	-4056
▁ਜ਼ਿਆਦਾਤਰ	-4057
ਵਿਕ	-4058
▁ਹੈਰਾਨ	-4059
▁ਐਪ	-4060
▁ਨਿਆਂ	-4061
▁ਮਜਬੂਰ	-4062
▁ਤਬਾ	-4063
ਂਡੂ	-4064
▁ਸੰਮਤੀ	-4065
',	-4066
▁ਜਲਦ	-4067
▁ਖਾਣਾ	-4068
▁ਕਰਜ਼ਾ	-4069
▁ਟੂਰਨਾਮੈਂਟ	-4070
▁ਵਧੀਕ	-4071
▁ਕਰਮਚਾਰੀ	-4072
▁ਸੋਮਵਾਰ	-4073
ੋਸ	-4074
▁ਅਡ	-4075
▁ਏਸ	-4076
):	-4077
ਵਿੰਦ	-4078
▁ਖੰਨਾ	-4079
▁ਤੇਜ਼ੀ	-4080
▁ਪ੍ਰੋਜ	-4081
▁ਮੋਹਨ	-4082
▁ਚੈਕ	-4083
▁ਮਨਪ੍ਰੀਤ	-4084
▁ਇੰਜੀਨੀਅਰ	-4085
▁ਹਾਜਰ	-4086
▁ਵੈੱਬ	-4087
▁ਠੇਕੇ	-4088
ਸਰੀ	-4089
▁ਸੈਨ	-4090
▁ਕਾਰਜਾਂ	-4091
▁ਦਸਿਆ	-4092
ਉਨ੍ਹਾਂ	-4093
ਲਾਮੀ	-4094
▁ਪਾਕਿਸਤਾਨੀ	-4095
▁ਘੱਟੋ	-4096
▁''	-4097
▁ਡਿਜ਼	-4098
ਸਾਰੇ	-4099
▁ਅੰਦਰੋਂ	-4100
▁ਢਾਂ	-4101
▁ਹਾਸਿਲ	-4102
▁ਵਸਤ	-4103
▁ਬਲਦੇਵ	-4104
▁ਪੁੱਤ	-4105
▁ਨੀਤੀਆਂ	-4106
▁ਨੋ	-4107
▁ਅਗਰ	-4108
▁ਵਾਲ਼	-4109
ਸੈਕਸ	-4110
੍ਰਹਿ	-4111
▁ਇਕੱਤਰ	-4112
▁ਬਲਬੀਰ	-4113
▁ਪ੍ਰਣਾਲੀ	-4114
▁ਸਟਾਫ	-4115
▁v	-4116
ੂਨੀ	-4117
▁ਟਿੱਪ	-4118
ਰਣ	-4119
▁ਉਪ੍ਰ	-4120
▁ਦਸਤਾਵੇ	-4121
▁ਭ੍ਰਿਸ਼ਟਾਚਾਰ	-4122
ੱਸਟ	-4123
ੰਪਰਾ	-4124
▁ਆਖ਼	-4125
ਕਰਵਾਰ	-4126
▁ਸੰਕੇ	-4127
▁ਦਸਤਾਰ	-4128
▁ਸਾਇੰਸ	-4129
ਵਾਜ	-4130
ਘੀ	-4131
▁ਯਹੋ	-4132
▁ਅਲੱਗ	-4133
▁ਦੀਵਾਨ	-4134
▁ਮੁਕਾਬਲ	-4135
ਡਿੰਗ	-4136
▁ਨਦੀ	-4137
▁ਕੇਸਾਂ	-4138
▁ਸਪੋਰਟ	-4139
ut	-4140
▁ਦੌਰੇ	-4141
▁ਹਫ਼ਤੇ	-4142
▁ਬੌ	-4143
ex	-4144
ਪੂਰਣ	-4145
▁ਸਥਾਪਨਾ	-4146
▁ਗੁਰਦੁਆਰੇ	-4147
ੁੱਗ	-4148
ਟਿਆਂ	-4149
ਡਨ	-4150
▁ਜੋਗ	-4151
ਤਿੰਦਰ	-4152
▁ਚੌਧਰੀ	-4153
ਨਿੱਜੀ	-4154
▁ਬਹੁਤਾ	-4155
▁ਪ੍ਰੀਸ਼ਦ	-4156
▁ਸੀਮਾ	-4157
▁ਸੁਣਾਈ	-4158
▁ਰਵਿੰਦਰ	-4159
▁ਫ਼ੀਸਦੀ	-4160
ੲੀ	-4161
ਪਾਤ	-4162
▁ਜੱਥੇ	-4163
▁ਪੇਂਡੂ	-4164
▁ਸੂਤਰਾਂ	-4165
▁ਕਪਤਾਨ	-4166
▁ਜੀਵਾਂ	-4167
▁ਜ਼ਿਲਾ	-4168
▁ਜ਼ਖ਼ਮੀ	-4169
▁ਸਾਥੀਆਂ	-4170
ersonal	-4171
▁ਰਾਹੀ	-4172
▁ਕਿਲ	-4173
ਤਨਾ	-4174
▁ਦਹਿ	-4175
▁ਵਿਚਲੇ	-4176
ਕਰਣ	-4177
ੰਕਾ	-4178
▁ਗਾਰ	-4179
ਐਫ	-4180
▁ਦਵਿੰਦਰ	-4181
ਬਾਜ਼	-4182
▁ਏਕੜ	-4183
ੰਟੀ	-4184
▁ਉਡੀ	-4185
▁de	-4186
ਿੰਕ	-4187
▁ਤਿੰ	-4188
▁ਆਉਣਾ	-4189
▁ਪਠ	-4190
▁ਉਤਾਰ	-4191
▁ਸ਼ਹਿਰੀ	-4192
▁ਆਹ	-4193
▁ਵਿਆਪਕ	-4194
▁ਨਵੀਆਂ	-4195
▁ਤਰਕ	-4196
▁ਸਰਹੱਦ	-4197
ਗੋਵਾਲ	-4198
▁ਦੁਪਹਿਰ	-4199
▁Comments	-4200
▁ਬੀਤੀ	-4201
ੰਕਰ	-4202
▁ਉਲੰਘ	-4203
▁ਚੱਲਣ	-4204
▁ਬਿਹਤਰ	-4205
▁ਪ੍ਰੀਖਿਆ	-4206
▁ਭਾਲ	-4207
▁ਭਿੰਨ	-4208
▁ਜਗਤਾਰ	-4209
▁ਇਨਕਾਰ	-4210
47	-4211
▁ਇਨਾਂ	-4212
▁ਤਾਜ਼ਾ	-4213
▁ਪਿ੍	-4214
▁ਬੰਨ੍ਹ	-4215
▁ਸੁਣਨ	-4216
▁ਇਲਾਕਿਆਂ	-4217
ਰਾਨ	-4218
▁ਦੇਸ	-4219
ਬੀਆਂ	-4220
▁ਸਿੱਧੇ	-4221
▁ਕਪ	-4222
▁Prof	-4223
▁ਫੌਜੀ	-4224
ਲੀਮੈਂਟ	-4225
▁ਉੱਤਰੀ	-4226
▁ਮਨੁੱਖਤਾ	-4227
ome	-4228
▁ਤੁਸੀ	-4229
▁ਲਾਸ਼	-4230
ਸਲਰ	-4231
▁ਮਨੀ	-4232
▁ਖਰਾਬ	-4233
▁[...]	-4234
▁ਤਬਦੀਲੀ	-4235
▁ਚੈਂਪੀਅਨ	-4236
ਲੇਖ	-4237
▁ਰਕਮ	-4238
ਭਾਜਪਾ	-4239
▁ਮਾਰਿਆ	-4240
▁ਪ੍ਰਾਈਵੇਟ	-4241
ਇੱਕ	-4242
▁ਸ਼ਹੀਦਾਂ	-4243
.,	-4244
ਗੀਰ	-4245
ਮੱਤ	-4246
▁ਐਫ	-4247
ਸਲਿਆਂ	-4248
▁ਕ੍ਰਿਕਟ	-4249
ਲੋਡ	-4250
ਹੀਆਂ	-4251
▁ਉਚਾਰ	-4252
▁ਪਰੰਤੂ	-4253
▁Personal	-4254
▁ਫੇਸਬੁੱਕ	-4255
ੋਈ	-4256
▁ਬਾਜਵਾ	-4257
AB	-4258
▁ਮੁਲਕਾਂ	-4259
ੜਕਾ	-4260
▁Profile	-4261
ਗਰਾ	-4262
▁ਰਚਨਾਵਾਂ	-4263
▁ਗੀਤਾਂ	-4264
▁ਟਰੇ	-4265
▁ਸਾਊ	-4266
▁ਚੀਮਾ	-4267
op	-4268
▁ਕੱਢਣ	-4269
▁ਪੁਰਬ	-4270
▁ਆਮਦਨ	-4271
▁ਚਿੱਤਰ	-4272
▁ਨਿਯੁਕਤ	-4273
▁ਕਰਿ	-4274
▁ਨਾਅ	-4275
▁ਤਲਵਾੜਾ	-4276
ਦਿਕ	-4277
ੈਂਗ	-4278
ਠੀਆ	-4279
▁70	-4280
ਖੀਰ	-4281
........	-4282
ਭੇ	-4283
▁ਗਿਰ	-4284
▁ਵਿਛ	-4285
▁ਖੜ੍ਹਾ	-4286
▁ਦੇਹ	-4287
ous	-4288
▁ਭਿਆਨਕ	-4289
ig	-4290
▁ਕੱਪੜੇ	-4291
▁ਸਾਂਝਾ	-4292
▁ਧੀਆਂ	-4293
▁ਭਗਵਾਨ	-4294
▁ਗੂ	-4295
▁ਚੰਦਰ	-4296
▁ਬੁਨਿਆ	-4297
▁ਸਾਧੂ	-4298
▁ਨਿਸ਼ਾਨਾ	-4299
▁ਸੱਜਣ	-4300
▁ਦੇਖਦੇ	-4301
▁ਸਬਦ	-4302
▁ਸਿੱਧ	-4303
▁ਸੂਬਿਆਂ	-4304
▁ਲਓ	-4305
▁ਅਨੰਦਪੁਰ	-4306
▁ਤੰਦਰ	-4307
▁ਸੰਚਾਰ	-4308
ਕਿਸ	-4309
ਭਜਨ	-4310
▁ਸਮੂ	-4311
▁ਤਨਖਾ	-4312
are	-4313
▁ਬਿਮਾਰੀਆਂ	-4314
▁ਸ਼ਰਧਾਲ	-4315
▁ਜਾਣੇ	-4316
▁ਮ੍ਰਿਤਕ	-4317
ੁਲਮ	-4318
▁ਸੁਖਵਿੰਦਰ	-4319
▁ਜਾਤ	-4320
▁ਪਿੰ	-4321
11	-4322
ੋਟਾ	-4323
ਵਾਂਗੇ	-4324
ਮੇਸ਼ਾਂ	-4325
▁ਸੁਭਾਅ	-4326
▁ਕਵਿਤਾਵਾਂ	-4327
’,	-4328
ਵਿਆਂ	-4329
▁ਉਪਲਬਧ	-4330
▁ਮਨਮੋਹਨ	-4331
▁ਲਫ਼	-4332
▁ਵਿਲ	-4333
ਟਿਸ਼	-4334
▁U	-4335
▁ਨੋਟਿਸ	-4336
ਕ੍ਰ	-4337
▁ਚਮਕ	-4338
▁ਲੀਡ	-4339
▁ਜ਼ਮਾਨ	-4340
▁ਬਾਗ	-4341
▁ਅਸਥਾਨ	-4342
▁ਆਉ	-4343
▁ਇਟਲੀ	-4344
▁ਉੱਚੀ	-4345
▁ਜਰੂਰੀ	-4346
▁ਅੰਤਿਮ	-4347
ੌੜ	-4348
▁ਕੋਰੀਆ	-4349
▁ਪਲਾਂ	-4350
▁ਰੂਸ	-4351
ੈਕਸ਼ਨ	-4352
▁ਪਰਾਲੀ	-4353
▁ਸੁਚੇਤ	-4354
▁ਸਮਰੱਥਾ	-4355
▁ਅਨਾ	-4356
▁ਗੁਜਰਾਤ	-4357
ਯਾਰਕ	-4358
▁ਕੰਧ	-4359
▁ਉਪਦੇਸ਼	-4360
▁ਫਿਲਮਾਂ	-4361
▁ਕ੍ਰਿਸ਼ਨ	-4362
ਤਰਨਾਕ	-4363
▁ਉਹਦੇ	-4364
▁ਹੈਰਾਨੀ	-4365
▁ਹਮੇਸ਼ਾਂ	-4366
▁ਸਾਂਭ	-4367
▁y	-4368
▁ਸੰਕਟ	-4369
▁32	-4370
▁ਜਿੰਨਾ	-4371
▁ਸਹੂਲਤ	-4372
▁ਮੈਡਮ	-4373
▁ਯਹੋਵਾਹ	-4374
▁ਬ੍ਰਾਹਮਣ	-4375
ਬੁ	-4376
▁ਮਰਦ	-4377
▁ਘਰੇਲੂ	-4378
ਚੂ	-4379
ਟੀਸ਼ਨ	-4380
▁ਦਮਦਮਾ	-4381
▁ਤੰਗ	-4382
ੱਤਾ	-4383
▁ਗੁਲ	-4384
▁ਤੁਲ	-4385
ਮਕ	-4386
▁ਜਾਣਦਾ	-4387
▁ਦੇਣਗੇ	-4388
▁ਵਿੱਤੀ	-4389
▁ਸੈਣੀ	-4390
▁ਗੁਪਤਾ	-4391
▁ਵੱਖਰੇ	-4392
▁ਮਸੀ	-4393
▁ਸੇਵਕ	-4394
og	-4395
▁ਦੀਆ	-4396
▁ਵਾਹਨ	-4397
▁ਫਰਾਂਸ	-4398
▁ਵਿਦੇਸ਼ਾਂ	-4399
▁ਬਗ	-4400
▁ਗਠ	-4401
▁ਕਾਲੀ	-4402
▁ਇਨਕਲਾ	-4403
▁ਇਸਦੀ	-4404
▁ਖੁਲਾ	-4405
▁ਬਚਾਅ	-4406
▁ਯੁੱਧ	-4407
▁196	-4408
▁ਮੱਤ	-4409
▁ਦਰਮਿਆਨ	-4410
ਵੰ	-4411
▁ਮਃ	-4412
▁ਜਾਗ	-4413
▁ਜਥੇਬੰਦੀ	-4414
▁ਗੱਡੀਆਂ	-4415
ੁਰਾਕ	-4416
▁ਟਕਸ	-4417
ਟੀਆ	-4418
ਵਿਸ਼	-4419
▁ਸੱਟ	-4420
ਨਸ	-4421
▁ਹੈਲ	-4422
▁ਉਡੀਕ	-4423
▁ਪਾਵਰ	-4424
▁ਬਾਪੂ	-4425
ਜੈਕਟ	-4426
▁ਰਤਨ	-4427
▁ਹਫਤੇ	-4428
▁ਦੁਬਾਰਾ	-4429
▁ਖੋਹ	-4430
ਾਨਕੋਟ	-4431
▁ਤੀਰਥ	-4432
▁ਭਗਤੀ	-4433
▁ਸਵੀਕਾਰ	-4434
▁ਗੁਰਦ	-4435
▁ਮਾਨਸਾ	-4436
▁ਨਿਰਦੇਸ਼ਕ	-4437
▁ਲੰਮੇ	-4438
।"	-4439
ਫ਼ਰ	-4440
ਲੀਅਤ	-4441
ਵਾਨੀ	-4442
▁ਕਬੀਰ	-4443
ਨੂ	-4444
ਿਆਣ	-4445
▁(3	-4446
▁ਖੁਰ	-4447
▁ਰਾਜਾਂ	-4448
ਕਿੰਗ	-4449
▁ਸਵੇਰ	-4450
▁ਆਯੋਜਨ	-4451
▁ਧਿਰਾਂ	-4452
▁ਭੀੜ	-4453
▁ਰੁੱ	-4454
▁ਕੋਟ	-4455
ਜ਼ੀਆਂ	-4456
▁ਲੰਬੀ	-4457
▁ਸਮਝਦੇ	-4458
▁ਸੋਧ	-4459
▁ਗਰਮੀ	-4460
▁ਥੱਲੇ	-4461
▁ਮੰਤ	-4462
▁ਰਵੀ	-4463
▁ਹਉਮੈ	-4464
▁ਪੜਤਾਲ	-4465
▁ਗੇੜ	-4466
▁ਵੱਜ	-4467
▁ਆਸਟ੍ਰੇਲੀਆ	-4468
▁ਆਪੋ	-4469
▁ਉਚੇ	-4470
▁ਅੱਡੇ	-4471
▁ਸਾਈਕਲ	-4472
▁ਿਖ਼ਲਾ	-4473
ਫਿਕ	-4474
▁ਹਰਜੀਤ	-4475
▁ਪ੍ਰਬੰਧਕਾਂ	-4476
▁ਦ੍ਰਿ	-4477
▁ਬਦਲਣ	-4478
▁ਸਮਝਿਆ	-4479
▁ਕਮਜ਼ੋਰ	-4480
▁ਵਰਗੀਆਂ	-4481
od	-4482
▁ਤ੍ਰਿ	-4483
▁ਖੇਤਾਂ	-4484
▁ਮੁਲਾਜ਼ਮ	-4485
▁ਭਰਨ	-4486
ਟੀਚ	-4487
ਕੁਸ਼ੀ	-4488
▁ਡਾਕਟਰਾਂ	-4489
▁ਰੁਜ਼ਗਾਰ	-4490
▁ਹਾਈਕੋਰਟ	-4491
▁ਭਟਕ	-4492
ਅਤਾਂ	-4493
▁ਇੰਨਾ	-4494
ਵਾਇ	-4495
▁ਸੋਨੇ	-4496
th	-4497
ਜਮ	-4498
▁ਫਾਈਨਲ	-4499
▁ਆਯੋਜਿਤ	-4500
▁ਇੰਟਰਨੈਸ਼ਨਲ	-4501
▁k	-4502
▁ਅਖੀਰ	-4503
ਸੀਅਤ	-4504
▁ਕੋਚ	-4505
▁ਨੇਤਾਵਾਂ	-4506
ਇਓ	-4507
ੈੱਟ	-4508
ੂੰਡ	-4509
ਸਾਈਕਲ	-4510
▁ਵਾਧੂ	-4511
▁ਸਰਵਿਸ	-4512
ਪੁਰਖ	-4513
▁ਜ਼ਿੰਮੇਵਾਰ	-4514
▁ਜਾਗਰੂ	-4515
▁ਗਹਿ	-4516
ਵਾਲੀਆ	-4517
▁ਮਿਲਦੇ	-4518
੍ਰਾਮ	-4519
▁ਬੁਰੀ	-4520
ਾਂਸੀ	-4521
▁ਤਾਇ	-4522
ਅੰਮ੍ਰਿਤ	-4523
▁ਸਿੱਧਾ	-4524
▁ਉਪਰੋਕਤ	-4525
▁ਰੂਹ	-4526
▁ਆਗਿਆ	-4527
▁ਡਿਊਟੀ	-4528
ੋਰੀ	-4529
▁ਅਖੰਡ	-4530
▁ਜਾਣੂ	-4531
ha	-4532
▁ਵਿਕਾਰਾਂ	-4533
ਬਰਾ	-4534
ਫ਼ੇ	-4535
ਨਾਮਾ	-4536
▁ਮਿੱਤਰ	-4537
ਣਨ	-4538
▁ਕੋਰਸ	-4539
▁ਮਾਰਕੀਟ	-4540
ਕੰ	-4541
▁ਇਮਾਰਤ	-4542
▁ਬਲਾਤ	-4543
▁ਸਰਬਜੀਤ	-4544
▁ਬੇਟੀ	-4545
▁ਅਖਬਾਰ	-4546
▁ਤੱਤ	-4547
▁ਭਲਾ	-4548
▁ਅਜ਼ਾ	-4549
▁ਪ੍ਰਤਿ	-4550
▁ਜਾਗਰੂਕਤਾ	-4551
▁ਫੂ	-4552
▁ਅਪਰਾਧ	-4553
▁ਪਿ੍ੰ	-4554
▁ਉਪ੍ਰੰਤ	-4555
▁ਮੁਕਾਬਲਿਆਂ	-4556
ਰਾਜ਼	-4557
▁ਭਾਵਨਾਵਾਂ	-4558
▁ਪਰਿਵਾਰਕ	-4559
▁ਮੀਂਹ	-4560
▁ਮੁਫਤ	-4561
▁ਰਸਤਾ	-4562
▁ਆਬਾਦੀ	-4563
▁ਟਿੱ	-4564
▁ਜਿੰਦ	-4565
▁ਪਉੜੀ	-4566
▁ਿਖ਼ਲਾਫ਼	-4567
▁ਭੁੱਲਰ	-4568
▁ਉਚ	-4569
▁ਪਾਤਰ	-4570
▁ਕਿਨ	-4571
▁ਚਾਹੁੰਦੀ	-4572
▁ਡਿੱਗ	-4573
▁ਵੱਡੀਆਂ	-4574
▁ਅੰਮਿ੍ਤ	-4575
▁ਸੋਲ	-4576
▁ੳੁ	-4577
▁ਅਹਿਸਾਸ	-4578
▁ਮੁਸ਼ਕਲ	-4579
ial	-4580
ਖੀਆਂ	-4581
ਦਗੀ	-4582
com	-4583
▁ਮੁਹਾਲੀ	-4584
▁ਸਟੀ	-4585
▁ਟ੍ਰੇ	-4586
▁ਕਿਰਦਾਰ	-4587
▁ਬੱਚੀ	-4588
ੰਸੀਆਂ	-4589
▁2013	-4590
▁ਯਕੀਨ	-4591
▁ਦੋਨਾਂ	-4592
ਿਉ	-4593
▁ਕਪੂਰਥਲਾ	-4594
ਪੰਜਾਬੀ	-4595
▁ਪੁਰਾਣਾ	-4596
▁ਬੈਂਕਾਂ	-4597
▁ਅਜੋਕੇ	-4598
▁ਗੁਰਬਚਨ	-4599
▁ਵਹਿ	-4600
▁ਖੇਡਣ	-4601
▁ਗਤੀਵਿ	-4602
▁ਸਾਮਾਨ	-4603
▁ਮਜੀਠੀਆ	-4604
MA	-4605
▁ਫਰਕ	-4606
▁ਗੌਰ	-4607
▁ਰਾਖ	-4608
▁ਫ਼ਿਲਮਾਂ	-4609
▁ਸਪੇ	-4610
▁ਨਿਊਯਾਰਕ	-4611
ਹਾਦ	-4612
▁ਸੰਬੰਧਤ	-4613
▁ਤਬਦੀਲ	-4614
▁ਗੈਂਗ	-4615
▁ਟਿਕਟ	-4616
▁ਸੈਂਕੜੇ	-4617
▁ਦੇਣੀ	-4618
▁ਕਾਮਯਾਬ	-4619
▁ਪ੍ਰੇਸ਼ਾਨ	-4620
ਮੰਡ	-4621
ਫੈਸਰ	-4622
▁ਖੁੱ	-4623
▁ਪਛ	-4624
▁ਨੂਰ	-4625
pt	-4626
ist	-4627
▁ਤੀਜਾ	-4628
ਮਾਨੀ	-4629
▁ਤਹਿਸੀਲ	-4630
10	-4631
▁ਉਜਾ	-4632
▁ਲੜਕੇ	-4633
▁ਜਸਵੰਤ	-4634
▁ਹਾਜ਼ਰੀ	-4635
▁ਮੰਗਲਵਾਰ	-4636
▁ਤਦ	-4637
▁ਬਹਿਸ	-4638
▁ਸਪੋਰਟਸ	-4639
ਮਾਤਾ	-4640
▁ਸਾਜ	-4641
▁ਵੀਜ਼ਾ	-4642
▁ਹੁਣੇ	-4643
-3	-4644
▁ਜਿਨ	-4645
ਜੰਸੀਆਂ	-4646
▁ਪੁਸਤਕਾਂ	-4647
ਤਾਵਨੀ	-4648
▁ਅਨੁਵਾਦ	-4649
▁ਮਹਾਰਾਜਾ	-4650
oc	-4651
▁ਦੇਈਏ	-4652
▁ਲਾਗਤ	-4653
ਾਰੂ	-4654
▁ਰਹੇਗੀ	-4655
▁ਜਿਸਦਾ	-4656
▁ਪਠਾਨਕੋਟ	-4657
▁ਮਨਜ਼	-4658
▁ਸੰਕੇਤ	-4659
UN	-4660
▁ਗ਼ੈਰ	-4661
▁ਫਾਇਦਾ	-4662
18	-4663
ਹਿਲ	-4664
ਾਰਥ	-4665
▁ਸਟੇਜ	-4666
▁ਨਿਰਭਰ	-4667
▁ਕਰਤਾ	-4668
▁ਘੜੀ	-4669
ਡੀਅਮ	-4670
▁ਸੁਨੀ	-4671
▁ਉਤਸ਼ਾ	-4672
▁ਜਾਣਿਆ	-4673
▁80	-4674
▁ਪੇਟ	-4675
▁ਚੁਣੇ	-4676
vi	-4677
▁ਰਲ	-4678
▁ਪੋਲ	-4679
▁ਸਾਜ਼	-4680
▁ਦਰਸ਼ਕਾਂ	-4681
▁2012	-4682
▁ਜੰ	-4683
▁ਪਾਂ	-4684
ਊਟ	-4685
▁ਹੱਸ	-4686
▁ਸੱਚੇ	-4687
ਐਚ	-4688
ਫਟ	-4689
ਸ੍ਰੀ	-4690
▁ਇੰਸਪ	-4691
▁ਹੋਟਲ	-4692
▁ਜਿੱਤਣ	-4693
▁ਸਾਮ	-4694
ਸ਼ੀਆਂ	-4695
▁ਸੰਤੋਖ	-4696
ਤਿਹ	-4697
▁ਸਰਨਾ	-4698
ਿਵ	-4699
ਡਾਂ	-4700
ਵਰੇ	-4701
▁ਚੱਕ	-4702
▁ਬੇਸ਼	-4703
▁ਜਿੰਦਗੀ	-4704
▁ਆਲੋ	-4705
▁ਇਉਂ	-4706
▁ਲੋਹ	-4707
ਟੀਚਿਊ	-4708
ੜਤਾਲ	-4709
▁ਅਪਣੀ	-4710
▁ਖੜੇ	-4711
▁ਬਰੀ	-4712
▁ਸੀਟ	-4713
▁ਸੰਦੀਪ	-4714
▁ਪ੍ਰਸਾਰ	-4715
▁ਮਿਹਰ	-4716
▁ਕਿੱਥੇ	-4717
▁ਤਕਨਾਲੋਜੀ	-4718
ਸਤਾਂ	-4719
ਜ਼ੀਲੈਂਡ	-4720
ia	-4721
40	-4722
▁ਪੱਕਾ	-4723
▁ਹਿਮਾ	-4724
ਪੰਨਾ	-4725
▁ਉਹਨਾ	-4726
▁ਕਮਿਊ	-4727
▁ਧਰਨਾ	-4728
▁ਮੁਸਲਿਮ	-4729
▁ਮੰਨਣ	-4730
ਅੱਜ	-4731
▁ਗਰਗ	-4732
▁ਤਜਰ	-4733
▁ਪ੍ਰਤੀਸ਼ਤ	-4734
▁ਬੰਬ	-4735
ਜਾਇਜ਼	-4736
▁ਰਾਜਸੀ	-4737
▁ਵੇਰਵਾ	-4738
▁ਜਿਸਨੂੰ	-4739
▁ਲੜਨ	-4740
▁ਡਿਸ	-4741
ੱਦਦ	-4742
▁ਸਿਫ਼	-4743
ire	-4744
▁ਮਤ	-4745
▁ਇੰਤ	-4746
ਕਾਰੀਆਂ	-4747
▁ਗਣ	-4748
▁ਦੁਆਲੇ	-4749
▁ਛੁੱਟੀ	-4750
ਬਨ	-4751
▁ਕਸਰ	-4752
▁ਭੇਜਣ	-4753
ਧਰੇ	-4754
▁36	-4755
▁ਉਪਾ	-4756
ik	-4757
▁4.	-4758
▁ਜੁਗ	-4759
▁ਪਹਿਰਾ	-4760
99	-4761
ੜ੍ਹੇ	-4762
▁ਕਾਗ	-4763
▁ਸ਼ਰਨ	-4764
▁ਰਜਿੰਦਰ	-4765
▁ਸ਼੍ਰੇਣੀ	-4766
▁ਬਾਲੀਵੁੱਡ	-4767
▁ਚੈਨਲ	-4768
▁ਨਿਭਾਈ	-4769
ਣੁ	-4770
ਨੌ	-4771
ਂਦਰ	-4772
▁ਭਾਸ਼ਣ	-4773
ਥਾਂ	-4774
▁ਸਰਗਰਮ	-4775
▁ਦੇਵੇਗਾ	-4776
▁ਭੁਪਿੰਦਰ	-4777
ਕਾਨੂੰ	-4778
▁ਬੱਲੇ	-4779
ber	-4780
▁ਫੀਸ	-4781
▁ਮਿਲੇਗਾ	-4782
▁ਪ੍ਰੋਜੈਕਟ	-4783
▁ਲਿਆਂਦਾ	-4784
▁ਬਖਸ਼	-4785
▁ਦਾਅਵੇ	-4786
▁ਜੋਤ	-4787
ਸੂਰਤ	-4788
▁ਸੀਰੀ	-4789
▁ਜਸਪਾਲ	-4790
▁ਸ਼ੁੱਕਰਵਾਰ	-4791
ਬੜ	-4792
▁ਅਥਵਾ	-4793
ast	-4794
▁ਸਾਹਿਤਕ	-4795
aar	-4796
▁ਯਾਰ	-4797
▁Oper	-4798
▁ਗੁਰਚਰਨ	-4799
▁ਬਜ਼ੁਰਗ	-4800
▁ਕਿੰਨੇ	-4801
?”	-4802
▁ਪੇਸ਼ਕਸ਼	-4803
ਦੀਸ਼	-4804
▁ਵੈਬਸਾਈਟ	-4805
▁ਨਾਲੇ	-4806
▁ਤੋਰ	-4807
ਰਾਇ	-4808
ਸ਼ਨਾਂ	-4809
▁ਸਾਧਨ	-4810
▁ਪ੍ਰਸਾ	-4811
▁ਫ਼ੈਸਲੇ	-4812
▁ਰਿਸ	-4813
▁ਅਨੁਭਵ	-4814
ਿਆਨੀ	-4815
▁ਕਦੋਂ	-4816
▁ਜਾਇਦਾਦ	-4817
ਉਣੇ	-4818
▁ਬਜਟ	-4819
▁ਮਿਰ	-4820
ਰਚ	-4821
▁ਕਉ	-4822
▁ਸੁਲਤ	-4823
▁ਤਾਰਾ	-4824
▁ਬੇਰੁ	-4825
▁ਕਰਜ਼ੇ	-4826
▁ਪੈਨਸ਼ਨ	-4827
▁ਸੱਚਖੰਡ	-4828
ਮਸ	-4829
▁ਰਚ	-4830
▁ਬਖ਼ਸ਼	-4831
▁ਆਪਸ	-4832
▁ਸਮੁੱਚੀ	-4833
▁Operation	-4834
ਗਲਾ	-4835
▁ਅੰਦ	-4836
▁ਫ਼ੋਨ	-4837
।(	-4838
▁ਫਸਲ	-4839
▁ਸੁੰ	-4840
▁ਦਲਜੀਤ	-4841
▁ਜਿਤ	-4842
our	-4843
ਟਿਡ	-4844
▁ਵਰਕ	-4845
▁ਗਊ	-4846
▁ਜਬਰ	-4847
▁ਡਿਗਰੀ	-4848
▁ਪ੍ਰਤੀਨਿ	-4849
▁ਸ਼ੌ	-4850
▁ਪੱਟੀ	-4851
▁ਟਰਾਂਸ	-4852
▁ਕਲਾਕਾਰ	-4853
▁ਅੰਬ	-4854
▁ਜੈਨ	-4855
▁ਇੰਸਪੈਕਟਰ	-4856
▁ਮੁੱਦਾ	-4857
▁ਸੁਨ	-4858
▁ਲੇਕਿਨ	-4859
▁ਮੋਟਰਸਾਈਕਲ	-4860
।।	-4861
▁ਫ਼ਸਲ	-4862
▁ਨਸਲ	-4863
▁ਜਿਉਂ	-4864
▁ਬਟਾਲਾ	-4865
▁ਸਟਾਫ਼	-4866
▁ਪੈਟਰੋਲ	-4867
▁ਵੀਰਵਾਰ	-4868
▁ਐਡੀ	-4869
▁ਵਧਣ	-4870
▁ਗੁਪਤ	-4871
▁ਸੁਝਾਅ	-4872
▁ਬੋਲਿਆ	-4873
▁ਵਿਧਾਇ	-4874
ਾਂਹ	-4875
▁ਵੈਲ	-4876
▁ਨਿਗਰ	-4877
▁ਰੱਖੋ	-4878
▁ਮਹੀਨਾ	-4879
▁ਡਾਊਨ	-4880
▁ਇਸਤਰੀ	-4881
▁ਬਲਜੀਤ	-4882
▁ਵਿਜੇ	-4883
▁ਪਟੀਸ਼ਨ	-4884
art	-4885
▁ਨਿਹ	-4886
▁ਚੱ	-4887
▁ਸਹਿਜ	-4888
▁ਸੁੱਚ	-4889
▁ਖਬਰਾਂ	-4890
ਖੜ	-4891
ੋਲਨ	-4892
▁ਸਹਿਤ	-4893
▁ਇੰਸਟੀਚਿਊ	-4894
▁ਨਿਰਧਾਰ	-4895
▁ਬਿਕ	-4896
ੱਦੀ	-4897
▁ਟੱਕਰ	-4898
▁ਸਿਫ਼ਤ	-4899
▁ਆਈਆਂ	-4900
▁ਸਲਾਹਕਾਰ	-4901
▁ਪ੍ਰੋਫੈਸਰ	-4902
ਿਤ੍ਰ	-4903
ਵੋਕੇਟ	-4904
▁ਬੇਦੀ	-4905
ਕਸ਼ੇ	-4906
▁ਡਾਇ	-4907
▁ਨਾਇ	-4908
▁ਨਾਥ	-4909
▁ਖ਼ਾਨ	-4910
▁ਰਾਗੀ	-4911
ਕੁਰ	-4912
▁ਕਾਰਪੋ	-4913
▁ਕਿੰਨਾ	-4914
▁ਗ਼ਲਤ	-4915
▁ਸੂਝ	-4916
▁ਬੁੱਧਵਾਰ	-4917
ਚਿ	-4918
ੰਦੇ	-4919
▁ਸਰਵੇ	-4920
▁ਮਾਨਤਾ	-4921
▁ਲਈਆਂ	-4922
▁ਅਖੌਤੀ	-4923
▁ਨਿਵੇਸ਼	-4924
▁ਸਫ਼ਰ	-4925
▁ਕੁਲਵੰਤ	-4926
▁ਰਾਜਸਥਾਨ	-4927
ਪਗ	-4928
▁PUN	-4929
JAB	-4930
▁2011	-4931
▁ਅਰੰਭ	-4932
▁ਪਦਾਰਥਾਂ	-4933
ਭੀ	-4934
▁ਧੋਖਾ	-4935
ਾਇਮਰੀ	-4936
▁ਪਾਠਕਾਂ	-4937
ਖ਼ਾ	-4938
▁ਫੂਲ	-4939
▁ਮਕਾਨ	-4940
▁ਚੁੱਕਣ	-4941
▁ਮੰਨਦੇ	-4942
▁ਸ਼ਬਦਾ	-4943
▁ਯਾਦਗਾਰ	-4944
▁PUNJAB	-4945
▁ਜਾਣਗੀਆਂ	-4946
ੋਰਨੀਆ	-4947
▁ਪੁਸ਼ਟੀ	-4948
▁ਪ੍ਰਭਾ	-4949
▁ਵਿਸ	-4950
▁ਤਿਆਗ	-4951
▁ਅਰਥਾਂ	-4952
▁ਸਰਬੱਤ	-4953
▁ਨਿਆ	-4954
▁ਇਸਤ	-4955
▁ਖੁੱਲ੍ਹ	-4956
▁ਜ਼ੋਨ	-4957
ਦਿਨ	-4958
ਗਾੜੀ	-4959
▁ਚੌਂ	-4960
▁ਹਵਾਲਾ	-4961
▁ਕੁਰਬਾਨ	-4962
▁ਹਿਤ	-4963
▁ਪੁਰਾਣੀ	-4964
ਜੀਆਂ	-4965
▁ਡਾਟਾ	-4966
▁ਨਿੱਤ	-4967
▁ਨਾਮਜ਼	-4968
▁ਪਹੁੰਚਾਉਣ	-4969
▁ਦੇਂਦਾ	-4970
▁ਮੈਨੇਜ	-4971
ਬੰਸ	-4972
▁ਸ਼ਰਧਾਂ	-4973
▁ਚੁਣੌਤੀ	-4974
▁ਅਸ਼ੋਕ	-4975
▁ਜਗਾ	-4976
▁ਸਰਟੀ	-4977
▁ਵਾਈਸ	-4978
▁ਪੈਰਾਂ	-4979
ce	-4980
▁ਦਿਮਾਗ	-4981
▁ਬਾਪ	-4982
▁ਪਈਆਂ	-4983
▁45	-4984
▁ਬੰਧ	-4985
▁ਸੁਖਪਾਲ	-4986
▁ਐੱਨ	-4987
▁ਕੰਗ	-4988
▁ਜੋਗਿੰਦਰ	-4989
▁3,	-4990
▁ਬੀਤ	-4991
▁ਘਰੋਂ	-4992
▁ਠਹਿਰਾ	-4993
▁ਵਾਅਦਾ	-4994
ਤੌਰ	-4995
▁ਟਰੱਸਟ	-4996
▁ਨੇੜਲੇ	-4997
▁ਅਧਿਕਾਰਾਂ	-4998
ਤੀਤ	-4999
▁ਕਿਰਤ	-5000
▁ਕਾਲਜਾਂ	-5001
▁ਜਿਲਾ	-5002
▁ਰਾਖੀ	-5003
▁ਵਿਭਾਗਾਂ	-5004
▁500	-5005
▁ਅੰਮਿ੍ਤਸਰ	-5006
ਿਜ	-5007
▁ਨਜ	-5008
▁ਡੋਨ	-5009
▁ਉੱਚਾ	-5010
ਸਤਾ	-5011
▁ਗਾਹਕ	-5012
▁ਮਾਰੂ	-5013
▁ਅੰਧ	-5014
▁ਪਟਾ	-5015
▁by	-5016
ਸਾਲਾ	-5017
▁ਠੱਟਾ	-5018
ਕੂਲ	-5019
▁ਇਨਸਾਫ	-5020
▁ਸੋਚਿਆ	-5021
▁ਭਰਾਵਾਂ	-5022
▁ਮੇਅਰ	-5023
▁ਹੋਇਆਂ	-5024
ਮਰਾਨ	-5025
▁ਉਧਰ	-5026
▁ਚੈੱਕ	-5027
...!	-5028
▁ਇਜਾ	-5029
▁ਭਾਸ਼ਾਵਾਂ	-5030
▁ਕਲੀ	-5031
▁ਖੁਲ	-5032
ਚੈ	-5033
ਫੇਅਰ	-5034
▁ਅਲਾ	-5035
▁ਜੱਟ	-5036
▁ਦਰਜਾ	-5037
▁ਸਰਾ	-5038
▁ਕਲਮ	-5039
ਜ਼ਮੀ	-5040
▁ਆਦਿਕ	-5041
▁ਰਾਇ	-5042
ਜਪ	-5043
▁ਐਡਵੋਕੇਟ	-5044
▁ਤੰਦਰੁਸਤ	-5045
▁ਵਚਨ	-5046
▁ਗੁਆਂ	-5047
▁ਵਰਤੇ	-5048
▁ਸਟੋਰ	-5049
ਗਿੱ	-5050
▁ਉਲੰਘਣਾ	-5051
▁18030003	-5052
ੋਵਾਲ	-5053
▁ਸੋਨ	-5054
▁ਹਰਮਨ	-5055
ਭੁ	-5056
▁ਬਚਪਨ	-5057
ਮੈਨ	-5058
▁ਲਵੋ	-5059
ਜਿਸਟਰ	-5060
▁ਹਜਾਰ	-5061
▁ਪਰਾ	-5062
▁ਸਮਾਰਟ	-5063
▁ਆਵਾਜਾਈ	-5064
ਪੜਾ	-5065
▁ਮੋਰਚੇ	-5066
▁ਬੁਨਿਆਦੀ	-5067
੍ਯ	-5068
▁ਸਖ	-5069
▁ਖ਼ਬਰਾਂ	-5070
all	-5071
ਮਿਤ	-5072
ਜੇਪੀ	-5073
▁ਜੱਸ	-5074
▁ਵਾਇ	-5075
▁ਕਰਨੇ	-5076
▁ਪਾਠਕ	-5077
▁ਪ੍ਰੇਰਿਤ	-5078
ਬਾਮਾ	-5079
▁ਵਾਧੇ	-5080
ਗੋਬਿੰਦ	-5081
▁ਇਸਲਾ	-5082
▁ਕੱਢਿਆ	-5083
ਭਾਰਤ	-5084
▁ਗੁਰਦੁਆਰਿਆਂ	-5085
਼ੀ	-5086
ੁਕਤੀ	-5087
▁....	-5088
▁ਝੂਠੇ	-5089
▁ਸ਼ਹਾਦ	-5090
▁ਦੰਦ	-5091
▁ਭੇਦ	-5092
▁ਬਲਾਤਕਾਰ	-5093
ਈਆਂ	-5094
▁ਜਿ਼	-5095
▁ਦਇਆ	-5096
▁ਗੜ੍ਹ	-5097
▁ਵੱਖਰਾ	-5098
ਸਿੰ	-5099
▁ਸਕੀਮਾਂ	-5100
ub	-5101
▁ਗ੍ਰੰਥੀ	-5102
ਸਟਰੀ	-5103
▁ਡੁੱ	-5104
▁ਜਿਸਦੇ	-5105
▁ਪਾਲਣਾ	-5106
▁ਇਮਾਨ	-5107
ਟੈ	-5108
▁ਖੜਾ	-5109
▁ਮਰਜ਼ੀ	-5110
▁ਪ੍ਰਧਾਨਮੰਤਰੀ	-5111
ਆਣਾ	-5112
▁ਕਿਹੜਾ	-5113
▁ਬਿਹਾਰ	-5114
▁ਪ੍ਰੇਰਨਾ	-5115
ਮਨੀ	-5116
▁ਮੁੰਡਾ	-5117
▁ਕਰੋੜਾਂ	-5118
▁ਨਿਵਾਸੀ	-5119
▁ਪ੍ਰਾਜੈਕਟ	-5120
ev	-5121
ਕਰਾਰ	-5122
ਕਾਲੀ	-5123
ਰੇਲੀਆ	-5124
▁ਲੂੰਡ	-5125
ਟੀਨ	-5126
▁ਛਪ	-5127
▁ਕਬੂਲ	-5128
▁ਸੰਚਾਲ	-5129
▁ਬੈਂਸ	-5130
▁ਹਿੰਮਤ	-5131
▁ਮਹਿਲ	-5132
▁ਪਰੰਪਰਾ	-5133
▁ਦਾਖ਼ਲ	-5134
ਦਾਇਕ	-5135
ਵਾੜੀ	-5136
ਸਾਖੀ	-5137
▁ਓਵਰ	-5138
▁ਫੈਲਾ	-5139
▁ਨੁਮਾਇ	-5140
ਾਨੀਆ	-5141
ਸੈ	-5142
ਮਾਂਡ	-5143
ਪਿੰਡ	-5144
▁ਤਾਪ	-5145
▁ਨਾਗ	-5146
ਫਿਰ	-5147
▁ਬਣਾਉਣਾ	-5148
ਸੀਆਂ	-5149
▁ਸੌਦਾ	-5150
▁ਤਰੀਕਾ	-5151
▁ਨਿਹਾਲ	-5152
▁ਛੱਡਣ	-5153
▁ਸਿਪਾ	-5154
▁ਪੁਰਸਕਾਰ	-5155
▁ਦਸਮ	-5156
▁ਸ਼ਮੂ	-5157
▁ਪਿਛਲੀ	-5158
▁ਸ਼੍ਰੀਮਤੀ	-5159
▁ਸਮੀ	-5160
▁ਦੱਸਦੇ	-5161
▁ਪੜ੍ਹਾ	-5162
ਗੰ	-5163
▁ਭਾਅ	-5164
▁ਸ਼ਖ	-5165
ਲਰ	-5166
ਟੇਨ	-5167
▁ਮਲੇ	-5168
▁ਲਿੰਕ	-5169
▁ਹਿੱਤ	-5170
▁ਸੁਲਤਾਨ	-5171
ੱਛ	-5172
▁ਮਹਿਕ	-5173
▁ਪ੍ਰਾਇਮਰੀ	-5174
ਦੇਨ	-5175
▁ਗੈ	-5176
▁ਨੰਦ	-5177
ਅੰ	-5178
▁ਗਲਤੀ	-5179
▁ਜੰਗਲ	-5180
▁ਚਰਨਜੀਤ	-5181
▁ਪ੍ਰਯੋਗ	-5182
▁ਸ਼ਮੂਲੀਅਤ	-5183
ਿੰਦਰਪਾਲ	-5184
ਪੜ	-5185
▁ਵਣ	-5186
▁ਗੇਟ	-5187
▁ਬਰਗਾੜੀ	-5188
▁ਕਿੱਲ	-5189
▁ਮਨਦੀਪ	-5190
▁ਅੱਤਵਾਦੀਆਂ	-5191
▁that	-5192
▁ਅਕੈਡ	-5193
▁ਇਕਬਾਲ	-5194
▁ਸਹਿਮਤੀ	-5195
ਹੰ	-5196
▁ਦੁੱ	-5197
▁ਸੱਕ	-5198
▁ਗਾਇਕੀ	-5199
▁ਹਿੰਦੁਸਤ	-5200
ਪੱਖੀ	-5201
▁ਅਦਾਰ	-5202
▁ਗੋਰੀ	-5203
1]	-5204
▁ਦੁਖੀ	-5205
ੈਟਿਕ	-5206
▁ਚਰਨਾਂ	-5207
▁ਫ਼ਰੀਦਕੋਟ	-5208
▁Home	-5209
av	-5210
▁ਸਿਫਾਰ	-5211
ਵੈਲ	-5212
ਘੱਟ	-5213
ਗਮਾਂ	-5214
.....	-5215
▁ਸਤਨਾਮ	-5216
ਮਤਾ	-5217
ਰਣਜੀਤ	-5218
▁ਰਜਿਸਟਰ	-5219
▁ਰਹਿਣਗੇ	-5220
▁ਨਿਯੁਕਤੀ	-5221
▁ਕਰਤਾਰਪੁਰ	-5222
▁ਕੰਨ	-5223
▁ਬੱਸਾਂ	-5224
▁ਭੁਗਤਾਨ	-5225
ਜਾਣ	-5226
▁ਸੁਲ	-5227
▁ਆਪਾਂ	-5228
▁ਮੂਰਖ	-5229
▁ਅੰਦੋਲਨ	-5230
▁ਧੁ	-5231
▁ਤਣਾ	-5232
▁ਸਪੈ	-5233
ਮਨੁੱਖ	-5234
▁ਭਗਵੰਤ	-5235
▁ਪਿ੍ੰਸੀਪਲ	-5236
ill	-5237
ਥਿਰ	-5238
▁ਏਸ਼ੀਆ	-5239
▁ਹੋਰਾਂ	-5240
▁ਸਟੇਡੀਅਮ	-5241
▁ਕਲੇ	-5242
▁ਇੰਡੀਅਨ	-5243
▁ਗਤੀਵਿਧੀਆਂ	-5244
▁ਟਨ	-5245
ਾਂਤ	-5246
▁ਹੁਕਮਾਂ	-5247
▁ਏਜੰਸੀਆਂ	-5248
ਐੱਮ	-5249
▁ਲੂ	-5250
▁ਪੂੰ	-5251
▁ਹਰਿਆ	-5252
▁ਖ਼ਰੀਦ	-5253
▁ਕਰਾਂਗੇ	-5254
▁ਰਹ	-5255
▁ਪੜਾਅ	-5256
▁ਸ਼ੁੱਧ	-5257
ਲੈਕਸ	-5258
▁ਤੀਜੀ	-5259
▁ਸਾਗਰ	-5260
▁ਨਾਅਰੇ	-5261
▁ਮੁੱਕ	-5262
▁ਭਾਰਤੀਆਂ	-5263
..!	-5264
ਅਾਂ	-5265
▁ਲੌਂ	-5266
ਗਾਨਿਸਤਾਨ	-5267
▁33	-5268
▁ਖੜ	-5269
▁ਆਟੋ	-5270
▁ਟੈਂ	-5271
▁ਇਲੈਕਟ	-5272
▁ਉਪਰਾਲੇ	-5273
▁ਸੱਚਾ	-5274
ਵਰਕ	-5275
ਟਵੇਅਰ	-5276
▁ਹਦਾਇਤਾਂ	-5277
ੇਰਾ	-5278
▁ਤਨਖਾਹ	-5279
ਹਾਲੀ	-5280
▁ਮੋਰਚਾ	-5281
▁ਤਾਇਨਾਤ	-5282
▁ਛਿ	-5283
▁ਸ਼ਖ਼	-5284
▁ਪੁਰਸ਼	-5285
▁ਸੱਭਿਆਚਾਰਕ	-5286
▁ਪੱਕੇ	-5287
▁ਬੁੱਧੀ	-5288
ੈਫਿਕ	-5289
▁ਅਰਵਿੰਦ	-5290
▁ਖਿਆਲ	-5291
▁ਸ਼ਬਦਾਵਲੀ	-5292
▁ਕੈਸੀ	-5293
▁ਪਾਰਲੀਮੈਂਟ	-5294
▁ਅਮਰੀਕ	-5295
ts	-5296
ਤੀਸ਼	-5297
▁ਇਨਸਾਫ਼	-5298
▁ਨਿਤ	-5299
▁ਕਿਸ਼	-5300
hee	-5301
ਸੇਮ	-5302
▁ਮਾਨਵ	-5303
▁ਯਾਦਵ	-5304
▁ਮੁਕਤੀ	-5305
▁ਸੁਨੇਹਾ	-5306
.5	-5307
ੌਲੀ	-5308
▁ਫਸ	-5309
▁ਜ਼ਬਰ	-5310
▁ਦਹਿਸ਼ਤ	-5311
▁·	-5312
▁ਤਿਸ	-5313
▁ਸੇਖ	-5314
▁ਰਜਿਸਟ	-5315
▁ਪੁਰਾਤਨ	-5316
▁ਜੋਰ	-5317
▁ਤਾਰਨ	-5318
▁ਸਿਖਾ	-5319
▁ਮਹਾਰਾਜ	-5320
▁In	-5321
▁ਜਰਮਨੀ	-5322
▁ਅਕੈਡਮੀ	-5323
▁ਖੁਲਾਸਾ	-5324
▁ਨਾਹ	-5325
▁ਬਣਾਈਆਂ	-5326
▁ਥੀ	-5327
▁ਫੁ	-5328
▁ਉਥੋਂ	-5329
▁ਲਫ਼ਜ਼	-5330
▁ਕੰਪਲੈਕਸ	-5331
ਬਿਊਰੋ	-5332
▁ਚਿੰਨ	-5333
▁ਦੱਸੀ	-5334
▁ਖੰਡ	-5335
▁ਰੁਝ	-5336
▁ਧਰਨੇ	-5337
ਡਿ	-5338
▁ਕੁਲਵਿੰਦਰ	-5339
ਵਿਧਾ	-5340
▁ਬੈਕ	-5341
▁ਸਫਾਈ	-5342
▁ਪ੍ਰਵਾਨਗੀ	-5343
ਬੀਆਈ	-5344
▁ਗੁਰਦੀਪ	-5345
ੁਧ	-5346
ਸੀਸੀ	-5347
ਗੁਰਜੰਟ	-5348
▁ਤਕਨੀਕ	-5349
46	-5350
ੰਦਗੀ	-5351
▁ਵਿਹਾਰ	-5352
▁Pre	-5353
▁ਠੰ	-5354
▁ਮਲਕੀ	-5355
▁ਵਿਧੀ	-5356
▁ਹੜਤਾਲ	-5357
੍ਰਿਕ	-5358
▁ਵੈਨ	-5359
▁ਪੁਜ	-5360
▁ਪ੍ਰਵਾਸੀ	-5361
▁ਮੂਹ	-5362
▁ਆਰਾਮ	-5363
▁ਅਤ	-5364
▁ਤੰ	-5365
▁ਚਲਦੇ	-5366
▁ਛਾਤੀ	-5367
▁ਬੂਟੇ	-5368
▁ਐਵਾਰਡ	-5369
▁ਮੰਤਰੀਆਂ	-5370
ਪਹਿ	-5371
▁ਸਰਪ੍ਰ	-5372
▁ਵਿਧਾਇਕਾਂ	-5373
▁ਮਾੜੀ	-5374
▁ਸੈੱਲ	-5375
▁ਲੋੜਵੰਦ	-5376
▁ਤੇਜ	-5377
▁ਰਿਹਾਇ	-5378
▁ਬੈਲ	-5379
▁ਇੰਝ	-5380
▁ਲੱਗਦੀ	-5381
▁ਰਿਸ਼ਤਾ	-5382
▁ਸ਼ਨੀ	-5383
▁ਓਬਾਮਾ	-5384
▁ਮੁੱਖੀ	-5385
ੰਪਿਕ	-5386
ਜਨਕ	-5387
ਹੂਰੀ	-5388
▁ਗੇਂਦ	-5389
!)	-5390
▁ਜਰ	-5391
▁ਫਾਂਸੀ	-5392
ਬਾਇਲ	-5393
ਣਗੇ	-5394
▁ਚਲੀ	-5395
ਕ੍ਰਿਤ	-5396
▁ਦੋਸਤਾਂ	-5397
ਜਾਮ	-5398
▁ਅਾ	-5399
▁ਇੰਦਰਜੀਤ	-5400
▁ਚੈਟ	-5401
▁ਟਵੀ	-5402
▁ਵਾਅਦੇ	-5403
▁ਸੈਨਿਕ	-5404
▁ਵਿਗਿਆਨਕ	-5405
▁ਦੂਸਰਾ	-5406
▁ਜਾਲ	-5407
”।	-5408
▁ਫੈਡ	-5409
▁ਸਿਕ	-5410
▁ਬਤੌਰ	-5411
ਪੁਲ	-5412
▁ਬੰਗਲਾ	-5413
▁ਖਪਤ	-5414
▁ਬਗੈਰ	-5415
▁ਹਾਕਮ	-5416
▁ਸਫ਼ਾਈ	-5417
ਸੋਸ	-5418
▁ਕੈਮਰਾ	-5419
▁ਪ੍ਰੈੱਸ	-5420
▁ਵਿਕਟਾਂ	-5421
5)	-5422
▁ਕਹੇ	-5423
▁ਜੋੜੀ	-5424
▁ਮਾੜੇ	-5425
▁ਦੱਸੇ	-5426
▁ਰਵਾਨਾ	-5427
ਜਿਸਟ	-5428
▁ਉਪਭ	-5429
▁ਸਟੈਂਡ	-5430
▁ਬੇਟੇ	-5431
▁ਭੇਂਟ	-5432
▁ਸੂਰਤ	-5433
▁ਗੁਰਮੱਤ	-5434
▁ਵਿਲੱਖਣ	-5435
▁ਮਰੀਜ਼ਾਂ	-5436
ਟਾਈ	-5437
ਿਸੂ	-5438
▁ਰਾਈ	-5439
▁ਬਣਦੇ	-5440
4)	-5441
▁ਓਲ	-5442
▁ਗਲੀ	-5443
ਮਈ	-5444
▁ਝਗ	-5445
▁ਚਮੜੀ	-5446
▁ਪ੍ਰਕਾਸ਼ਤ	-5447
ish	-5448
▁ਕੌਾ	-5449
▁Vi	-5450
▁ਲੋੜਾਂ	-5451
ਅੰਮ੍ਰਿਤਸਰ	-5452
▁ਗਲੇ	-5453
▁ਮੰਗੀ	-5454
▁ਜਤਿੰਦਰ	-5455
▁ਬੀਜੇਪੀ	-5456
▁ਵਾਕ	-5457
ਾਨੀਆਂ	-5458
▁ਚਿੱਠੀ	-5459
▁ਗਵਰ	-5460
▁ਕਾਰਗੁ	-5461
▁ਪ੍ਰਤੀਕ	-5462
▁(2)	-5463
▁ਨਥੇ	-5464
▁ਕਬਜ਼ਾ	-5465
▁ਮਸਲਿਆਂ	-5466
▁ਰੱਬੀ	-5467
▁ਕਿਧਰੇ	-5468
▁ਵਰਤਮਾਨ	-5469
ਰਕ	-5470
its	-5471
ਨਾਵਾਂ	-5472
▁ਜੋੜਨ	-5473
▁ਨਥੇਹਾ	-5474
▁ਲੱਗਦੇ	-5475
▁ਵਿਆਖਿਆ	-5476
▁ਅਨਾਜ	-5477
▁ਧਾਰਨ	-5478
▁ਸਿਖਿਆ	-5479
▁ਡਾਊਨਲੋਡ	-5480
ਨੀਕ	-5481
ਸਾਲਾਹ	-5482
ਾਰਿਆਂ	-5483
▁ਬੇਸ਼ੱਕ	-5484
4,	-5485
▁ਪਲੇਟ	-5486
▁ਉਨ੍ਹਾ	-5487
ਟਿਕ	-5488
▁ਪੱਖੀ	-5489
ian	-5490
ਦਮੀ	-5491
▁ਖਾਤੇ	-5492
▁ਗ੍ਰਾਮ	-5493
ਵਾਏ	-5494
▁ਦੁਕਾਨਾਂ	-5495
▁ਰਿਆ	-5496
ਸਥਾਨਕ	-5497
▁ਉਤਸ਼ਾਹਿਤ	-5498
ੰਗੇ	-5499
▁ਮੇਜਰ	-5500
ਟਿਵ	-5501
▁ਬੰਦੀ	-5502
▁ਪ੍ਰੀਤਮ	-5503
▁ਬਿਨ	-5504
▁ਗੁਲਾ	-5505
▁ਕੈਲੀਫ	-5506
▁ਜਗਜੀਤ	-5507
▁ਮੁੱਦਿਆਂ	-5508
▁ਤਿਲ	-5509
▁ਦੂਜਿਆਂ	-5510
▁ਸੀਮਤ	-5511
▁ਧਰਮਾਂ	-5512
ਗਟ	-5513
ਟਮ	-5514
▁ਮੱਥੇ	-5515
ਪਾਸ	-5516
▁ਅਧਿਆ	-5517
▁ਧਮਾਕੇ	-5518
▁ਨਜ਼ਦੀਕ	-5519
▁ਕਾਰਜਕਾਰੀ	-5520
▁ਸ਼ਿਰ	-5521
▁ਕਰਮਾਂ	-5522
▁ਸਿਰੇ	-5523
▁ਮਿਲਾਪ	-5524
ਤਮੰਦ	-5525
▁ਮਾਰਦੇ	-5526
▁ਵਾਰਦਾ	-5527
era	-5528
▁ਯੂਰਪ	-5529
ਨੇਡੀਅਨ	-5530
▁ਕਿਰਿਆ	-5531
pp	-5532
▁ਚੁਣਿਆ	-5533
▁ਦ੍ਰਿਸ਼ਟੀ	-5534
▁ਫ਼ਿਰੋਜ਼ਪੁਰ	-5535
▁ਆਓ	-5536
▁ਚੇਤੇ	-5537
ਗਵਾੜਾ	-5538
▁ਹਦਾਇਤ	-5539
▁ਟਰੂ	-5540
▁ਧੱਕੇ	-5541
ਵਾਂਗਾ	-5542
▁ਰੂਪਨਗਰ	-5543
▁ਬਲਵੰਤ	-5544
▁ਦੋਸ਼ਾਂ	-5545
▁ਪ੍ਰਤਾਪ	-5546
ਦਿਲ	-5547
▁ਆਸ਼	-5548
▁ਰਾਗ	-5549
▁ਸੇਧ	-5550
▁ਜਸਵੀਰ	-5551
▁ਸਰਟੀਫਿ	-5552
▁ਜ਼ਰੀਏ	-5553
▁ਨਿਗਰਾਨੀ	-5554
ਡੀਏ	-5555
▁ਫੁੱ	-5556
▁ਮੁਸਲਮਾਨਾਂ	-5557
16	-5558
▁ਦੂਰੀ	-5559
▁ਵਿਦਿਆਰਥਣਾਂ	-5560
ਛੇ	-5561
ਵਿਊ	-5562
▁ਚੌਕ	-5563
▁ਭੇਜੇ	-5564
▁ਕਿਉਕਿ	-5565
▁ਨਿਰਮਾਤਾ	-5566
ਗਿਣਤੀ	-5567
▁ਸਮਝਦਾ	-5568
▁ਲੱਗੀਆਂ	-5569
ਟਣ	-5570
ਟੇਲ	-5571
ਲੀਲ	-5572
▁ਭਲੇ	-5573
▁ਰੋਜ਼ਾ	-5574
▁ਪ੍ਰਕਾਸ਼ਿਤ	-5575
ਜਦੋਂ	-5576
▁ਅਥਾਰ	-5577
▁ਪੂਰਤੀ	-5578
▁ਸੁਨੀਲ	-5579
▁ਤਗ	-5580
▁ਗਲੋ	-5581
▁ਜ਼ਹਿਰ	-5582
▁ਆਵੇ	-5583
▁ਰੂਪੀ	-5584
▁ਜੁੜਿਆ	-5585
▁ਨਿਊਜ਼ੀਲੈਂਡ	-5586
ਸਪੀ	-5587
▁ਪੇਪਰ	-5588
▁ਵੋਟਰ	-5589
ter	-5590
▁ਟਕਸਾਲ	-5591
▁ਵਾਪਿਸ	-5592
▁ਚੰਡੀਗੜ	-5593
▁ਚੋਰ	-5594
▁ਥੋੜ	-5595
▁ਬਚਨ	-5596
▁ਪਿਆਰਾ	-5597
▁ਟਿੱਪਣੀ	-5598
ਪੈ	-5599
.)-	-5600
aur	-5601
Porn	-5602
▁ਜਦੋ	-5603
ie	-5604
ਸ਼ਹਿਰ	-5605
▁ਹੱਕਾਂ	-5606
▁ਆਧਾਰਿਤ	-5607
ੈਂਸੀ	-5608
▁ਨੰੂ	-5609
▁ਕਿੰਨੀ	-5610
▁ਹਰਵਿੰਦਰ	-5611
▁ਪੜੋ	-5612
ਵਾਰਾਂ	-5613
▁ਅਗਾਂਹ	-5614
▁ਠਾਕੁਰ	-5615
ਕਾਨੂੰਨੀ	-5616
▁4,	-5617
▁90	-5618
▁ਸੋਢੀ	-5619
▁ਨਿਭਾਉਣ	-5620
ਧਰਮ	-5621
▁ਸੂਦ	-5622
▁ਪਰਮਿੰਦਰ	-5623
▁ਹਕੀ	-5624
▁ਆਕਾਰ	-5625
▁ਇਜਾਜ਼ਤ	-5626
’।	-5627
▁ਪ੍ਰਿ	-5628
▁ਡਰਾਈਵਰ	-5629
▁HD	-5630
▁ਉਜ	-5631
▁ਫ਼ਰਕ	-5632
qu	-5633
▁ਗੜ	-5634
▁ਕਿਆ	-5635
ਸ਼ਨਾਨ	-5636
▁ਮੰਦਿਰ	-5637
▁ਇਲਜ਼ਾਮ	-5638
▁ਬਚਣ	-5639
▁ਲੱਭਣ	-5640
▁ਭਾਈਚਾਰ	-5641
▁ਸੰਬੰਧਿਤ	-5642
ਪੂਰਾ	-5643
▁ਦੱਖਣ	-5644
▁ਮਿਲੇਗੀ	-5645
▁ਲੀਡਰਾਂ	-5646
▁ਪ੍ਰਮਾਤਮਾ	-5647
ਮੁਖੀ	-5648
▁ਬੰਦਿਆਂ	-5649
▁ਜਿਨਾਂ	-5650
▁ਗਰਭ	-5651
▁ਮਸਤ	-5652
ਖਾਂ	-5653
ਰੀਂ	-5654
ਿੱਕ	-5655
▁ਜਾਓ	-5656
▁ਵਰਮਾ	-5657
▁ਸਹਾਰਾ	-5658
▁ਲਾਜ਼ਮੀ	-5659
ਪਾਕ	-5660
▁ਚਲਦਾ	-5661
▁ਜ਼ਮੀ	-5662
▁ਸਪੀਕਰ	-5663
▁ਵਿਰਾਸਤ	-5664
▁ਅਗੇ	-5665
▁ਸੈਰ	-5666
▁ਕੈਸੀਨੋ	-5667
ਸਣ	-5668
▁ਜਗਦੀਸ਼	-5669
▁ਅਦਾਲਤਾਂ	-5670
ਵਿਰ	-5671
▁ਤੱ	-5672
-201	-5673
▁ਗੁੰਮ	-5674
▁ਮਸਲਾ	-5675
▁ਮੰਨੀ	-5676
ਗਿਆਨ	-5677
ਸਟਿਕ	-5678
▁ਲੇਖਕਾਂ	-5679
ਸਟੇ	-5680
▁ਸੋਚਣ	-5681
19	-5682
ੈਕਟਰੀ	-5683
▁ਟਰੂਡੋ	-5684
▁ਰਸਾਇ	-5685
▁ਵਿਦਿਆ	-5686
▁ਸਿਰਜਣਾ	-5687
▁ਖਿਲ	-5688
▁ਸਚੁ	-5689
▁ਮੱਥਾ	-5690
▁ਰਹੀਮ	-5691
▁ਲੈਕੇ	-5692
▁ਮੰਨਣਾ	-5693
▁ਹਿਮਾਚਲ	-5694
▁ਫਤਹਿ	-5695
▁ਹਰਦੀਪ	-5696
▁ਇੰਡਸਟਰੀ	-5697
▁ਮਜ਼ਦੂਰਾਂ	-5698
▁ਸ਼ੁਭ	-5699
▁ਮੈਜਿਸਟ	-5700
▁ਕੋਹਲੀ	-5701
▁ਵੀਹ	-5702
ਜੀਲ	-5703
ਿੱਟ	-5704
▁ਕੀਮਤੀ	-5705
▁ਰੌਸ਼ਨ	-5706
ੋਲੀ	-5707
▁ਡੈਮ	-5708
▁ਦੁਸ਼ਮਣ	-5709
ਮਸ਼	-5710
ਾਈਟ	-5711
▁ਰਣਨੀ	-5712
ਮੇਰ	-5713
ਬਸ	-5714
ਕ੍ਰਿ	-5715
ਤਨਾਂ	-5716
▁ਖੁਰਾਕ	-5717
▁ਬਿਕਰਮ	-5718
ਖੁ	-5719
▁ਚੁੰ	-5720
ਵੀਜ਼ਨ	-5721
▁ਚੌਥੇ	-5722
▁ਸਮਰੱਥ	-5723
▁ਹੁੰਦਿਆਂ	-5724
▁37	-5725
ਨਾਮੇ	-5726
ਪਿੰਗ	-5727
▁ਸਕਣਗੇ	-5728
▁ਅਨੁਕੂਲ	-5729
▁ਨੀਂਦ	-5730
▁ਸਟੂ	-5731
▁ਵਿਰਸੇ	-5732
▁ਏਸ਼ੀ	-5733
▁ਮਰੀਜ਼	-5734
▁ਫੈਡਰੇਸ਼ਨ	-5735
▁ਲਗਪਗ	-5736
▁ਪ੍ਰਚਾਰਕ	-5737
ਸਭਾ	-5738
ਬ੍ਰਿ	-5739
▁ਕਾਬ	-5740
▁ਮਾਲੀ	-5741
▁ਵਿਕਸਤ	-5742
▁ਸਮਾਪਤ	-5743
17	-5744
▁ਬੋਲਦੇ	-5745
▁ਸੁਣਿਆ	-5746
▁ਹੇਠਲੇ	-5747
ਬੀਆ	-5748
▁ਠੋਸ	-5749
ਜ਼ਾਰੀ	-5750
▁ਮੋਕੇ	-5751
▁ਇੰਸਟੀਚਿਊਟ	-5752
▁ਚਾਨਣ	-5753
▁ਸੇਵੀ	-5754
▁ਹਮਦਰ	-5755
ਹਿਰੇ	-5756
▁ਅਸਾ	-5757
ਡੇਸ਼ਨ	-5758
▁ਰਾਮਦਾਸ	-5759
▁ਟੂ	-5760
▁ਕੁਆ	-5761
▁ਭਿ	-5762
ਸ਼ਾਲਾ	-5763
▁ਤਾਕਤਾਂ	-5764
ਪਛਾ	-5765
▁ਦਿਵਾਉਣ	-5766
▁ਸਮਾਚਾਰ	-5767
▁ਸੁਵਿਧਾ	-5768
ss	-5769
ਸਲੇ	-5770
▁ਸਮਝੌਤੇ	-5771
ਖੇਪ	-5772
▁ਤੇਗ	-5773
▁Sting	-5774
▁ਟਕਰਾ	-5775
▁ਦਲੀਲ	-5776
▁ਲਾਇਬ	-5777
▁ਕਿਸਮਾਂ	-5778
▁ਅੰਦਰੂਨੀ	-5779
SA	-5780
▁Y	-5781
ਨਾਲਾ	-5782
੍ਰਿਸ਼ਨਾ	-5783
▁ਜੋਤੀ	-5784
▁ਕੁੱਤੇ	-5785
▁ਚੇਤਨਾ	-5786
▁ਨਿੰਦਾ	-5787
ਲਖ	-5788
ਮਲਾ	-5789
▁34	-5790
ਯਾਦਾ	-5791
▁ਗਵਾਹ	-5792
▁ਸਮਾਗਮਾਂ	-5793
ਪਰੇ	-5794
ਭਾਸ਼ਾ	-5795
▁ਦੇਸੀ	-5796
▁ਮਾੜਾ	-5797
▁ਇੱਜ਼ਤ	-5798
▁ਸੁਆਮੀ	-5799
▁ਗੁਰਜੀਤ	-5800
▁ਮੋਬਾਇਲ	-5801
12	-5802
▁ਨਾਭਾ	-5803
▁ਸੰਗਠ	-5804
▁ਮੱਦੇਨ	-5805
▁ਛੁਟ	-5806
▁ਫੋਰਸ	-5807
▁ਉਹਨੂੰ	-5808
▁ਪਰੇਸ਼	-5809
▁ਪੰਡਿਤ	-5810
▁ਕਾਰਨਾਂ	-5811
▁ਐਸਾ	-5812
▁ਟਵੀਟ	-5813
ਦੜ	-5814
▁ਆਖਦੇ	-5815
▁ਡੇਅ	-5816
▁ਚਾਰੇ	-5817
▁ਇੰਟਰਨੈੱਟ	-5818
▁ਝਾੜ	-5819
▁ਡੇਢ	-5820
▁ਪੀਰ	-5821
▁ਆਖਦਾ	-5822
▁ਰਾਜਪਾਲ	-5823
▁ਦੀਪਕ	-5824
▁ਬਨਾਉਣ	-5825
IN	-5826
▁Views	-5827
▁ਕਬਜ਼ੇ	-5828
▁ਸ਼ਰਧਾਂਜਲੀ	-5829
▁ਪਵਨ	-5830
▁ਮੁਆਵ	-5831
ਯੋਗੀ	-5832
▁ਫੁਰ	-5833
▁ਅੱਧੀ	-5834
▁ਉਦਾਹਰਣ	-5835
ਚਰਲ	-5836
▁ਯਿਸੂ	-5837
▁ਪ੍ਰੀਤ	-5838
▁ਹਰਭਜਨ	-5839
▁ਸਿੰਗਲਾ	-5840
▁ਪ੍ਰਭਾਵਸ਼ਾਲੀ	-5841
ਅਰਥ	-5842
ਟਰਨ	-5843
▁ਗਠਨ	-5844
ng	-5845
।’’	-5846
ਸ਼ੰਕਰ	-5847
▁ਕਿਰਨ	-5848
▁ਇਕੱਠਾ	-5849
▁ਬੰਗਾਲ	-5850
▁ਸ਼ੈਲੀ	-5851
▁ਸ਼ਨੀਵਾਰ	-5852
ਅਜੀਤ	-5853
▁ਸਿਨੇ	-5854
▁ਅਵਾਜ਼	-5855
▁ਸੰਮੇਲ	-5856
ੂਹਾ	-5857
▁ਜ਼ੁਲਮ	-5858
▁ਉਡ	-5859
▁੧੯	-5860
▁ਅੱਤਵਾਦ	-5861
ਕਦੇ	-5862
▁ਹਿਰਾ	-5863
est	-5864
▁ਪ੍ਰਵੇਸ਼	-5865
if	-5866
ਸਤਾਨ	-5867
▁ਰਵਿ	-5868
▁ਅੰਡਰ	-5869
▁ਬੈਂਚ	-5870
▁ਯੂਨਿਟ	-5871
▁ਵਜ੍ਹਾ	-5872
▁:-	-5873
ਜਗ	-5874
ਛੀਆਂ	-5875
ੱਲ੍ਹ	-5876
▁ਤੀਸ	-5877
▁ਛੇੜ	-5878
vious	-5879
▁ਲੈਂਦੀ	-5880
▁ਝਲ	-5881
▁ਤਬਾਹ	-5882
▁ਫਾਇਰ	-5883
▁ਸਕੇਗਾ	-5884
▁ਓਸ	-5885
▁ਕੈਲੰਡਰ	-5886
▁ਅਭਿ	-5887
▁ਇਲਾਕਾ	-5888
▁ਜਿਹੜੀਆਂ	-5889
ਗਿੱਛ	-5890
▁ਟਿਊ	-5891
▁ਨਾਨ	-5892
▁ਪ੍ਰਚਲ	-5893
▁ਜਤਾ	-5894
▁ਮੀਟ	-5895
▁ਅਮਿਤ	-5896
▁ਟੈਲੀ	-5897
▁ਬੁਰਾ	-5898
▁ਜਿੰਨੀ	-5899
▁ਸੰਕਲਪ	-5900
▁ਯੁੱਗ	-5901
ਅਸ	-5902
ੱਤੇ	-5903
▁ਛੁੱਟ	-5904
▁ਜਾਪਦਾ	-5905
▁ਸ਼ਹਾਦਤ	-5906
ਦੌੜ	-5907
▁ਘਿ	-5908
ਬਰਾਂ	-5909
▁ਸਰਨ	-5910
▁ਯੋਗਤਾ	-5911
ro	-5912
ਈਂ	-5913
▁ਨਿਖੇ	-5914
▁ਪੇਸ਼ੇ	-5915
▁ਸੰਖੇਪ	-5916
▁ਦੱਸਣਯੋਗ	-5917
ਉਹਨਾਂ	-5918
▁ਕ੍ਰਮ	-5919
▁ਨੀਂਹ	-5920
ਗ੍ਰ	-5921
▁ਰੇਖਾ	-5922
▁ਜੋਤਿ	-5923
▁ਪਹਿਲੂ	-5924
▁ਹਰਜਿੰਦਰ	-5925
ਇੰਟ	-5926
▁ਔਖਾ	-5927
▁ਬੈਠੀ	-5928
ਤਵ	-5929
ਸਭ	-5930
ਿੱਤਰ	-5931
ਦਰਸ਼ਨ	-5932
▁ਸੋਨੀ	-5933
▁ਤਪ	-5934
▁ਜੁੱ	-5935
▁ਚੀਨੀ	-5936
80	-5937
ਫੀਆ	-5938
▁ਹਾਦਸਾ	-5939
ਮਾਈ	-5940
▁ਲੰਮੀ	-5941
▁ਵਰਲਡ	-5942
▁ਜ਼ਿਲੇ	-5943
▁ਸੁਤੰਤਰ	-5944
▁ਇੰਦਰਾ	-5945
▁ਅਫ਼ਸਰਾਂ	-5946
▁ਸੰਗ੍ਰਹਿ	-5947
ਥਲ	-5948
ਿਤਾ	-5949
▁ਜ਼ੀ	-5950
▁ਨੁੰ	-5951
▁ਮਿਊ	-5952
ਿਜ਼	-5953
▁ਕਢ	-5954
ਕਾਇਆ	-5955
▁2010	-5956
▁2019	-5957
▁ਪਸ਼ੂਆਂ	-5958
▁ਵਿਸ਼ਲੇ	-5959
▁st	-5960
▁ਲਿਖਤ	-5961
▁ਰੁਝਾਨ	-5962
ਕਲੀ	-5963
ਮੇਰੇ	-5964
▁ਅਪਰ	-5965
ਾਲਾਬਾਦ	-5966
▁ਭਗਤਾਂ	-5967
▁ਹਿੰਦੂਆਂ	-5968
▁ਗੁੱਸੇ	-5969
▁ਨਾਚ	-5970
▁ਮਾਰਕ	-5971
▁ਮੰਤਵ	-5972
▁ਸਾਢੇ	-5973
▁ਸਾਫਟਵੇਅਰ	-5974
ਅੰਗ	-5975
▁ਬਈ	-5976
▁ਵਖ	-5977
▁ਕੰਬ	-5978
ਕਰੀਆਂ	-5979
ਮਾਉਂਦੇ	-5980
▁ਦਸਮੇਸ਼	-5981
▁ਬ੍ਰਿਟਿਸ਼	-5982
▁ਚੱਲੇ	-5983
▁ਵਿਚਰ	-5984
▁ਵਿਦਿਅਕ	-5985
ਗੈ	-5986
ਅਸੀਂ	-5987
ਫਾਰਮ	-5988
▁ਅਦਾਕਾਰਾ	-5989
ਾਂਤੀ	-5990
▁ਏਨਾ	-5991
▁ਬਦਲਾਅ	-5992
▁ਥੋੜ੍ਹਾ	-5993
▁ਬਲਜਿੰਦਰ	-5994
▁ਵਿਸ਼ਿਆਂ	-5995
▁ਤਣਾਅ	-5996
▁ਸ਼ਿਰਕਤ	-5997
ਤੁਰ	-5998
ਜੀਵਨ	-5999
▁ਡਬਲ	-6000
▁ਨਸੀ	-6001
▁ਪੁਛ	-6002
▁ਮਨਿ	-6003
:3	-6004
ਵਤੀ	-6005
▁ਅਖਾ	-6006
▁ਦਸੂਹਾ	-6007
ਖਲ	-6008
▁ਬਾਹਰੀ	-6009
▁ਸੰਮੇਲਨ	-6010
▁ਪ੍ਰਸਤਾਵ	-6011
ਤੇਜ	-6012
ਪਾਰੀ	-6013
▁ਮੈਲ	-6014
▁ਕੈਲੀਫੋਰਨੀਆ	-6015
▁ਰੇਡੀਓ	-6016
▁ਇਸ਼ਨਾਨ	-6017
-4	-6018
ਦੀਨ	-6019
▁ਦਿਉ	-6020
▁ਇੰਨੀ	-6021
▁ਲੋਕਤੰਤਰ	-6022
▁ਹਿਰਾਸਤ	-6023
ਕਸ਼ਮੀਰ	-6024
▁ਢਾਂਚੇ	-6025
▁ਬਰਕਰਾਰ	-6026
▁ਵਿਦਵਾਨਾਂ	-6027
▁ਮਾਪੇ	-6028
▁ਪੂਰੀਆਂ	-6029
▁ਖਤਰਾ	-6030
▁ਚਾਰਜ	-6031
▁ਮੰਗਣ	-6032
▁ਅਮਨਦੀਪ	-6033
▁ਧੂੰ	-6034
▁ਰਮਨ	-6035
▁ਆਦਰਸ਼	-6036
▁ਸੁਪਨੇ	-6037
▁ਦਿਲਚਸਪ	-6038
▁ਮਨੁੱਖਾਂ	-6039
ard	-6040
▁ਭਲ	-6041
▁ਨਕਲੀ	-6042
ec	-6043
▁ਕਿਹੜੇ	-6044
xx	-6045
ਿੰਟ	-6046
ਠੀਆਂ	-6047
▁ਤ੍ਰ	-6048
ਦੁਆਲੇ	-6049
▁ਨਿਵੇ	-6050
▁ਇੰਨ	-6051
▁ਪੱਗ	-6052
▁ਹਮਾ	-6053
▁ਪਿਛੇ	-6054
▁ਖੜ੍ਹੀ	-6055
▁ਵਿਕਰੀ	-6056
▁ਫਗਵਾੜਾ	-6057
▁ਹਿੰਦੁਸਤਾਨ	-6058
▁ਅਮਲੀ	-6059
▁ਤਿੰਨਾਂ	-6060
▁Previous	-6061
▁ਵੇਖੋ	-6062
▁ਪਿੱਠ	-6063
▁ਮੱਛੀ	-6064
▁ਆਸਟਰੇਲੀਆ	-6065
▁ਤੜ	-6066
ਫੋਨ	-6067
▁ਟਿ	-6068
▁ਮੱਦੇਨਜ਼ਰ	-6069
ਮੁਕਤ	-6070
▁ਉੱਘੇ	-6071
▁ਲੌਂਗੋਵਾਲ	-6072
ਰਸ	-6073
▁no	-6074
▁ਵਾਇਰਲ	-6075
▁ਚੁੱਕੀਆਂ	-6076
▁ਜਲਾਲਾਬਾਦ	-6077
ਕੀਰ	-6078
ਦਰਾਂ	-6079
ਦਾਸ਼ਤ	-6080
▁ਰਘ	-6081
ਰੀਬੀ	-6082
▁ਸਹੁੰ	-6083
▁ਵਸਤਾਂ	-6084
▁ਰਿਸ਼ਤੇਦਾਰ	-6085
▁ਖਜ਼	-6086
ਮਾਨੰਦ	-6087
▁ਦਿਆਂ	-6088
25	-6089
▁ਆਸਾ	-6090
▁ਰਸੋਈ	-6091
▁ਪਲਾਂਟ	-6092
▁ਕਾਮਰੇਡ	-6093
▁ਦਸਤਾਵੇਜ਼	-6094
▁ਜੰਡ	-6095
▁ਏਜੰ	-6096
▁ਜੋੜੇ	-6097
▁ਲਹਿਰਾ	-6098
▁ਸਥਾਨਾਂ	-6099
ਚੀਨ	-6100
▁ਜੀਉ	-6101
▁ਸਰਹ	-6102
▁ਦਹਾਕੇ	-6103
▁ਜਮ੍ਹਾਂ	-6104
▁ਲੀਡਰਸ਼ਿਪ	-6105
ੱਰ	-6106
ਪੀਆਂ	-6107
▁ਅਦਾਰਿਆਂ	-6108
ਵਹਿ	-6109
▁ਦਰਵਾ	-6110
▁ਪੰਨਾ	-6111
▁ਸਿੱਧੀ	-6112
▁ਨਿਰੰਤਰ	-6113
ਸ਼ੁ	-6114
▁ਚਾਂਦੀ	-6115
IL	-6116
ਰੂਪ	-6117
▁ਖ਼ਜ਼	-6118
▁ਗੁਣਾ	-6119
ure	-6120
▁ਵਜ਼ੀ	-6121
ਪਿਛ	-6122
▁ਅਹਿਮਦ	-6123
▁ਬੋਲਦਿਆਂ	-6124
ੂਬੀ	-6125
▁ਰਸਮ	-6126
▁ਰਿਪ	-6127
▁ਯਾਨੀ	-6128
਼ਾ	-6129
ਹਿਬ	-6130
▁ਭੁੱ	-6131
▁ਲਿਮ	-6132
▁ਮਸੀਹ	-6133
▁ਪਾਉਂਦੇ	-6134
ਇਗੀ	-6135
ਭਿੰਨ	-6136
▁ਸਫਰ	-6137
▁ਮਾਹਿਰਾਂ	-6138
-20	-6139
▁ਬਾਵਾ	-6140
▁ਵਿਖਾਈ	-6141
▁ਸੰਭਾਲਣ	-6142
▁ਸੱਜ	-6143
ext	-6144
▁ਜੱਸੀ	-6145
▁ਪਸਾਰ	-6146
▁ਵਰਣਨ	-6147
▁ਕਰਨੈਲ	-6148
▁ਖਰੀਦਣ	-6149
▁ਵਿਰੁਧ	-6150
▁ਹਟਾਉਣ	-6151
▁ਗੰਭੀਰਤਾ	-6152
ੋਕੀ	-6153
▁ਵਿਸਾਖੀ	-6154
ਸਦਾ	-6155
▁Post	-6156
▁ਨਿਰਦੇਸ਼ਾਂ	-6157
ਧੜੀ	-6158
ੜ੍ਹਾਂ	-6159
▁ਚਿਤ	-6160
▁ਮਨਮੁਖ	-6161
▁ਦਿਖਾਇਆ	-6162
60	-6163
ਕੜਿਆਂ	-6164
▁ਰਿਸ਼ਤਿਆਂ	-6165
▁ਫੂਡ	-6166
▁ਵਰਤੀ	-6167
▁ਬਾਦਸ਼ਾਹ	-6168
ant	-6169
ਨੇਟਰ	-6170
ਹਾਂਤ	-6171
ਜਸਬੀਰ	-6172
▁ਲਾਲਚ	-6173
▁ਵਪਾਰਕ	-6174
ਜਰਮ	-6175
ਾਈਡ	-6176
▁ਉਂਝ	-6177
▁ਮਲੋਟ	-6178
▁ਮਿਥ	-6179
▁for	-6180
▁ਰਾਜੀਵ	-6181
▁ਪ੍ਰਬੰਧਕੀ	-6182
ww	-6183
ਰੋਇਨ	-6184
ਸਾਨੀ	-6185
▁ਅੱਧ	-6186
▁ਪ੍ਰਤ	-6187
▁ਵਧਦੀ	-6188
▁ਸੰਵੇ	-6189
ੱਟਦੇ	-6190
▁ਚਾਲੂ	-6191
▁ਜਦੋਂਕਿ	-6192
▁ਰਾਜਪੁਰਾ	-6193
ਉੱਚ	-6194
ਾਇਨ	-6195
▁ਰਾਜਿੰਦਰ	-6196
▁ਸਰਟੀਫਿਕੇਟ	-6197
ਕਸ਼ੇਤਰ	-6198
▁ਕਹਿੰਦੀ	-6199
▁ਪਹੁੰਚੀ	-6200
▁ਗੋਲੀਬਾਰੀ	-6201
▁ਕੋਟਕ	-6202
▁ਪੱਕੀ	-6203
▁ਵਸਤੂ	-6204
▁ਦਿਲਚਸਪੀ	-6205
▁ਮਾਤ	-6206
▁ਸੇਵਾਦਾਰ	-6207
ly	-6208
▁ਵੇਦ	-6209
ਵਾਇਤੀ	-6210
▁ਟੁਕ	-6211
▁ਦ੍ਰਿੜ	-6212
ਵਾਸੀਆਂ	-6213
▁ਇਕੱਲੇ	-6214
▁ਡੂੰਘੀ	-6215
▁ਜਿਕਰ	-6216
▁ਚੋਪੜਾ	-6217
▁ਰੌਸ਼ਨੀ	-6218
▁38	-6219
▁ਰੋਹ	-6220
▁ਕਮਾਲ	-6221
▁ਭਰੋਸੇ	-6222
▁ਸ਼ਾਂਤ	-6223
▁ਫ਼ਸਲਾਂ	-6224
▁ਸਾਡੀਆਂ	-6225
15	-6226
ud	-6227
ਖਮ	-6228
▁ਵਲੋ	-6229
▁ਮਤਾ	-6230
▁ਹੋਮ	-6231
▁ਵਿਕਸ	-6232
▁ਨਹਿਰੂ	-6233
▁ਨਤੀਜਿਆਂ	-6234
▁ਅਬਦ	-6235
▁ਭਿੰਡ	-6236
▁ਟੌ	-6237
▁ਜਰਮਨ	-6238
▁ਭੂਮੀ	-6239
▁ਲੁਟੇ	-6240
▁ਉਜਾਗਰ	-6241
▁ਪਾਸਪੋਰਟ	-6242
▁ਮਨੋਰੰਜਨ	-6243
▁ਵੜ	-6244
ਤਿਹਾਰ	-6245
▁ਅਣਪਛਾ	-6246
▁ਗੈਂਗਸਟਰ	-6247
ਉਪ	-6248
▁ਝੁ	-6249
ry	-6250
▁ਗਿ੍	-6251
ਜੀਲੈਂਸ	-6252
▁ਅਸਲੀਅਤ	-6253
▁ਥੋੜ੍ਹੀ	-6254
▁ਸਪੈਸ਼ਲ	-6255
▁ਵੈੱਬਸਾਈਟ	-6256
▁ਹਟ	-6257
▁ਜਿੰਮੇਵਾਰੀ	-6258
▁195	-6259
▁ਗਗਨ	-6260
▁ਡੀਜ਼ਲ	-6261
▁ਕੇਂਦਰਾਂ	-6262
ਕਿਉਂ	-6263
▁ਟੀਵੀ	-6264
▁ਆਲੋਚਨਾ	-6265
▁ਘੰਟਿਆਂ	-6266
tt	-6267
੦੦	-6268
▁Sh	-6269
▁ਥਾਈ	-6270
▁ਦੇਖੀ	-6271
▁ਸਦੀਆਂ	-6272
▁ਸਵਾਲਾਂ	-6273
AN	-6274
▁ਤਮ	-6275
▁ਵਿਕੀ	-6276
▁ਪ੍ਰਸ਼	-6277
▁ਸਿਲਸਿ	-6278
▁ਨਾਗਰਿਕਾਂ	-6279
▁ਢੀ	-6280
▁ਬਹ	-6281
▁ਮੈਡਲ	-6282
▁ਸਿਖਰ	-6283
▁ਬੁਲੰਦ	-6284
▁ਮਹੱਤਤਾ	-6285
▁ਵਿਕਸਿਤ	-6286
''	-6287
ਪਿਤਾ	-6288
ਸ਼ਬਦ	-6289
▁ਅੰਬੇ	-6290
▁ਸਿਰਲੇਖ	-6291
▁ਸਭਿਆਚਾਰਕ	-6292
▁ਗੌ	-6293
▁ਨਾਸ	-6294
▁ਹੈੱਡ	-6295
▁ਗਠਜੋੜ	-6296
▁ਚੜ੍ਹਾ	-6297
▁ਫ਼ੌਜੀ	-6298
▁ਜਿੱਤਿਆ	-6299
ਲਿਆਂ	-6300
▁ਕੂੜ	-6301
▁ਹਨੀ	-6302
▁ਨਿੰਦ	-6303
▁ਨੈੱਟ	-6304
▁ਵਾਪਸੀ	-6305
▁ਸਾਹਿਬਜ਼ਾ	-6306
ਵੱਡੀ	-6307
▁ਰਾਂ	-6308
▁ਸਚਾਈ	-6309
▁ਗ਼ਰੀਬ	-6310
▁ਮੂਰਤੀ	-6311
▁ਗੁਰਮੁਖਿ	-6312
▁2,	-6313
▁75	-6314
▁ਵੰਡੇ	-6315
▁ਰਿਸ਼ਵਤ	-6316
▁ਸਫ਼ਲਤਾ	-6317
____	-6318
ਤਮਿਕ	-6319
▁ਪਵੇ	-6320
▁ਖ਼ੂਨ	-6321
▁ਵਪਾਰੀ	-6322
ਧੀਰ	-6323
▁ਪਰੋ	-6324
ੁਰੂਕਸ਼ੇਤਰ	-6325
ਟਨਾ	-6326
▁ਮੁਲਜ਼ਮ	-6327
▁ਹਮਲਿਆਂ	-6328
ity	-6329
ੋਟੀਆਂ	-6330
▁ਵਿਕਟ	-6331
▁ਅਰਜ਼ੀ	-6332
▁ਵੋਟਰਾਂ	-6333
▁੬	-6334
▁ਹਰਪਾਲ	-6335
▁ਸਮੁੰ	-6336
▁ਮੁਆਫੀ	-6337
eb	-6338
▁Ch	-6339
ਭਾਰਤੀ	-6340
▁ਬਾਹਰਲੇ	-6341
▁ਮੈਂਬਰੀ	-6342
▁ਹਥਿਆਰਾਂ	-6343
▁ਸ਼ਰਧਾਲੂਆਂ	-6344
0000	-6345
▁ਜਜ਼	-6346
▁ਕਾਰਾਂ	-6347
▁ਮੈਚਾਂ	-6348
▁ਰੁਕ	-6349
▁Sire	-6350
▁ਮੱਦਦ	-6351
▁ਵਰਤਾ	-6352
▁ਸੰਪਾਦਕ	-6353
▁ਪ੍ਰਾਪਤੀਆਂ	-6354
-5	-6355
▁ਆਸਰਾ	-6356
ਨਿਰਦੇਸ਼	-6357
਼ੇ	-6358
▁ਲੈਣੀ	-6359
▁ਨੈਤਿਕ	-6360
▁Gaur	-6361
▁ਸਿਆਸਤਦਾਨ	-6362
ਧਮ	-6363
ine	-6364
▁ਜੂਨਾਂ	-6365
▁5.	-6366
▁ਚੜ	-6367
eraag	-6368
▁ਨਿਪਟ	-6369
▁Sireeraag	-6370
ge	-6371
▁ਵਰਨਣ	-6372
▁ਕੁਰਸੀ	-6373
▁ਮਹਿੰਗ	-6374
ਝੂ	-6375
▁ਅਜ਼ਾਦੀ	-6376
▁ਵਰਕਸ਼ਾ	-6377
ਤਲਾਂ	-6378
▁ਬੋਝ	-6379
▁ਗੰਗਾ	-6380
ਤੂੰ	-6381
੍ਯਾ	-6382
ਿੰਟਨ	-6383
▁ਢੁਕ	-6384
▁ਲੱਛ	-6385
▁ਜੁਰਮਾਨ	-6386
▁ਕੋਸ਼ਿਸ਼ਾਂ	-6387
▁ਮੰਨੇ	-6388
urb	-6389
▁ਡਰੱਗ	-6390
▁ਝੱਲ	-6391
▁ਪ੍ਰੈ	-6392
▁ਬਾਂਸਲ	-6393
▁ਨੌਕਰੀਆਂ	-6394
ਲਮ	-6395
ਾਇਲ	-6396
▁ਲੀਗ	-6397
▁ਮਿਸ਼	-6398
▁ਦਿਹਾੜਾ	-6399
ਖਲਾ	-6400
ਿੰਦਾ	-6401
▁ਕਈਆਂ	-6402
▁ਸੇਵਨ	-6403
▁Gaurhee	-6404
ਚੁ	-6405
▁ਡੁੱਬ	-6406
▁ਖ਼ੁਸ਼	-6407
CO	-6408
▁ਬਿਆ	-6409
ਮੈਨੂੰ	-6410
▁ਪਬਲੀ	-6411
▁ਪੋਸਟਰ	-6412
▁ਤਾਪਮਾਨ	-6413
▁ਵਿਜੀਲੈਂਸ	-6414
ਜਾਨ	-6415
ਹਾਰਾ	-6416
ਡੂੰ	-6417
ੁਰੇ	-6418
▁ਕਲੋ	-6419
▁ਪਰੇ	-6420
▁ਕਾਪੀ	-6421
▁ਫ਼ੇਰ	-6422
▁ਬੀਮਾਰ	-6423
ਰੀਅਲ	-6424
▁ਅਪਨਾ	-6425
▁ਅੱਖਰ	-6426
▁ਸਾਬਿਤ	-6427
▁ਚੂਚੀਆਂ	-6428
▁ਟਰਾਂਸਪੋਰਟ	-6429
AR	-6430
ਂਜ	-6431
ਨਜ਼	-6432
▁ਲੁਕ	-6433
▁ਦਾਇਰ	-6434
▁ਮਹਲਾ	-6435
▁ਘੁੰਮਣ	-6436
▁ਸ਼ਾਇਰ	-6437
▁ਇਤਰਾਜ਼	-6438
ls	-6439
▁ਖੱਟ	-6440
▁ਸਬਜ਼ੀਆਂ	-6441
ਾਲਡ	-6442
▁ਜਸਬੀਰ	-6443
▁ਤਿਆਰੀਆਂ	-6444
ਵਾਸ਼	-6445
▁ਧੁੰ	-6446
▁ਇਸ਼ਤਿਹਾਰ	-6447
▁ਵਾਚ	-6448
▁ਕੌਂਸਲਰ	-6449
▁ਵਿਤਕ	-6450
▁j	-6451
ਾਂਗੇ	-6452
▁ਅਭਿਆਸ	-6453
▁ਯਾਦਗਾਰੀ	-6454
▁ਵਡਿਆਈ	-6455
▁ਮੁਕੱਦਮਾ	-6456
▁ਦਾਲ	-6457
▁ਫੇਰੀ	-6458
▁ਸੰਮਤ	-6459
▁ਜਾਮ	-6460
▁ਪੜ੍ਹੇ	-6461
▁ਅੰਦਾਜ਼	-6462
▁ਕਿਸਮਤ	-6463
▁ਪੂਰਬੀ	-6464
▁ਹਿੱਸਿਆਂ	-6465
▁ਚਲਾਏ	-6466
▁ਅਹੁਦਾ	-6467
▁ਐੱਚ	-6468
▁ਫੁੱਟਬਾਲ	-6469
ਚੱ	-6470
ran	-6471
ਲਾਦ	-6472
▁ਪੌਦੇ	-6473
▁ਇਸਤ੍ਰੀ	-6474
ਅਾ	-6475
▁ਸੰਤਾਂ	-6476
▁is	-6477
ਦੇਹੀ	-6478
▁ਕੋਠੀ	-6479
▁ਕੱਚੇ	-6480
▁ਤੁਲਨਾ	-6481
▁ਪੂੰਜੀ	-6482
▁ਫਿਲਹਾਲ	-6483
ਜਸਵਿੰਦਰ	-6484
ਕੀਨ	-6485
▁65	-6486
▁ਐਜੂ	-6487
▁ਆਖ਼ਰੀ	-6488
ਅਪ	-6489
ith	-6490
ਮਾਜਰਾ	-6491
▁ਰਵਿਦਾਸ	-6492
▁ਖੂਬਸੂਰਤ	-6493
▁ਹੋਣਗੀਆਂ	-6494
ਹੀਆ	-6495
▁ਅਡੋਲ	-6496
▁ਮਹਿਤਾ	-6497
▁ਆਉਂਦੀਆਂ	-6498
ਹਿਦ	-6499
▁ਹੰਸ	-6500
▁ਕੱਢੀ	-6501
▁ਇਜ਼	-6502
▁ਜ਼ੁ	-6503
▁ਆਸਾਨੀ	-6504
▁ਭਾਗਾਂ	-6505
▁ਅਖ਼ਬਾਰਾਂ	-6506
ਂਦੇ	-6507
▁ਚੁਕ	-6508
▁ਅਗਿਆਨ	-6509
▁ਹਰਬੰਸ	-6510
▁ਚਾਂਸਲਰ	-6511
ਭੈ	-6512
ਲੈ	-6513
▁ਅੰਦਾਜ਼ਾ	-6514
ਨਿਟੀ	-6515
▁ਬਾਇਓ	-6516
▁ਰੋਕਿਆ	-6517
▁ਮੁਸ਼ਕਿਲਾਂ	-6518
ਕਾਉਣ	-6519
ਤਿੰਨ	-6520
▁ਫ਼ਾ	-6521
▁ਫਤਿਹ	-6522
▁ਵਿਗਾ	-6523
▁ਸੁਣੀ	-6524
▁ਐਕ	-6525
▁ਸਵਾਮੀ	-6526
▁ਬਕ	-6527
▁ਅਨੇਕ	-6528
▁ਲੋਹੜੀ	-6529
▁ਕੈਦੀਆਂ	-6530
▁ਵਰਿੰਦਰ	-6531
ਪੇਟ	-6532
ਗਾਰਾ	-6533
▁ਪਾਰੀ	-6534
▁ਭੈਣਾਂ	-6535
੍ਰਿਸ਼ਟੀ	-6536
ਕਾਹ	-6537
ੇਰੀ	-6538
▁ਲਿੰਗ	-6539
▁ਹੋਣੇ	-6540
▁ਦੇਖਣਾ	-6541
ਮਰਨ	-6542
ਸ਼ਵਰ	-6543
▁ਖਿਡੌ	-6544
▁ਗਿਰਾ	-6545
▁ਗਲੋਬਲ	-6546
▁ਮੰਡੀਆਂ	-6547
▁ਸੰਪੂਰਨ	-6548
▁ਨਿਵਾਸੀਆਂ	-6549
▁ਜੁਰ	-6550
▁ਨੱਕ	-6551
▁ਰੋਜ	-6552
▁ਨਾਰੀ	-6553
▁ਭੁਲੇ	-6554
▁ਇਸਤੋਂ	-6555
▁ਨਿਕਲਣ	-6556
▁ਖਤਰਨਾਕ	-6557
45	-6558
▁ਛੱਤ	-6559
▁ਫਾਈ	-6560
ਵਿਚ	-6561
ਸਾਹਿਬ	-6562
▁ਅਦਾਕਾਰ	-6563
ਵਿਆ	-6564
▁ਸਿਤ	-6565
ਹਤਮੰਦ	-6566
▁ਬੈਠਣ	-6567
▁ਸਕੂਲੀ	-6568
▁ਸਦੀਵੀ	-6569
▁ਪਹੁੰਚਿਆ	-6570
▁ਵਿਦਿਆਰਥਣ	-6571
ਜਕ	-6572
ingh	-6573
▁ਸਹੇ	-6574
▁ਪ੍ਰੇਮੀ	-6575
ਤਲੀ	-6576
▁ਅਜੀ	-6577
▁ਬੋਲੇ	-6578
▁ਸੌਖਾ	-6579
▁ਉਪਲੱਬ	-6580
▁ਪਰਵਾਰ	-6581
▁ਕੁਰੂਕਸ਼ੇਤਰ	-6582
ਹੀਣ	-6583
ਮਨਜੀਤ	-6584
▁ਪਰੀ	-6585
▁ਮੁਨਾ	-6586
▁ਹੀਰਾ	-6587
▁ਜਮਹੂਰੀ	-6588
-6	-6589
▁ਉੱਡ	-6590
▁ਬਨ	-6591
▁ਬਹੁਤੀ	-6592
!!	-6593
ree	-6594
ਗਲੀ	-6595
ਲੇਟ	-6596
▁ਬੁੱਢਾ	-6597
ap	-6598
▁ਨਿਰੰ	-6599
▁ਜਾਏਗਾ	-6600
▁ਸ਼ਾਹੀ	-6601
▁ਮਿਲੀਅਨ	-6602
▁ਖਾਣੇ	-6603
▁ਚੱਲੀ	-6604
▁ਹਮਾਇਤ	-6605
▁ਕ੍ਰਾਂਤੀ	-6606
▁ਨਾਜਾਇਜ਼	-6607
ਿੱਲੀ	-6608
13	-6609
ਚੰਦ	-6610
▁ਲੈਕ	-6611
ੰਟੀਅਰ	-6612
▁ਛਾਪੇ	-6613
▁ਕਿਰਪਾਲ	-6614
▁ਪਾਇ	-6615
▁ਸ਼ਰਤ	-6616
▁ਕਰਾਇਆ	-6617
▁ਵਿਹੜੇ	-6618
▁ਸਿਪਾਹੀ	-6619
ਦੂਜੇ	-6620
▁ਵਿੱਦਿਆ	-6621
ਖਸ਼	-6622
ਸਲੀ	-6623
▁ਮੈਗ	-6624
▁ਕੱਟਣ	-6625
▁ਦਿਖਾਉਣ	-6626
ਸਿ਼	-6627
▁ਸਣੇ	-6628
ਮਾਬਾਦ	-6629
▁ਰਾਜਨੀਤਿਕ	-6630
ਇੰਦਰ	-6631
▁ਗ਼ਜ਼ਲ	-6632
▁ਸਮਝੌਤਾ	-6633
▁ਸ਼ੋਸ਼ਣ	-6634
ੂਲਰ	-6635
ਰੀਅਰ	-6636
ਲੀਅਨ	-6637
▁ਪੰਛੀ	-6638
▁ਬਾਲਾ	-6639
▁ਬਿੰਦ	-6640
▁ਕਾਰਗੁਜ਼ਾਰੀ	-6641
ਮੰ	-6642
▁..	-6643
▁ਉਹਦੀ	-6644
▁ਧਮਕੀ	-6645
▁ਇਲਾਹੀ	-6646
▁ਅਕਾਲਪੁਰਖ	-6647
▁ਕੋਟਕਪੂਰਾ	-6648
ਗੁਣ	-6649
▁ਕੈਲਗਰੀ	-6650
▁ਸਮੀਖਿਆ	-6651
▁ਪ੍ਰਬੰਧਨ	-6652
ੋਰਸ	-6653
▁or	-6654
▁ਝੰਡਾ	-6655
▁ਇਸ਼ਾਰਾ	-6656
▁ਵਰ੍ਹਿਆਂ	-6657
ਵਨੀ	-6658
ਸਮਾ	-6659
▁ਮੁਸ਼ਕਲਾਂ	-6660
▁48	-6661
▁ਰਜ਼ਾ	-6662
▁ਸੈੱਟ	-6663
▁ਨਾਨਕਸ਼ਾਹੀ	-6664
▁ਪਰਦੇ	-6665
▁ਕੈਨੇਡੀਅਨ	-6666
▁ਪ੍ਰਸ਼ਾਸ਼ਨ	-6667
▁ਮੈਨੇਜਮੈਂਟ	-6668
ਇਸਤ	-6669
▁ਕਹ	-6670
▁ਰੱਖਦਿਆਂ	-6671
▁ਰਹਿੰਦੀਆਂ	-6672
ਚਾਈ	-6673
▁ਮਨਾਂ	-6674
▁ਚਿੱਟੇ	-6675
▁ਲਿਖਤੀ	-6676
▁ਵੰਡਿਆ	-6677
▁ਦਰਵਾਜ਼	-6678
▁ਫੁੱਲਾਂ	-6679
▁ਹਮਲਾਵਰ	-6680
▁ਬੇਸ	-6681
▁ਦੇਵੇਗੀ	-6682
▁ਰਵਾਇਤੀ	-6683
ਜ਼ੀਲ	-6684
▁ਉੱਤਮ	-6685
▁ਕਿਸਾਨੀ	-6686
▁ਜ਼ਮਾਨਤ	-6687
▁ਔਸਤ	-6688
▁ਪੁਆ	-6689
▁ਟੀਚਾ	-6690
▁ਡੋਨਾਲਡ	-6691
▁ਵਸਾ	-6692
▁ਮਿਆਦ	-6693
ਲਸ	-6694
▁ਮੁਬਾਰ	-6695
▁ਇਨਸਾਨੀ	-6696
ਧੋ	-6697
▁ਯਹੂ	-6698
▁ਲਹਿ	-6699
ਥਾਤ	-6700
ਸਤਰ	-6701
ਵਹਾਰ	-6702
▁ਮਨਜਿੰਦਰ	-6703
.0	-6704
ਡਜ਼	-6705
▁ਗੋਰ	-6706
ਜ਼ਿਲਕਾ	-6707
▁ਤਲਾਸ਼	-6708
▁ਪਵੇਗੀ	-6709
▁Posted	-6710
22	-6711
▁ਭੁਲਾ	-6712
▁ਬਾਦਲਾਂ	-6713
ਕਾਵਟ	-6714
▁ਵਜਾ	-6715
▁ਟਾਈਮਜ਼	-6716
▁ਚੈਂਪੀਅਨਸ਼ਿਪ	-6717
ਟਿੱਪ	-6718
▁ਕਿਹੜੀ	-6719
ਰਾਂਸੀਸੀ	-6720
▁ਨੋਟਬੰਦੀ	-6721
▁ਅਨਿਲ	-6722
▁ਸੰਜੀਵ	-6723
▁ਕਮੇਟੀਆਂ	-6724
▁ਚੌਂਕ	-6725
▁ਸ਼ੱਕੀ	-6726
▁ਵਿੱ	-6727
▁ਪਾਵਨ	-6728
▁ਯੂਰਪੀ	-6729
ਰਾਤ	-6730
▁ਸੇਂਟ	-6731
ਖਾਰ	-6732
▁ਕੁਨ	-6733
▁ਮਤੇ	-6734
▁ਲਵੇ	-6735
ੰਦਿਆਂ	-6736
▁ਵਾਪਰੀ	-6737
la	-6738
▁ਮੀਲ	-6739
▁ਅਗਵਾ	-6740
▁ਤੁਰਨ	-6741
▁The	-6742
▁ਮੁਢ	-6743
▁ਪੈਣਾ	-6744
▁ਬੂਟਾ	-6745
▁ਹੜ੍ਹ	-6746
▁ਕਦਰਾਂ	-6747
▁ਬ੍ਰਾਂ	-6748
▁ਪੀੜਤਾਂ	-6749
▁ਕਲਾਕਾਰਾਂ	-6750
▁X	-6751
▁300	-6752
▁ਸੱਚਾਈ	-6753
▁ਲਿਖੀਆਂ	-6754
▁ਰਹੋ	-6755
▁ਜ਼ਾਹਰ	-6756
▁ਅਨੁਮਾਨ	-6757
▁ਕਿਨਾਰੇ	-6758
▁ਅਕਾਲੀਆਂ	-6759
ਚਾਂ	-6760
▁ਚੂਤ	-6761
▁ਕ੍ਰੋ	-6762
▁ਜੋਸ਼	-6763
▁ਹੱਥੋਂ	-6764
ਕਾਟ	-6765
ਦਸਤ	-6766
ਬ੍ਰ	-6767
ਸੰਸ	-6768
▁ਕਠ	-6769
▁ਟਾਈਮ	-6770
▁ਚਿੰਨ੍ਹ	-6771
▁ਸੁਆਲ	-6772
▁ਰਮੇਸ਼	-6773
iz	-6774
ph	-6775
ਿਆਤ	-6776
▁47	-6777
▁ਬਿਠਾ	-6778
▁ਮੱਖਣ	-6779
▁ਲਾਂਚ	-6780
▁ਆਊਟ	-6781
▁ਜੋੜਿਆ	-6782
▁ਸਹਿਮਤ	-6783
▁ਖੁੱਲ੍ਹੇ	-6784
▁ਬ੍ਰਿਟੇਨ	-6785
▁ਵਿਗਿਆਨੀ	-6786
▁ਵਰਕਸ਼ਾਪ	-6787
▁ਕਰਾਸ	-6788
▁ਕਨੇਡਾ	-6789
▁ਕਰਮਜੀਤ	-6790
▁ਲਹੂ	-6791
▁ਖੱਬੇ	-6792
ਣਿ	-6793
▁ਮੋਹਾਲੀ	-6794
ਸੈਨ	-6795
▁ਗਦਾ	-6796
▁ਗਰਾ	-6797
▁ਦਰਜਨ	-6798
▁ਇਮਰਾਨ	-6799
▁ਉਚਾਰਨ	-6800
▁ਗੂੰ	-6801
▁ਪਿਉ	-6802
▁ਪੈਰਿਸ	-6803
▁ਲਿਖਦੇ	-6804
▁ਰਿਕ	-6805
▁ਬਰਸਾ	-6806
▁ਵੈਸੇ	-6807
▁ਮੋਹਰੀ	-6808
▁ਉਪਰਾਲਾ	-6809
▁ਕੁੱਟਮਾਰ	-6810
ਮੋਲ	-6811
▁ਖੇਡੇ	-6812
▁ਖ਼ੁਸ਼ੀ	-6813
▁ਸੱਚੀ	-6814
▁ਤਰਸੇਮ	-6815
▁ਸੋਹਣੀ	-6816
▁ਮਨਜ਼ੂਰੀ	-6817
8)	-6818
ਸਤਿ	-6819
lish	-6820
▁ਬਾਲਾਂ	-6821
▁ਜਾਇਜ਼ਾ	-6822
ਪਾਨ	-6823
ਵਿੰਗ	-6824
▁ਯਤਨਾਂ	-6825
ਹਰਜਿੰਦਰ	-6826
ਅੰਦਾ	-6827
▁ਮੇਜ਼	-6828
ਰਟ	-6829
▁ਚੀਫ	-6830
ਜਿਵੇਂ	-6831
▁ਝਟਕਾ	-6832
▁ਬਿਨੁ	-6833
▁ਵਸਦੇ	-6834
▁ਪੀਡੀਆ	-6835
▁ਮਲਕੀਤ	-6836
▁ਨਿਖੇਧੀ	-6837
▁ਸਿਮਰਨਜੀਤ	-6838
ਚੈਨ	-6839
ਵਲਾ	-6840
ਭਾਗੀ	-6841
▁ਮਜ਼ਾ	-6842
▁ਪਲਾਸਟਿਕ	-6843
Sting	-6844
▁ਵਿਸ਼ਲੇਸ਼ਣ	-6845
2]	-6846
▁ਬਿਸ	-6847
▁ਸਰਜਨ	-6848
▁ਸਾਰਥ	-6849
ਫ਼ਦ	-6850
ਲ੍ਹ	-6851
ਰੇਗਾ	-6852
ਾਲਵੀ	-6853
▁ਖੁੰ	-6854
▁ਧੜੇ	-6855
▁ਭੇਜੀ	-6856
▁ਸੁਹਾ	-6857
▁ਗਵਰਨਰ	-6858
▁ਦੂਸਰੀ	-6859
▁ਰਣਨੀਤੀ	-6860
▁ਤਰਜੀ	-6861
▁ਬਿੱਟੂ	-6862
▁ਹੱਥੀਂ	-6863
▁੯	-6864
▁ਪਖ	-6865
▁ਵੱਢ	-6866
▁ਗੁਲਾਮ	-6867
▁ਟਰੈਕਟਰ	-6868
COM	-6869
ong	-6870
ਤਰੀਆਂ	-6871
▁ਇਹਨਾ	-6872
▁ਚਲਾਇਆ	-6873
▁ਅਧਾਰਿਤ	-6874
▁ਸਮਾਪਤੀ	-6875
ਫ਼ਲ	-6876
▁ਬਰੇ	-6877
▁ਅਸਤੀਫਾ	-6878
▁ਇਸਲਾਮਾਬਾਦ	-6879
▁ਅਬ	-6880
ਮੇਰਾ	-6881
▁ਲਿਖਦਾ	-6882
14	-6883
▁ਭੌ	-6884
▁ਚੀਫ਼	-6885
▁ਜਮੀਨ	-6886
▁ਸਰਕਲ	-6887
▁ਸੱਦੇ	-6888
▁ਜਿਸਦੀ	-6889
▁ਇਨਕਲਾਬ	-6890
▁ਜੂਝ	-6891
▁ਭੱਠ	-6892
ਕਲੈਂਡ	-6893
▁ਮਾਹਰ	-6894
▁ਬਰਦਾਸ਼ਤ	-6895
▁ਬੋਨ	-6896
▁ਗਰੰਥ	-6897
▁ਚਾਲਕ	-6898
▁ਰੱਖਦੀ	-6899
90	-6900
ang	-6901
ear	-6902
▁ਪੰਜਾ	-6903
▁ਰਾਜੂ	-6904
▁ਲਗਦੇ	-6905
▁ਖ਼ਤਰਾ	-6906
▁ਬੀਬੀਆਂ	-6907
▁ਚਿਤਾਵਨੀ	-6908
▁ਪ੍ਰੋਗਰਾ	-6909
ਟਲਰ	-6910
▁ਗਾਲ	-6911
▁ਉੱਚੇ	-6912
▁ਸਲਮਾਨ	-6913
ਟਿੱਪਣੀਆਂ	-6914
1,	-6915
▁&	-6916
▁193	-6917
▁ਖੂਹ	-6918
▁ਬਾਗ਼	-6919
▁ਨਵੀਨ	-6920
▁ਗੁਰਮੇਲ	-6921
▁ਸਿਨੇਮਾ	-6922
▁ਜਵਾਨਾਂ	-6923
▁ਜਿਹੀਆਂ	-6924
▁ਪ੍ਰਤੀਨਿਧ	-6925
-7	-6926
▁ਦੇਰੀ	-6927
▁ਬੁੱਤ	-6928
▁ਬੀਮਾਰੀ	-6929
▁ਮਹਿਲਾਵਾਂ	-6930
▁ਅਸਫਲ	-6931
▁ਗੂਗਲ	-6932
▁ਦਿਆਲ	-6933
▁ਜਵਾਨੀ	-6934
▁ਰਿਹਾਈ	-6935
▁ਕੁਰਬਾਨੀ	-6936
ਸਤਕ	-6937
ਮੁੱ	-6938
ਮੀਰੀ	-6939
▁ਪ੍ਰਸੰਗ	-6940
ਪੁੱ	-6941
▁ਸੁਆਦ	-6942
▁42	-6943
▁2000	-6944
▁ਅਸਾਂ	-6945
▁ਹੈਲਥ	-6946
▁ਪੁੱਛੇ	-6947
▁ਫਸਲਾਂ	-6948
▁ਅਥਾਰਟੀ	-6949
▁ਮੁਆਫ਼ੀ	-6950
▁ਵਚਨਬੱਧ	-6951
ਲਾਇ	-6952
▁ਕੰਵਲ	-6953
▁ਸ਼ਮਸ਼	-6954
ਿਟੀ	-6955
▁ਇੰਨੇ	-6956
▁ਘੇਰੇ	-6957
੍ਰੀਨ	-6958
▁ਫਸੇ	-6959
▁ਵਫ਼ਦ	-6960
▁ਹੈਰੋਇਨ	-6961
ਮੀਗ	-6962
▁ਮਹੇ	-6963
▁ਕਾਰਕ	-6964
ਕਾਇ	-6965
ਵਾਣ	-6966
▁ਨਵੀ	-6967
▁2009	-6968
▁ਚੁਦਾਈ	-6969
ਕਰਾਂ	-6970
▁ਇਕੱਤਰਤਾ	-6971
▁ਨਿਸ਼ਚਿਤ	-6972
▁ਐਜੂਕੇਸ਼ਨ	-6973
▁ਸਰਗਰਮੀਆਂ	-6974
USA	-6975
▁ਐਸੇ	-6976
▁ਗੱਠ	-6977
▁ਨਿਸ	-6978
ਦੁਆਰਾ	-6979
▁ਚੋਟੀ	-6980
ਵਾਨਾਂ	-6981
▁ਖਾਤਰ	-6982
▁ਮਿਟਾ	-6983
▁ਸੁਰੇਸ਼	-6984
ਅੱਤ	-6985
ਵਰੇਜ	-6986
▁ਦੱਸਦਾ	-6987
▁ਸੈਕਟਰੀ	-6988
▁ਹਜ਼ੂਰੀ	-6989
▁ਫ਼ਾਇ	-6990
ada	-6991
▁ਏਂ	-6992
▁ਨਿਜੀ	-6993
ੌਲਤ	-6994
▁ਭਿੱ	-6995
▁ਧਾਰਨਾ	-6996
▁ਪ੍ਰਾਣੀ	-6997
MAIL	-6998
unjabi	-6999
▁ਉਪਭੋਗ	-7000
▁ਸਰੋਵਰ	-7001
uc	-7002
ਜ਼ੂ	-7003
▁ਤਮਾ	-7004
▁ਲਾਗ	-7005
▁ਨਸ਼ੀ	-7006
▁ਬਤੀਤ	-7007
▁ਕਿੱਲੋ	-7008
ਥਾਮ	-7009
▁ਮੁਨ	-7010
▁ਛੁਟਕਾਰਾ	-7011
ਅੱਪ	-7012
ਿੱਠ	-7013
▁ਮੌਤਾਂ	-7014
▁ਵੀਚਾਰ	-7015
hib	-7016
▁ਪਰਦਾ	-7017
ੌਨ	-7018
▁\	-7019
▁ਟਰਾ	-7020
▁ਨਾਟ	-7021
▁ਹੈਡ	-7022
▁ਦਿਤੇ	-7023
▁ਮੱਕੜ	-7024
▁ਠੇਕੇਦਾਰ	-7025
▁ਸੁੰਦਰਤਾ	-7026
▁ਰਿਪੋਰਟਾਂ	-7027
ਥੋ	-7028
ਲਾਤ	-7029
▁43	-7030
ਮੁੱਚ	-7031
▁ਤੋਹ	-7032
▁ਉਹਨੇ	-7033
▁ਕਮਾਂ	-7034
▁ਭੱਟੀ	-7035
MAILUSA	-7036
▁PUNJABMAILUSA	-7037
6)	-7038
ਲਾਹ	-7039
ਆਰਡੀ	-7040
▁ਕੋਡ	-7041
▁ਅਨਸਰ	-7042
▁ਪਿਆਰਿਆਂ	-7043
▁ਰਿਹਾਇਸ਼	-7044
ਔਰਤ	-7045
▁ਛੁਡਾ	-7046
▁ਧੂਮ	-7047
▁ਅਰੁਣ	-7048
▁ਖਰਚੇ	-7049
▁ਸੀਰੀਜ਼	-7050
▁ਅਣਪਛਾਤੇ	-7051
ਲੀਨ	-7052
▁con	-7053
▁ਸਦਨ	-7054
▁ਬੰਗਾ	-7055
▁ਅੱਗੋਂ	-7056
nl	-7057
▁ਐਗਰੀ	-7058
▁ਬਲੱਡ	-7059
▁ਸੋਝੀ	-7060
▁ਹਸਤੀ	-7061
▁ਆਉਣਗੇ	-7062
▁ਜਿਸਨੇ	-7063
▁ਕਾਰਜਕਾਲ	-7064
▁ਸਮੁੰਦਰੀ	-7065
▁ਕੱਟੜ	-7066
▁ਸਵਰਨ	-7067
▁ਦਮਦਮੀ	-7068
ਪਰਮਾਤਮਾ	-7069
ਕਰੇ	-7070
▁ਜਿਊ	-7071
▁ਫ਼ਾਰ	-7072
▁ਖਾਂਦੇ	-7073
▁ਉਪਲੱਬਧ	-7074
▁ਹਿੱਤਾਂ	-7075
ਥਰਾ	-7076
▁ਬੀਰ	-7077
ਸਿਆਣੇ	-7078
▁ਓਲੰਪਿਕ	-7079
▁ਮਸ਼ੀਨਾਂ	-7080
ਣਿਆ	-7081
▁ਆਰੋ	-7082
▁ਫੈਕਟਰੀ	-7083
▁ਬੁਲਾਇਆ	-7084
▁ਕੁਰਬਾਨੀਆਂ	-7085
end	-7086
▁ਸਰੋਤਿਆਂ	-7087
▁150	-7088
▁ਅਰਥਾਤ	-7089
▁ਜਾਨਵਰ	-7090
ਪਾਕਿਸਤਾਨ	-7091
▁ਪੰਚਾਇਤਾਂ	-7092
▁ਨੂ	-7093
▁Gur	-7094
▁2008	-7095
▁ਜੋਗੀ	-7096
▁ਨਾਤੇ	-7097
▁ਸਮਝਣਾ	-7098
▁ਗੁਰਸਿੱਖ	-7099
▁ਮਾਨਸਿਕਤਾ	-7100
ੋਤਾ	-7101
▁ਆਮਦ	-7102
▁ਜੀਤ	-7103
▁ਪਟੇਲ	-7104
▁ਪਹਾੜੀ	-7105
▁ਕੁਛ	-7106
▁Next	-7107
▁ਪੰਜਵੇਂ	-7108
▁ਅੰਗਰੇਜ਼	-7109
ਡਨੀ	-7110
ਵਿੰਡ	-7111
▁ਖੁਆ	-7112
nglish	-7113
ਾਡ	-7114
▁ਬਾਹਰੋਂ	-7115
ਪਤਨੀ	-7116
▁ਸੀਬੀਆਈ	-7117
▁(3)	-7118
▁ਨੱਚ	-7119
▁ਫ਼ੁਰ	-7120
▁ਗੁੱਸਾ	-7121
▁ਭੰਡਾਰ	-7122
ਪਲੇ	-7123
pl	-7124
ਤਿਆ	-7125
ੈਂਕ	-7126
ੋਨੀ	-7127
▁ਵੰਨ	-7128
▁ਵੈਸਟ	-7129
▁ਸ਼ਿੰਗ	-7130
▁ਸ਼ਰਤਾਂ	-7131
▁ਪ੍ਰਬੰਧਾਂ	-7132
ok	-7133
ਸਵ	-7134
▁ਲਗੇ	-7135
੍ਮਾਨੰਦ	-7136
▁ਗਹਿਰਾ	-7137
▁ਛੱ	-7138
▁ਬੇਰ	-7139
▁ਗੋਇਲ	-7140
▁ਏਅਰਪੋਰਟ	-7141
▁ਫਰੀਦਕੋਟ	-7142
ਊਂਟ	-7143
▁ਇੰਜਣ	-7144
▁ਨੁਮਾ	-7145
▁ਪ੍ਰੋਡ	-7146
▁ਵਾਹਨਾਂ	-7147
ust	-7148
▁ਉਂਜ	-7149
▁ਲਾਸ਼ਾਂ	-7150
▁ਵਿੱਦਿਅਕ	-7151
ਿਓਂ	-7152
▁ਆਕਰ	-7153
▁ਕੱਦ	-7154
▁ਲਗਦੀ	-7155
▁ਫਾਇਦੇ	-7156
▁ਜਿੰਮੇਵਾਰ	-7157
▁r	-7158
▁ਖਲੋ	-7159
▁2007	-7160
▁ਪੁੱਜਣ	-7161
ਖੇਡ	-7162
▁39	-7163
▁ਆਦਤ	-7164
ੇਰਿਆਂ	-7165
▁ਘਟਾਉਣ	-7166
▁ਸੁਪਨਾ	-7167
▁ਗੁਆਂਢੀ	-7168
▁ਗੁਰੂਆਂ	-7169
▁ਪੇਸ਼ਕਾਰੀ	-7170
ਨਲ	-7171
ਸਮੇਂ	-7172
ਿਆਪਕ	-7173
ਟੇਸ਼ਨ	-7174
▁ਲੀਨ	-7175
▁ਵਿਜੈ	-7176
▁ਮਨੋਰਥ	-7177
▁ਦਿਵਾਇਆ	-7178
▁ਪੜ੍ਹਿਆ	-7179
▁ਬਰਾਬਰੀ	-7180
▁ਪਟਨਾ	-7181
▁ਅਦਾਰੇ	-7182
▁ਰਕ	-7183
▁ਵਾਲੀਆ	-7184
▁ਲੌ	-7185
ਬਾਜੀ	-7186
▁ਤਿਨ	-7187
▁ਬਿੰ	-7188
ਵਰਤੋਂ	-7189
▁ਸਾਜਿਸ਼	-7190
▁ਬਜ਼ੁਰਗਾਂ	-7191
ਏਟ	-7192
ਕਾਬ	-7193
▁ਟੇਕ	-7194
▁ਫਰਾਰ	-7195
▁ਬਚਾਓ	-7196
ਸਰਕਾਰੀ	-7197
▁ਜਿੰਨਾਂ	-7198
▁ਦਰਵਾਜ਼ੇ	-7199
▁ਪ੍ਰੋਗਰਾਮਾਂ	-7200
ਮਿਨ	-7201
▁55	-7202
▁ਫੜੇ	-7203
▁ਨਾਂਹ	-7204
▁ਤਜਰਬੇ	-7205
▁ਸਿੱਟੇ	-7206
▁ਮੁੰਡਿਆਂ	-7207
▁ਅਗਲਾ	-7208
▁ਬਾਬੂ	-7209
▁ਵੇਖਦੇ	-7210
▁ਸਮਾਜਕ	-7211
ਲਾਈਟ	-7212
ਲੇਰੀ	-7213
▁ਪੂਰਬ	-7214
▁ਰਿਹਾਅ	-7215
▁ਸਲਾਨਾ	-7216
▁ਉਦਾਸੀ	-7217
▁ਰੋਕਥਾਮ	-7218
ect	-7219
ਹਾਈ	-7220
▁52	-7221
▁ਅਲੋ	-7222
▁ਮੌਲ	-7223
▁ਸਾੜ	-7224
▁ਚਿੱਤ	-7225
▁ਲਿਖਤਾਂ	-7226
’’	-7227
▁ਜੇਬ	-7228
▁ਟੀਕਾ	-7229
ਾਰਜ	-7230
▁ਢੇਰ	-7231
▁ਸੱਪ	-7232
▁ਮਮਤਾ	-7233
▁ਸਿਆਣੇ	-7234
▁ਹਮਦਰਦੀ	-7235
▁ਕਾਰਵਾਈਆਂ	-7236
und	-7237
ਨਾਨ	-7238
ਤਾਰਨ	-7239
ਲੰਕਾ	-7240
▁ਖਰਚਾ	-7241
▁ਸੰਤੁਲ	-7242
ਛੁ	-7243
▁ਕਚ	-7244
▁ਫੁਲ	-7245
▁ਧਾਰੀ	-7246
ਜ਼ਿਲ੍ਹਾ	-7247
ਗੁਰਪ੍ਰੀਤ	-7248
▁ਵਿਰੋਧੀਆਂ	-7249
ਟਿਆ	-7250
ਡਿਆ	-7251
ਨੇਟ	-7252
▁ਤਰਸ	-7253
▁ਆਸ਼ਰਮ	-7254
▁ਵਿਚਲੀ	-7255
2)	-7256
▁ਧੁਰ	-7257
▁ਤਲਾਕ	-7258
▁ਮਜਬੂ	-7259
▁ਮੁਸੀ	-7260
▁ਕੌਾਸਲ	-7261
▁ਧਮਾਕਾ	-7262
▁ਹੁੰਗਾਰਾ	-7263
▁ਗੁਰਵਿੰਦਰ	-7264
ਗੜ੍ਹੀ	-7265
▁ਖੁਸ਼ੀਆਂ	-7266
ੰਗੀ	-7267
▁ਹੌਲ	-7268
▁ਦਰਜ਼	-7269
ਸੀਅਤਾਂ	-7270
▁ਲੈਕਚਰ	-7271
▁ਹਸਪਤਾਲਾਂ	-7272
ail	-7273
ਲਜ਼	-7274
▁ਐਮਰ	-7275
▁ਪਾਉਣਾ	-7276
▁ਬਰਬਾਦ	-7277
▁ਨੰਗਲ	-7278
▁ਮਹਿਮਾਨਾਂ	-7279
▁ਮੁੱਖਮੰਤਰੀ	-7280
▁ਨੂੰਹ	-7281
▁ਫਰਜ਼	-7282
▁ਪ੍ਰਸ਼ਨ	-7283
▁ਡਿਜ਼ਾਈਨ	-7284
ST	-7285
ਬਹੁ	-7286
ਵੀਨਰ	-7287
▁ਉਰਫ	-7288
▁ਭੁਲ	-7289
ਸ਼ਾਵਰ	-7290
▁thatta	-7291
▁ਗਿ੍ਫ਼ਤਾਰ	-7292
▁ਦਿਵਾ	-7293
▁ਰੂਸੀ	-7294
▁ਤੀਬਰ	-7295
▁ਦੁੱਗਲ	-7296
▁ਵੰਡਣ	-7297
▁ਬ੍ਰਾਹਮਣੀ	-7298
ਨਾਨਕ	-7299
ਮਿੰਗ	-7300
▁ਆਖਰ	-7301
▁ਸੰਦ	-7302
▁ਸਧਾਰਨ	-7303
▁ਬਿਨ੍ਹਾਂ	-7304
▁ਕਾਰਪੋਰੇਸ਼ਨ	-7305
▁ਦਰੱਖ	-7306
▁ਬਜ਼ਾਰ	-7307
▁ਉਦਯੋਗਿਕ	-7308
▁ਨਿਰਧਾਰਤ	-7309
ਯੁ	-7310
ਨੋਂ	-7311
▁ਬੁੱਕ	-7312
▁ਵਰਗਾਂ	-7313
▁ਤਾਲਮੇਲ	-7314
▁ਕਾਰੋਬਾਰੀ	-7315
▁ਮੀਟਿੰਗਾਂ	-7316
▁ਟਾਂ	-7317
▁ਕੈਦੀ	-7318
ਐਕਸ	-7319
ਮਿਸ	-7320
੍ਰਮਣੀ	-7321
ੋਰਾਂਟੋ	-7322
▁ਕਿਰਾਏ	-7323
▁ਭੂਚਾਲ	-7324
ਪਸ	-7325
▁ਅਣਗ	-7326
▁ਲੰਮਾ	-7327
▁ਆਵੇਗਾ	-7328
▁ਗਿਰਾਵਟ	-7329
▁ਪਬਲੀਕੇਸ਼ਨ	-7330
ere	-7331
ਬੂਲ	-7332
▁ਆਪਿ	-7333
▁ਐੱਫ	-7334
▁ਨਾਮੀ	-7335
▁ਸਾਊਥ	-7336
▁ਦਸਵੀਂ	-7337
▁ਮਿਲਣਾ	-7338
▁ਅਹੁਦੇਦਾਰਾਂ	-7339
▁ਸੱਸ	-7340
▁ਚਮਕੌਰ	-7341
▁ਫਿਰਦੇ	-7342
ਦੇਹ	-7343
ਵਿੱਚ	-7344
▁ਢਾਡੀ	-7345
▁ਸਥਿਰ	-7346
▁ਨਾਮਵਰ	-7347
▁ਰਾਮਪੁਰਾ	-7348
▁ਸ਼ੂਟਿੰਗ	-7349
ਕਰਤਾ	-7350
▁ਥੋੜਾ	-7351
▁ਪੁੱਛਗਿੱਛ	-7352
▁ਅੜ	-7353
▁ਟੱ	-7354
▁ਏਨੀ	-7355
▁ਆਇਆਂ	-7356
▁ਮੁਲਤ	-7357
▁ਰਿਸ਼ਤੇਦਾਰਾਂ	-7358
ਿਅਾ	-7359
ਸੇਵਾ	-7360
▁ਰੱਜ	-7361
▁ਗੁਜ਼	-7362
ਟਾਂਦਰਾ	-7363
ਦਵਿੰਦਰ	-7364
ਐੱਨ	-7365
▁46	-7366
ਕੇਰੀਆਂ	-7367
▁ਚੱਲਦਾ	-7368
▁ਮਿੰਨੀ	-7369
▁ਵੀਰਾਂ	-7370
▁ਸੰਸਕਾਰ	-7371
▁ਮੁਕੱਦਮੇ	-7372
ਰੈ	-7373
▁ਪੰਨੇ	-7374
▁ਸ਼ੁਕ	-7375
▁ਅਗਿਆਤ	-7376
▁ਖੇਤਰੀ	-7377
▁ਦਿਹਾਤੀ	-7378
▁ਜਿੰਨ੍ਹਾਂ	-7379
▁ਸ਼ੁਰੂਆਤੀ	-7380
ਭਾਲ	-7381
▁ਅੱਧੇ	-7382
▁ਬਲਾਂ	-7383
▁ਮਿਆਰੀ	-7384
▁ਮਹਿੰਗਾਈ	-7385
▁ਕਿਥੇ	-7386
▁ਚੈਕਿੰਗ	-7387
ੈਸਟਰ	-7388
▁ਢਿੱਡ	-7389
▁ਪੋਰਟ	-7390
▁ਵੱਖੋ	-7391
▁ਰਾਕੇਸ਼	-7392
▁ਟ੍ਰੈਫਿਕ	-7393
ਉਂਣ	-7394
▁ਹਨੇਰੇ	-7395
▁ਖੋਲ੍ਹਣ	-7396
ਦੀਆ	-7397
ਵੱਛ	-7398
ਨਾਮੀ	-7399
▁ਦਖਲ	-7400
▁ਬਲੈਕ	-7401
▁ਚੱਲਦੇ	-7402
▁ਅਗਰਵਾਲ	-7403
▁ਅੰਗ੍ਰੇ	-7404
ਛਾੜ	-7405
▁ਅੱਧਾ	-7406
▁ਆਖਿਰ	-7407
ਕਿਉਂਕਿ	-7408
▁ਗੜ੍ਹਸ਼ੰਕਰ	-7409
ਵਰਡ	-7410
▁72	-7411
irls	-7412
▁ਕਰਜ਼	-7413
▁ਡਾਕਟ	-7414
▁ਸਬੰਧਾਂ	-7415
ਿੰਗਜ਼	-7416
▁ਐਪਲੀ	-7417
▁ਜੋਸ਼ੀ	-7418
▁ਵਿਭਿੰਨ	-7419
▁ਹਲਕਿਆਂ	-7420
▁ਫਰੀ	-7421
ਚੱਟਦੇ	-7422
▁ਬਸਤੀ	-7423
▁ਡੂੰਘੇ	-7424
▁ਸੋਚਦੇ	-7425
▁ਅਫਸਰਾਂ	-7426
▁-"	-7427
ਵਰਤਨ	-7428
ਵੈਂਟ	-7429
▁ਕਰਣਾ	-7430
▁ਬੈਨਰ	-7431
ਜੈਂਸੀ	-7432
▁ਪ੍ਰੇਸ਼ਾਨੀ	-7433
▁ਪ੍ਰਵਾਰ	-7434
88	-7435
nel	-7436
ਦਰਭ	-7437
▁ਐਸੀ	-7438
▁ਮੁਜ਼ਾ	-7439
▁ਪਹੁੰਚਾਇਆ	-7440
ਹਿਕ	-7441
ਦਾਬਾਦ	-7442
▁ਵਿਰਕ	-7443
▁ਕਲਪਨਾ	-7444
ਗੁਰਬਾਣੀ	-7445
▁ਅਫਰੀਕਾ	-7446
▁ਮਿਲੀਆਂ	-7447
▁ਵਿਵਹਾਰ	-7448
▁$	-7449
▁੭	-7450
▁ਰਮ	-7451
▁ਬਾਤ	-7452
▁ਜਿੰਨੇ	-7453
▁ਪੁੱਛਣ	-7454
▁ਜੂਨੀਅਰ	-7455
ੂਣ	-7456
▁ਡਾਂ	-7457
▁ਫੀਚਰ	-7458
▁ਜ਼ਹਿਰੀ	-7459
ੜੂ	-7460
▁ਗਿਲ	-7461
▁ਪੜ੍ਹਦੇ	-7462
▁ਇੰਟਰਵਿਊ	-7463
▁ਇਮਾਨਦਾਰੀ	-7464
▁ਸਿਧਾਂਤਾਂ	-7465
▁ਆਖੀ	-7466
▁ਪੁੰ	-7467
ਨੋਦ	-7468
▁ਪਾਊ	-7469
▁ਸਦਰ	-7470
▁ਉੱਦਮ	-7471
▁ਕੰਢੇ	-7472
▁ਜੁੜੀ	-7473
▁ਸੋਨੀਆ	-7474
▁ਮਹਾਤਮਾ	-7475
▁ਜ਼ੋਰਦਾਰ	-7476
ht	-7477
▁ਅਠ	-7478
▁ਪੂਜ	-7479
▁ਉਹਦਾ	-7480
▁ਕਰਵਾਈਆਂ	-7481
ਧਰਾ	-7482
▁ਖ਼ਾਲ	-7483
▁ਟੋਰਾਂਟੋ	-7484
ai	-7485
ਪਾਹ	-7486
▁ਗਵਾਹੀ	-7487
▁ਨਾਮਜ਼ਦ	-7488
▁ਥਾਣੇਦਾਰ	-7489
▁ਸੰਗਠਨਾਂ	-7490
ੇਦ	-7491
-10	-7492
ਡਮੀ	-7493
ember	-7494
▁ਕਰਿਆ	-7495
▁ਕਸਬਾ	-7496
▁ਸੰਜੇ	-7497
▁ਦਹਾਕਾ	-7498
▁ਪਰਮਾਣ	-7499
▁ਵੈਲਫੇਅਰ	-7500
▁ਨਵਾਂਸ਼ਹਿਰ	-7501
▁ਇਧਰ	-7502
▁ਨਰਕ	-7503
▁ਚੌਕੀ	-7504
▁ਰਸਮੀ	-7505
▁ਰੈਸਟ	-7506
▁ਖ਼ਰਚ	-7507
▁ਟਰੈਕ	-7508
att	-7509
ਸੰਤ	-7510
ਹਾਸ	-7511
▁ਵਧੇ	-7512
▁ਉਰਦੂ	-7513
▁ਲੈਂਦਿਆਂ	-7514
ੰਗਲ	-7515
▁ਅੱਪ	-7516
▁ਰਖਿਆ	-7517
▁ਕਲਿਆਣ	-7518
▁ਜਵਾਹਰ	-7519
▁ਸਾਜ਼ਿਸ਼	-7520
7)	-7521
ms	-7522
▁+	-7523
----	-7524
ਹਾਨੇ	-7525
▁ਖਰੜ	-7526
▁ਅੰਗਦ	-7527
▁ਕ੍ਰਿਸ	-7528
▁ਸਿਰਜਣ	-7529
▁ਅਦਾਇਗੀ	-7530
▁ਵਕੀਲਾਂ	-7531
▁ਯੋਜਨਾਵਾਂ	-7532
1)	-7533
▁ਧੀਰ	-7534
▁ਸਭੁ	-7535
▁ਉਦਾਸ	-7536
▁ਖ਼ੂਬ	-7537
▁ਪੈਨਲ	-7538
▁ਕਾਗਜ਼	-7539
▁ਮਾਲਕਾਂ	-7540
▁ਠੰਡ	-7541
▁ਹੁਨਰ	-7542
▁ਜਿਲ੍ਹੇ	-7543
ਮੰਦ	-7544
▁ਪਰਚਾ	-7545
▁ਸੁੱਚਾ	-7546
▁ਬਣਾਉਂਦੇ	-7547
ork	-7548
▁ਖਡ	-7549
▁ਖਾਦ	-7550
ਟਮੈਂਟ	-7551
▁ਕਾਮੇ	-7552
▁ਅਭਿਆਨ	-7553
▁ਦੁਹਰਾ	-7554
▁ਮਾਰਕਸ	-7555
▁ਅਜਨਾਲਾ	-7556
▁ਵਿਗਿਆਨੀਆਂ	-7557
ਤੈ	-7558
▁ਸਰਦ	-7559
▁ਇਸਲਾਮ	-7560
ies	-7561
▁ਤਜ	-7562
▁ਛਾਂ	-7563
▁1947	-7564
▁ਬਰਸੀ	-7565
▁ਗਲੀਆਂ	-7566
▁ਸੰਸਦੀ	-7567
▁ਸਰਹੱਦੀ	-7568
▁you	-7569
▁ਗ਼ਲ	-7570
▁ਪਕੜ	-7571
▁ਕਸੂਰ	-7572
▁ਗਾਹਕਾਂ	-7573
GH	-7574
▁ਖਰੀ	-7575
▁ਪਰਖ	-7576
▁ਧੱਕਾ	-7577
▁ਚਿਹਰਾ	-7578
▁ਸ਼ਤਾਬ	-7579
।,	-7580
ਚੋ	-7581
ਛੋਟੇ	-7582
ਸਿੰਘ	-7583
▁ਬੋਨਸ	-7584
▁be	-7585
ਵੇਜ਼	-7586
▁ਭਦੌੜ	-7587
▁ਰੇਸ਼	-7588
▁ਬਦੌਲਤ	-7589
▁ਕੁਮਾਰੀ	-7590
▁ਦਹਾਕਿਆਂ	-7591
ps	-7592
ਪੜ੍ਹ	-7593
▁ਕਸਟ	-7594
▁ਜਨਾ	-7595
ਪੂਰਵਕ	-7596
▁ਤੋੜਨ	-7597
▁ਦੇਖੇ	-7598
▁ਅਸਮਾਨ	-7599
▁ਛੱਡਿਆ	-7600
▁ਜਾਨਵਰਾਂ	-7601
▁ਸਥਾਈ	-7602
▁ਪਾਉਂਦਾ	-7603
▁ਮਰਿਆਦਾ	-7604
ੰਮਤ	-7605
▁ਢਾਈ	-7606
▁ਮਿਆਰ	-7607
▁ਹੈਪੀ	-7608
▁ਨਜਿੱਠ	-7609
▁ਬਲਵੀਰ	-7610
▁ਸਰਵੇਖਣ	-7611
▁ਅੰਗਰੇਜ਼ਾਂ	-7612
//	-7613
▁ਏਥੇ	-7614
▁ਔਲਖ	-7615
▁ਪਿਛੋਂ	-7616
▁ਲੋਕਾਈ	-7617
▁ਸੰਦਰਭ	-7618
▁ਖਿਡੌਣੇ	-7619
▁ਬਰਤਾਨੀਆ	-7620
ob	-7621
ਣਤ	-7622
ੂਆ	-7623
▁As	-7624
▁ਨੱਥ	-7625
▁ਆਸ਼ਾ	-7626
▁ਚੇਅਰ	-7627
▁ਸ਼ਾਸਤ	-7628
▁ਅੰਕੜਿਆਂ	-7629
ਵਾੜ	-7630
▁6.	-7631
▁are	-7632
▁ਓਥੇ	-7633
▁ਟ੍ਰਿ	-7634
▁ਵਿਛੋ	-7635
▁ਕਰਵਾਉਣਾ	-7636
▁ਨੰਬਰਦਾਰ	-7637
ਸ਼ਮਾ	-7638
▁ਝੱਟ	-7639
▁ਸੇਵ	-7640
▁ਪੁਨਰ	-7641
▁ਸੁਚੱ	-7642
ਧਾਮ	-7643
ਕੂਲਾ	-7644
▁ਭੰਨ	-7645
▁ਸੁਹ	-7646
▁ਲਪੇਟ	-7647
▁ਵਿਕਲਪ	-7648
▁ਕਨਵੀਨਰ	-7649
▁ਮੰਜ਼ਿਲ	-7650
▁ਅਜੈ	-7651
▁ਦਿੱਖ	-7652
▁ਲੋਧੀ	-7653
▁ਕਾਮਯਾਬੀ	-7654
St	-7655
ਨਟ	-7656
ਜਿਦ	-7657
▁ਇਜ	-7658
ੈਂਟੋ	-7659
▁ਬੱਲ	-7660
▁ਧੂਰੀ	-7661
▁ਚੜ੍ਹਦੀ	-7662
▁ਯੂਨੀਵਰਸਿਟੀਆਂ	-7663
▁(19	-7664
▁ਸਿਰੋ	-7665
▁ਵਾਲ਼ੇ	-7666
▁ਸਿੱਖਣ	-7667
▁ਛੋਟੀਆਂ	-7668
▁ਮਜ਼ਬੂਰ	-7669
ess	-7670
▁ਆਤ	-7671
▁ਢਾਹ	-7672
▁ਤਲਾਸ਼ੀ	-7673
ਕੱ	-7674
▁ਸਿਨ	-7675
▁ਭਗਤਾ	-7676
▁ਸ਼ਰੇ	-7677
▁ਪ੍ਰਵਾਹ	-7678
ਵੰਤੇ	-7679
▁ਬੁਝ	-7680
▁ਅਜੀਬ	-7681
ਜਦ	-7682
ਜੀਪੀ	-7683
▁ਊਧਮ	-7684
▁ਨਫ਼	-7685
▁ਫ਼ੀਸ	-7686
▁ਸੰਪੂਰਣ	-7687
▁ਅਖਬਾਰਾਂ	-7688
ਅਮਰ	-7689
▁ਖਤਰੇ	-7690
▁ਗੋਲਡ	-7691
▁ਲਿਸਟ	-7692
▁ਐਕਸਪ੍ਰ	-7693
▁ਐਗਰੀਕਲ	-7694
▁ਪਿੱਛਲੇ	-7695
ੱਬੇ	-7696
▁1000	-7697
▁ਪਟਾਕੇ	-7698
▁ਵਿਕਾਰ	-7699
▁ਅਮਰੀਕਨ	-7700
ੱਠਾ	-7701
ਗ੍ਰਾਮ	-7702
▁ਕੁਸ਼	-7703
▁ਪਾਸਿ	-7704
▁ਤਰਜੀਹ	-7705
▁ਨਿੱਕੇ	-7706
▁ਮੁਰੰਮਤ	-7707
aas	-7708
▁400	-7709
▁ਸ਼ਨਾ	-7710
▁ਗਰੀਬੀ	-7711
▁ਡੇਅਰੀ	-7712
▁ਨਿਕਲਿਆ	-7713
▁ਮਹੱਤਵਪੂਰਣ	-7714
for	-7715
▁ਬਿਹਤ	-7716
ੋਗੇ	-7717
▁ਵਿਰਾਟ	-7718
▁ਨਜ਼ਦੀਕੀ	-7719
ਜੋਗ	-7720
▁an	-7721
▁ਨਮੂ	-7722
▁ਇਰਾਕ	-7723
▁ਦਿਨੀ	-7724
▁ਨਾਗਪਾਲ	-7725
ਨੈ	-7726
▁ਉਹੋ	-7727
▁ਭੱਟ	-7728
▁ਹਰਮਿੰਦਰ	-7729
▁ਮੁਕੇਰੀਆਂ	-7730
ਚੌ	-7731
▁ਮਨਾਈ	-7732
▁ਸੰਤੁ	-7733
▁ਸ਼ਰੀਫ	-7734
▁ਪਲੇਟਫਾਰਮ	-7735
▁ਸੰਸਕ੍ਰਿਤ	-7736
ਜਿਕ	-7737
▁ਪਰਸ	-7738
▁ਸਵਰਾਜ	-7739
ਗੋਲ	-7740
ਬਾਗ	-7741
ਲੈਟ	-7742
▁pr	-7743
▁ਮੰਮੀ	-7744
▁ਮੈਜਿਸਟਰੇਟ	-7745
gg	-7746
▁ਦਾਤ	-7747
▁ਸ਼ੰ	-7748
▁ਅੰਕੜੇ	-7749
▁wh	-7750
ਜਾਤੀ	-7751
▁ਝਲਕ	-7752
▁ਡਿਗ	-7753
▁ਖੁਰਦ	-7754
▁ਚਾਹਲ	-7755
hannel	-7756
▁ਲੈਣਗੇ	-7757
▁ਰਹਿਣੀ	-7758
▁ਰੋਗਾਂ	-7759
▁ਡਿਜ਼ਾਇਨ	-7760
▁ਅਸਮਰ	-7761
▁ਚਲਦਿਆਂ	-7762
▁ਫਿਰੋਜ਼ਪੁਰ	-7763
▁ਠੱ	-7764
▁ਦਲੀਪ	-7765
▁ਬਹਾਲ	-7766
▁ਸੂਬਾਈ	-7767
▁ਭਿੰਡਰਾਂ	-7768
ਲਾਲ	-7769
▁ਗਾਉਣ	-7770
▁ਨਾਇਕ	-7771
▁ਡੈਮੋਕ	-7772
▁ਸਟੂਡੈਂਟ	-7773
▁ਪਾਤਸ਼ਾਹੀ	-7774
ਹੜੀ	-7775
ਾਰਨ	-7776
▁ਜਾਇਜ਼	-7777
▁ਤੱਤਾਂ	-7778
▁ਜ਼ਾਹਿਰ	-7779
▁ਸੰਵੇਦਨ	-7780
▁ਅਸਤੀਫ਼ਾ	-7781
}।	-7782
ਜਾਇਬ	-7783
▁ਕਨੂੰ	-7784
▁ਝੰਡੇ	-7785
▁ਬਣਨਾ	-7786
▁ਅੰਜਾਮ	-7787
▁ਐਕਸ਼ਨ	-7788
▁ਪੜ੍ਹੀ	-7789
▁ਵਾਪਰੇ	-7790
ਡਕਰ	-7791
ਂਡਸਾ	-7792
▁ਬਚੇ	-7793
▁ਪਹਾੜ	-7794
2,	-7795
69	-7796
ਯਾਤ	-7797
▁ਫੜਨ	-7798
▁ਖ਼ਰਾਬ	-7799
▁ਮਹਿਕਮੇ	-7800
oll	-7801
ਯਾਹ	-7802
ਟੀਕਲ	-7803
▁ਘੰਟਾ	-7804
▁ਪੈਰਾ	-7805
▁ਰੋਹਿਤ	-7806
▁ਉਲੀ	-7807
▁ਹਾਈਵੇ	-7808
▁ਦੋਨੋਂ	-7809
▁ਨੁਮਾਇੰ	-7810
▁ਸਹਿਯੋਗੀ	-7811
▁ਜੰਗਲੀ	-7812
▁ਦੋਸਤੀ	-7813
▁ਵਾਰਾਂ	-7814
84	-7815
ਣੂ	-7816
-19	-7817
ਅੰਤਰ	-7818
▁ਸਖ਼	-7819
ਜ਼ਗਾਰੀ	-7820
▁ਗੱਠਜੋੜ	-7821
▁ਜੇਲ੍ਹਾਂ	-7822
▁Am	-7823
▁ਮੰਨਦਾ	-7824
▁ਦਿਮਾਗ਼	-7825
▁ਪੰਚਕੂਲਾ	-7826
ਕੋਈ	-7827
▁ਵਫ	-7828
▁ਓਪਨ	-7829
ਾਲਿਆਂ	-7830
▁ਸਕੋਰ	-7831
▁ਮੁਦਰਾ	-7832
▁ਵਾਲਾਂ	-7833
▁ਸ਼ਰਾਰ	-7834
▁ਹਰਨਾਮ	-7835
▁ਸਾਧਨਾਂ	-7836
▁ਮੁਲਜ਼ਮਾਂ	-7837
▁ਅਉ	-7838
ਫਤਾਰੀ	-7839
▁ਜਾਖੜ	-7840
▁ਘੜ	-7841
।[1]	-7842
ਬਾਬਾ	-7843
▁ਨੌਂ	-7844
▁ਮਜਬੂਤ	-7845
▁ਵਰਤੋ	-7846
▁ਅਨਮੋਲ	-7847
▁ਦੱਸਣਾ	-7848
▁ਬਿਆਨਾਂ	-7849
▁ਮਾਨਯੋਗ	-7850
▁ਅਗਿਆਨਤਾ	-7851
▁ਆਪ੍ਰੇਸ਼ਨ	-7852
har	-7853
▁ਫੇਜ਼	-7854
▁ਘੇਰ	-7855
▁ਦਿਲਾਂ	-7856
▁ਪੁਜਾਰੀ	-7857
ੁਖ	-7858
ਸਿਮਰ	-7859
▁ਭਜਨ	-7860
▁ਗਰੀਨ	-7861
▁ਰੰਗੇ	-7862
▁ਸਹਿਣ	-7863
▁ਸੋਨਾ	-7864
▁ਨਿਹੰਗ	-7865
।''	-7866
ਹੌਲੀ	-7867
▁550	-7868
▁ਕੋਇ	-7869
▁ਲਿੱ	-7870
▁ਜਾਣਨ	-7871
▁ਰੁਪੈ	-7872
ੜੀਆ	-7873
ਦਿੱਲੀ	-7874
▁ਨਾਹੀ	-7875
ਬੈ	-7876
ਮੌ	-7877
▁ਭੂਤ	-7878
▁ਮੱਖ	-7879
ਚੂਚੀਆਂ	-7880
ਸ਼ੀਲਤਾ	-7881
ikh	-7882
ਰਜ਼	-7883
▁ਬਸੰਤ	-7884
▁ਇਨਕਲਾਬੀ	-7885
▁ਖਾਲਿਸਤਾਨ	-7886
▁ਸ਼ਿਕਾਇਤਾਂ	-7887
▁ਲਵ	-7888
▁1:1	-7889
▁ਵਸੇ	-7890
▁with	-7891
▁ਕਰਣੀ	-7892
▁ਜੋਗਾ	-7893
▁ਮੌਜੂਦਗੀ	-7894
▁ਸਿਫਾਰਸ਼	-7895
ਉਦੇ	-7896
▁ਨਰਸ	-7897
▁ਪ੍ਰਚ	-7898
▁ਜਾਪਾਨ	-7899
▁ਬਾਬਿਆਂ	-7900
▁ਦਿੰਦੀਆਂ	-7901
▁ਰੇਤ	-7902
ਖੋ	-7903
ਅਸ਼	-7904
ਲਾਕ	-7905
▁ਡੁ	-7906
▁ਏਸੇ	-7907
▁ਪਨੀ	-7908
▁ਮੈਕਸੀ	-7909
▁ਯਾਦਾਂ	-7910
▁ਸ਼ੁਕਰ	-7911
▁ਵਫਦ	-7912
▁ਮਿਡਲ	-7913
▁ਮੇਰੀਆਂ	-7914
▁ਸਿਫ਼ਤਿ	-7915
ਪਟਰ	-7916
▁ਲੇਖਾ	-7917
▁ਅਨੁਸੂ	-7918
▁ਢੀਂਡਸਾ	-7919
▁ਜੁਰਮਾਨਾ	-7920
ਬਰਗ	-7921
▁ਮਕ	-7922
ਰੀਟੇ	-7923
▁ਉਲਝ	-7924
▁ਡੇਂ	-7925
▁ਟਾਪੂ	-7926
▁ਦੁਬਈ	-7927
▁ਪੁਰੀ	-7928
੍ਰੇਟ	-7929
▁ਕੋਲੰ	-7930
▁ਸਹਾਈ	-7931
ਫੁੱਲ	-7932
▁ਠੱਗ	-7933
ਯੋਗਤਾ	-7934
▁ਓਦੋਂ	-7935
▁ਮਜ਼ਬੂ	-7936
70	-7937
gas	-7938
ਰਹਾਉ	-7939
▁ਜਾਈ	-7940
▁ਸਾਵ	-7941
ਕਾਇਦਾ	-7942
▁ਏਜੰਟ	-7943
▁ਜੱਗੀ	-7944
▁ਝੋਲੀ	-7945
▁ਬਚਿਆ	-7946
▁ਸੌਂਪ	-7947
▁ਹਕੀਕਤ	-7948
▁ਸੁਲਤਾਨਪੁਰ	-7949
ਡੇਟ	-7950
▁ਕਸਬੇ	-7951
▁ਤਸੱਲੀ	-7952
▁ਬਦਨਾਮ	-7953
▁ਸਾਧਾਰਨ	-7954
▁ਸੋਸਾਇਟੀ	-7955
ਸ਼ੀਰ	-7956
▁ਫੀਲਡ	-7957
▁ਵਾਰਦਾਤ	-7958
▁ਇਮਾਰਤਾਂ	-7959
▁ਤਹਿਸੀਲਦਾਰ	-7960
7,	-7961
EE	-7962
▁ਲੱਕੜ	-7963
▁ਸਬਸਿ	-7964
▁ਮੂਹਰੇ	-7965
▁ਮਰਯਾਦਾ	-7966
▁ਵਾਪਰਿਆ	-7967
▁ਤਰੀਕਿਆਂ	-7968
ਸਿਰ	-7969
▁44	-7970
▁ਧਿਆ	-7971
▁ਲਗਨ	-7972
▁ਆਤਮਿਕ	-7973
ਕਾਰਾਤਮਕ	-7974
▁ਸ਼ਕਤੀਆਂ	-7975
8,	-7976
ਸਾਰੀ	-7977
▁ਦਰਜੇ	-7978
▁ਆਵੇਗੀ	-7979
▁ਉਚੇਚੇ	-7980
▁ਜਿੱਤੇ	-7981
▁ਰਿਸ਼ੀ	-7982
▁ਆਲਮ	-7983
▁ਜਰਨਲ	-7984
▁ਜੰਗੀ	-7985
▁ਲੋਕਾ	-7986
▁ਹੋਸਟ	-7987
▁ਵੱਜੋਂ	-7988
▁ਖ਼ਤਰਨਾਕ	-7989
▁ਲਾਇਬ੍ਰੇ	-7990
▁ਸ਼ਕਤੀਸ਼ਾਲੀ	-7991
ੋਲੇ	-7992
ਮੰਡਲ	-7993
▁ਭੰ	-7994
▁ਐਂਟੀ	-7995
▁ਪਾਇਲ	-7996
▁ਹੀਰੋ	-7997
▁ਚਾਵਲਾ	-7998
▁ਯਾਤਰੀਆਂ	-7999
▁ਸਹਿਕਾਰੀ	-8000
▁ਤ੍ਰਿਸ਼ਨਾ	-8001
6,	-8002
ਵਾਹੀ	-8003
▁ਉਭਾਰ	-8004
▁ਬਾਂਹ	-8005
▁ਵਜ਼ੀਰ	-8006
ਕੁਸ਼ੀਆਂ	-8007
23	-8008
▁ਕਤਾਰ	-8009
▁ਬਣਤਰ	-8010
▁ਖਾਲਸੇ	-8011
▁ਸਸਕਾਰ	-8012
▁ਗੁਰਨਾਮ	-8013
▁ਸ਼ਰਧਾਲੂ	-8014
ਧਿਅਮ	-8015
ੰਮਤੀ	-8016
▁ਕਰਨਲ	-8017
▁ਘੁੱਟ	-8018
▁ਤੰਬਾ	-8019
▁ਬਦਲੀ	-8020
▁ਮੈਮੋ	-8021
▁ਹਰਕਤ	-8022
▁ਮੁਬਾਰਕ	-8023
▁ਸਿਹਤਮੰਦ	-8024
ਪਾਓ	-8025
▁ਗੇਂ	-8026
▁ਨਾਸ਼	-8027
▁ਤਬਾਹੀ	-8028
oot	-8029
▁ਲਲ	-8030
ਜਰਮਨ	-8031
▁ਦਾਇ	-8032
▁ਫਸਾ	-8033
▁ਚੌਥਾ	-8034
▁ਜਮਾਂ	-8035
▁ਬਹਾਨੇ	-8036
▁ਸਬਜ਼ੀ	-8037
▁ਸੁਭਾਵ	-8038
▁ਅਸ਼ਲੀਲ	-8039
▁ਦਲਿਤਾਂ	-8040
▁ਪ੍ਰੇਮੀਆਂ	-8041
ide	-8042
▁ਲਾਗੇ	-8043
▁ਸਿਲਸਿਲਾ	-8044
▁ਹਾਲਾਤਾਂ	-8045
ਅਲੀ	-8046
▁ਵਗ	-8047
ਕੀਰਤ	-8048
ਗਰਾਂ	-8049
▁ਵਸਨੀਕ	-8050
ite	-8051
ਉਮਰ	-8052
▁ਗੌਰਵ	-8053
▁ਉੱਥੋਂ	-8054
▁ਨਫ਼ਰਤ	-8055
▁ਫ਼ਤਹਿ	-8056
▁ਬੱਚੀਆਂ	-8057
▁ਰੋਸ਼ਨੀ	-8058
▁ਸ੍ਰਿਸ਼ਟੀ	-8059
5,	-8060
ਫਾਨ	-8061
▁ਬੈਗ	-8062
▁ਗਾਇਨ	-8063
▁ਜਗੀਰ	-8064
▁ਬਰਾਂ	-8065
▁ਕਮਿਊਨ	-8066
▁ਵਿੱਕੀ	-8067
▁ਨਿਰਾਸ਼ਾ	-8068
▁ਐਮਰਜੈਂਸੀ	-8069
ਘਨ	-8070
▁ਉੱਪ	-8071
▁ਪਿਰ	-8072
▁ਤਰੀਕ	-8073
▁ਸੱਜੇ	-8074
▁ਬਣੀਆਂ	-8075
▁ਬਣਾਉਂਦਾ	-8076
▁ਫੂਕ	-8077
▁ਗਹਿਣੇ	-8078
▁ਧਾਰਮਕ	-8079
-9	-8080
ਮੀਅਤ	-8081
▁ਰੂਮ	-8082
▁ਫੜਿਆ	-8083
▁ਸੁਰਤ	-8084
▁ਬਿਜਾਈ	-8085
▁ਸ਼ੂਗਰ	-8086
▁ਸੰਚਾਲਨ	-8087
ਅਧ	-8088
▁ਝੀ	-8089
▁ਲੈਸ	-8090
▁Vaar	-8091
▁ਦੱਸੋ	-8092
▁ਪਰਗਟ	-8093
▁ਸਵਰਗ	-8094
▁ਪਾਹੁਲ	-8095
ੋਟੋ	-8096
▁ਚੂਚਕ	-8097
▁ਦਿਲੀ	-8098
▁ਹੋਕੇ	-8099
.3	-8100
ਕਲੇ	-8101
ਸੱਚ	-8102
▁ਜੇਤਲੀ	-8103
▁ਸਕਰੀਨ	-8104
▁ਡਾਕਟਰੀ	-8105
ਐਂ	-8106
▁e	-8107
ਟਰੋ	-8108
▁ਏਕ	-8109
ਥੀਆਂ	-8110
▁ਸਭਾਵਾਂ	-8111
▁ਲੋੜੀਂਦੇ	-8112
ਹਮਾ	-8113
ਕਾਂਡ	-8114
▁ਕੀੜੇ	-8115
▁ਧਰਮੀ	-8116
▁ਯਾਤਰੀ	-8117
▁ਗਰੀਬਾਂ	-8118
ਆਰਡੀਨੇਟਰ	-8119
▁ਪੇਸ਼ੇਵਰ	-8120
▁ਡੰਗ	-8121
▁ਪੈਦਲ	-8122
ਅਮਰੀਕਾ	-8123
▁ਲਾਪਤਾ	-8124
▁ਨਿਸ਼ਾਨੇ	-8125
▁ਸੁਰਖੀਆਂ	-8126
▁ਨਾਰਾ	-8127
▁ਨੋਟੀ	-8128
▁ਬਿਤਾ	-8129
▁ਮਹੰਤ	-8130
▁ਤਨਖ਼ਾ	-8131
▁ਨਰੇਸ਼	-8132
▁Channel	-8133
ਊਂਡ	-8134
▁ਅਨੰਤ	-8135
▁ਅਬਾਦੀ	-8136
▁ਜੱਜਾਂ	-8137
▁ਹੁਸੈਨ	-8138
▁ਪ੍ਰਤਿਭਾ	-8139
ਿਹ	-8140
ਤੀਆ	-8141
▁ਵੰ	-8142
ਅਮਰੀ	-8143
ਕਿਸੇ	-8144
▁ਅਹੰ	-8145
▁ਬੇਵ	-8146
▁ਮੈਨ	-8147
▁ਮਰਦਾਂ	-8148
▁ਜੁੜੀਆਂ	-8149
▁ਸੰਸਾਰਕ	-8150
one	-8151
ਗਲਾਂ	-8152
▁ਹਾਇ	-8153
▁ਪੱਛਮ	-8154
▁ਲਾਹੇ	-8155
▁ਪਾਈਆਂ	-8156
▁ਮਾਧਿਅਮ	-8157
▁ਖਡੂਰ	-8158
▁ਅੰਕਾਂ	-8159
▁ਫਿਰਕੂ	-8160
▁ਵਿਸ਼ਵਾਸ਼	-8161
▁ਅਪਰੈਲ	-8162
▁ਡੇਂਗੂ	-8163
▁ਦੇਂਦੇ	-8164
▁ਮੁਹੱਬ	-8165
▁ਪ੍ਰਸਾਦ	-8166
▁ਸ੍ਰੋਮਣੀ	-8167
▁@	-8168
ਪਟਾ	-8169
ਸਦੀ	-8170
ਸ਼ੈ	-8171
▁ਜਾਚ	-8172
▁ਪੱਕ	-8173
▁ਦਾਣਾ	-8174
▁ਬੀਮਾ	-8175
▁ਅਭਿਨੇ	-8176
▁ਖਾਂਦਾ	-8177
▁ਨਾਰਵੇ	-8178
▁ਸੇਖੋਂ	-8179
▁ਬਿਲਡਿੰਗ	-8180
▁ਟ੍ਰੇਨਿੰਗ	-8181
ਨਾਸ਼	-8182
▁ਖੜੀ	-8183
▁ਮਨਾਏ	-8184
▁ਸ਼ੌਕ	-8185
ੋਗ੍ਰਾ	-8186
▁ਪ੍ਰਦੀਪ	-8187
://	-8188
▁ਹੂ	-8189
▁ਆਗਾ	-8190
▁ਪੁਤ	-8191
▁ਭੋਲਾ	-8192
▁ਵੇਖੀ	-8193
▁ਅਪਮਾਨ	-8194
▁ਕਰਦਿਆ	-8195
▁ਨਵਾਜ਼	-8196
▁ਇੰਜੀਨੀਅਰਿੰਗ	-8197
ਪੱਤਰ	-8198
ਿਕਤਾ	-8199
▁ਵਡੇ	-8200
▁ਟਾਊਨ	-8201
ਤਰ੍ਹਾਂ	-8202
▁ਮਨੋਹਰ	-8203
▁ਸੰਵਾਦ	-8204
ਬਲਜਿੰਦਰ	-8205
▁ਅਕਾਡਮੀ	-8206
▁ਪੁੱਤਰਾਂ	-8207
▁ਰੁਪਿੰਦਰ	-8208
▁ਉਭਰ	-8209
▁ਜੜ੍ਹ	-8210
▁ਸਪੁੱ	-8211
▁ਸੋਚਦਾ	-8212
▁ਪਤਵੰਤੇ	-8213
▁ਤਰਕਸ਼ੀਲ	-8214
▁ਵਿਅਕਤੀਗਤ	-8215
29	-8216
▁ਜਣੇ	-8217
▁ਇਤਨਾ	-8218
▁ਨੈੱਟਵਰਕ	-8219
▁ਉਮ	-8220
ਗਰਦੀ	-8221
▁ਦੂਤ	-8222
▁ਚਿੰਤ	-8223
▁ਹਰਦੇਵ	-8224
ug	-8225
ਗਰਸ	-8226
▁ਅਟੱਲ	-8227
▁ਉਸਤਾ	-8228
▁ਬਿਰਥਾ	-8229
▁ਪ੍ਰਿੰਸ	-8230
▁ਦੇਵਤਿਆਂ	-8231
▁ਪ੍ਰਦਰਸ਼ਨੀ	-8232
ਸਦ	-8233
੍ਹੀਂ	-8234
▁ਰੈਡ	-8235
▁ਸ਼ਕਲ	-8236
▁ਨਾਕਾਮ	-8237
▁ਡੇਟਿੰਗ	-8238
ੜਕੀ	-8239
▁ਝਗੜੇ	-8240
▁ਅੰਬੇਡਕਰ	-8241
▁ਦਿਲਪ੍ਰੀਤ	-8242
ਪੀਣ	-8243
▁ਗਰੋ	-8244
▁ਗੋਦ	-8245
▁ਤਗਮਾ	-8246
▁ਨਿਰੀ	-8247
▁ਮਿਲਣੀ	-8248
▁ਵਲੰਟੀਅਰ	-8249
ਦੇਸ	-8250
▁ਉਪਜ	-8251
▁ਨੇਕ	-8252
▁ਹੋਵੋ	-8253
▁ਜਸਪ੍ਰੀਤ	-8254
▁ਸ਼ਾਹਕੋਟ	-8255
}.	-8256
ase	-8257
▁ਸਪਾ	-8258
▁ਪਾਈਪ	-8259
▁ਮੁਸਕ	-8260
▁ਲੀਟਰ	-8261
▁ਸਪੇਸ	-8262
▁ਤਲਵਾਰ	-8263
▁ਨਿਕਲੇ	-8264
▁ਸੋਹਣੇ	-8265
▁ਔਨ	-8266
▁ਪਵ	-8267
ਨੀਕਲ	-8268
▁ਕੰਵਰ	-8269
▁ਤਿਸੁ	-8270
▁ਖੇਡਿਆ	-8271
▁ਨਮ	-8272
▁1:2	-8273
▁ਚਲਦੀ	-8274
▁ਚਲਿਆ	-8275
▁ਅਫਸੋਸ	-8276
▁ਰੰ	-8277
▁ਵਿਸਤ	-8278
▁ਹਾਥੀ	-8279
▁ਪੰਜਾਂ	-8280
▁ਚੇਤਾਵਨੀ	-8281
ive	-8282
▁ਕਦ	-8283
ਸ਼੍ਰੀ	-8284
▁ਉਤਪਾ	-8285
▁ਪੜਾਈ	-8286
▁ਸੈਮੀ	-8287
▁ਹੈਲੀ	-8288
▁ਤਸਕਰੀ	-8289
▁ਰੌਲਾ	-8290
▁ਲਖਵਿੰਦਰ	-8291
▁੮	-8292
ਨਿਊ	-8293
▁ਮੱਝ	-8294
▁ਸਿ਼	-8295
▁ਕਿੰਨ	-8296
▁ਪਾਕਿ	-8297
▁ਮੋਟਾ	-8298
▁ਜਾਨਾਂ	-8299
ਟਕੇ	-8300
▁ਅਰੁ	-8301
▁ਮੇਨ	-8302
▁ਚੰਦੂ	-8303
▁ਸ਼ੋਰ	-8304
▁ਅਜਮੇਰ	-8305
ਫਿਕੇਸ਼ਨ	-8306
▁ਜਿੱਥੋਂ	-8307
atp	-8308
ਸ਼ਰਨ	-8309
▁ਐਨੀ	-8310
▁ਜਪੁ	-8311
▁ਵਣਜ	-8312
▁ਹੈਕ	-8313
▁ਵਧਦਾ	-8314
▁ਸੀਜ਼ਨ	-8315
ਗਤੀ	-8316
ਵਾਬ	-8317
ਗਿੱਲ	-8318
▁ਦੱਤ	-8319
▁ਨਰਮ	-8320
▁ਲੱਕ	-8321
ਸਗੜ੍ਹ	-8322
▁ਟਿਊਬ	-8323
▁ਚੱਲਿਆ	-8324
▁ਆਕਲੈਂਡ	-8325
▁ਗ੍ਰਹਿਣ	-8326
ੂਲੀ	-8327
▁ਅਕਲ	-8328
▁ਤਾਈ	-8329
▁ਸਾੜਨ	-8330
▁ਫਿਰਦਾ	-8331
▁ਹੌਸਲਾ	-8332
▁ਸੀਵਰੇਜ	-8333
44	-8334
ਅਵ	-8335
ਂਗਾ	-8336
▁49	-8337
...?	-8338
▁ਸਰਲ	-8339
▁ਸਲੀ	-8340
ਪਿਛਲੇ	-8341
▁ਮੁਅੱਤ	-8342
ਬਤਾ	-8343
▁ਏਹ	-8344
▁੨੦	-8345
▁ਦਈਏ	-8346
▁ਸਤਾ	-8347
▁ਸਵੱਛ	-8348
▁ਜਗਦੀਪ	-8349
▁ਮੀਡੀਏ	-8350
▁ਸਿੰਗਲ	-8351
▁ਰਜਿਸਟਰੇਸ਼ਨ	-8352
ਸੀਆ	-8353
▁ਨੈਟ	-8354
▁ਸਿਉ	-8355
▁ਟਰੇਨਿੰਗ	-8356
ress	-8357
ਪ੍ਰੇ	-8358
▁ਤਿਰ	-8359
▁ਰੋਂ	-8360
▁ਮੇਹਰ	-8361
▁ਰੁਚੀ	-8362
▁ਚੋਰਾਂ	-8363
▁ਸੋਲਜਰ	-8364
▁ਖਸਮ	-8365
▁ਗੁੜ	-8366
▁ਜ਼ਾਲ	-8367
▁ਕੁਸ਼ਲ	-8368
▁ਪ੍ਰਭੁ	-8369
▁ਵਿਨੋਦ	-8370
▁ਕਮਲਜੀਤ	-8371
▁ਇਤਿਹਾਸਿਕ	-8372
ਦਸ	-8373
▁ਆਰਟ	-8374
▁ਹਰਾਇਆ	-8375
▁ਸ਼ਰੇਆਮ	-8376
▁ਹਰਿੰਦਰ	-8377
ort	-8378
▁ਜੁਆਬ	-8379
▁ਤੱਥਾਂ	-8380
▁ਬੋਲਦਾ	-8381
▁ਭਰਵਾਂ	-8382
▁ਸ਼ਾਖਾ	-8383
▁ਪ੍ਰਤੱਖ	-8384
▁ਫੁਰਮਾਨ	-8385
ਦਰੇ	-8386
adee	-8387
▁ਜੌਹਲ	-8388
▁ਦਰਸ਼ਕ	-8389
ਡਿਓ	-8390
▁ਸਕੇਗੀ	-8391
ਕਤਿ	-8392
ਾਰੀਓ	-8393
ੈਕਟਾਂ	-8394
▁post	-8395
▁ਭੜਕਾ	-8396
▁ਵਾਟਰ	-8397
▁ਛੁੱਟੀਆਂ	-8398
▁ਦੰਗ	-8399
▁ਦਾਦੀ	-8400
▁ਜਸਟਿਨ	-8401
ਕੋਟਲਾ	-8402
▁ਤਾਲਿ	-8403
▁ਥਿੰਦ	-8404
▁ਉਤਪਾਦਾਂ	-8405
ath	-8406
▁ਜਿਨਿ	-8407
▁ਮਾਨਵਤਾ	-8408
▁ਇੰਤਜ਼ਾਰ	-8409
ਇੰਗ	-8410
ਖਾਨੇ	-8411
ਫ਼ੀਆ	-8412
▁ਘੁਟ	-8413
▁ਅਸੈਂ	-8414
▁ਮੋਹਰ	-8415
▁ਰੰਗੀ	-8416
▁ਵਿਗੜ	-8417
▁ਸ਼ਰਾ	-8418
▁ਕੈਮਰੇ	-8419
▁ਨਿਰੋਲ	-8420
▁ਸਟੱਡੀ	-8421
▁English	-8422
▁ਗੁੰਮਰਾਹ	-8423
anada	-8424
▁ਗੇਂਦਾਂ	-8425
▁ਅਨੁਸੂਚਿਤ	-8426
ਥਾਣਾ	-8427
ਦਿਆਲ	-8428
▁ਰਿਟ	-8429
ਲੇਸ਼ਨ	-8430
▁ਪਰਕਾਸ਼	-8431
▁ਸੁਖਜਿੰਦਰ	-8432
49	-8433
▁cl	-8434
▁ਚਲੋ	-8435
▁ਰੁੱਤ	-8436
▁ਸੁਰੂ	-8437
▁ਮਰਿ	-8438
▁ਜੁਰਮ	-8439
▁ਪਾਣੀਆਂ	-8440
ੱਟੀ	-8441
▁ਆਪਾ	-8442
▁ਝੋਨਾ	-8443
▁ਤਰਲੋ	-8444
▁ਇਸਰਾਏ	-8445
▁ਕਿਸ਼ਨ	-8446
▁ਚਾੜ੍ਹ	-8447
▁ਲਹਿਰਾਂ	-8448
ਹਿੰਦ	-8449
▁ਅਜਾ	-8450
▁ਨਕਲ	-8451
▁ਟੀਚਰ	-8452
▁ਗੁਜ਼ਰ	-8453
3)	-8454
▁ਬਾਕਸ	-8455
ਵਿਗਿਆਨ	-8456
▁ਟਾਲ	-8457
ੁਰਾਹੇ	-8458
ੈਂਪਟਨ	-8459
▁ਕਾਊਂ	-8460
▁ਦੇਣੇ	-8461
▁ਤਾਰੀਖ	-8462
▁ਵਿਧਵਾ	-8463
ਟਨੀ	-8464
▁St	-8465
▁ਰੇਟ	-8466
▁ਐਕਸੀ	-8467
▁ਕਾਤਲ	-8468
▁ਅੱਜਕਲ	-8469
▁ਢਾਂਚਾ	-8470
▁ਰਫ਼ਤਾਰ	-8471
▁ਲਿਆਂਦੀ	-8472
▁ਲਿਖਾਰੀ	-8473
▁ਮੁਆਵਜ਼ਾ	-8474
ਕਰਮਾ	-8475
▁ਕਿਊ	-8476
ਪਾਰਟੀ	-8477
▁ਲੇਬਰ	-8478
▁ਚੌਹਾਨ	-8479
▁ਪਰਵਾਸੀ	-8480
▁ਰੋਜ਼ਗਾਰ	-8481
ਕਾਮੀ	-8482
ition	-8483
ੈਲੀਆਂ	-8484
▁ਉਡਾਣ	-8485
▁ਡਿਵੈਲ	-8486
▁ਮਹਾਰਾਸ਼ਟਰ	-8487
ਹੂਜਾ	-8488
▁ਚਲਣ	-8489
▁ਘਾਟਾ	-8490
▁ਪੂਰਵ	-8491
▁ਮਨਜ਼ੂਰ	-8492
out	-8493
ਪਰਸਨ	-8494
▁ਛਾਪ	-8495
▁ਰਵਾ	-8496
▁ਗ੍ਰੇ	-8497
▁ਰਹਾਂ	-8498
▁ਜਨਮਾਂ	-8499
▁ਵਰਤਾਰੇ	-8500
ਮੋਨ	-8501
ੱਸਾ	-8502
ਨੇਸ਼	-8503
▁ਵਿਹ	-8504
ਬ੍ਰਹਮ	-8505
▁ਉਚਿਤ	-8506
▁ਪੰਜਾਹ	-8507
▁ਰਿਸਰਚ	-8508
▁ਸ਼ਾਇਰੀ	-8509
age	-8510
ਹਰਮ	-8511
▁ਤੁਮ	-8512
▁ਨਸਲੀ	-8513
▁ਨੇਹਾ	-8514
▁Asatp	-8515
▁ਵਿਗਾੜ	-8516
▁ਸੰਗਤਿ	-8517
▁Asatpadee	-8518
ਬੁੱ	-8519
▁ਕਾਲੋਨੀ	-8520
▁ਤੰਬਾਕੂ	-8521
up	-8522
ਲੰ	-8523
ੌਕ	-8524
ਲੋਨ	-8525
ਸ਼ੀਅਲ	-8526
▁ਡੂੰਘਾ	-8527
▁ਹੰਕਾਰ	-8528
▁ਮੁਹੱਲਾ	-8529
ils	-8530
ਵਿਨ	-8531
▁ਇਮੀਗ	-8532
▁ਮਾਣਕ	-8533
ਫ਼ਤਾਰੀ	-8534
▁ਪਿੱਛਾ	-8535
▁ਸਮਿਆਂ	-8536
▁ਸਾਂਝੀਆਂ	-8537
▁ਸ਼ਖ਼ਸੀਅਤ	-8538
▁ਸ਼ੋ੍ਰਮਣੀ	-8539
▁ਮਾਰਕੀਟਿੰਗ	-8540
ਜਲਾ	-8541
ਦੂਤ	-8542
▁ਸਬਕ	-8543
▁ਈਰਾਨ	-8544
▁ਕੱਢੇ	-8545
▁ਘੋੜੇ	-8546
▁ਸਾਊਦੀ	-8547
▁ਡਵੀਜ਼ਨ	-8548
▁ਜੰਡਿਆਲਾ	-8549
▁ਅਫਗਾਨਿਸਤਾਨ	-8550
▁ਨਾਈ	-8551
▁ਘੇਰਾ	-8552
ੱਲੂ	-8553
ਜ਼ੀਨ	-8554
▁ਢਿਲ	-8555
▁ਮੋਰੀ	-8556
ਗੁਰਮੀਤ	-8557
▁ਸਖਸ਼ੀ	-8558
▁ਸਮਗਰੀ	-8559
▁ਕਮਿਊਨਿਟੀ	-8560
ਭਾਵੀ	-8561
▁ਆਲੂ	-8562
▁ਐੱਲ	-8563
▁ਘਰਾ	-8564
▁ਵਿਵੇ	-8565
▁ਇਕੱਠੀ	-8566
▁htt	-8567
▁ਛੰਦ	-8568
▁ਚਿੰਤਨ	-8569
▁ਫੌਜੀਆਂ	-8570
3,	-8571
ਤਾਜ	-8572
▁ਐਨਾ	-8573
▁ਨਤਮ	-8574
▁ਘਟੀਆ	-8575
▁ਛੱਡੀ	-8576
▁ਡਿਜੀ	-8577
▁ਮਲਟੀ	-8578
▁ਸਟੀਲ	-8579
▁ਪੁਰਖੁ	-8580
▁ਪੁੱਜੀ	-8581
▁ਸੀਰੀਆ	-8582
▁ਸੂਚਿਤ	-8583
▁ਸੰਪਤੀ	-8584
▁ਸੁਭਾਸ਼	-8585
▁ਪੱਤਰਕਾਰੀ	-8586
▁ਬੰਗਲਾਦੇਸ਼	-8587
ਕਜ	-8588
ord	-8589
ਰੀਆਈ	-8590
▁ਪਿਓ	-8591
▁ਜਾਇਆ	-8592
▁ਰਿਮਾਂਡ	-8593
▁2006	-8594
▁ਵਿਚਿ	-8595
▁ਇਕੱਲਾ	-8596
ੈਜੂ	-8597
ਕਲਾਂ	-8598
▁ਕੜਾ	-8599
▁ਜ਼ੋ	-8600
ਇਸਤ੍ਰੀ	-8601
▁ਅਹੁਦਿਆਂ	-8602
▁ਨਾਮਜ਼ਦਗੀ	-8603
ਂਦਾ	-8604
▁ਬੰਟੀ	-8605
▁ਮਿੱਲ	-8606
▁ਲੰਬਾ	-8607
▁ਕਰਾਂਗਾ	-8608
-8	-8609
,,,,	-8610
▁ਚੁਕੇ	-8611
▁ਜੁੜਨ	-8612
▁ਵੀਰਜ	-8613
▁ਗ੍ਰਿਫਤਾਰੀ	-8614
▁ਡਾਕ	-8615
▁ਇੰਸਟ	-8616
▁ਪਾਊਡਰ	-8617
▁ਭੌਤਿਕ	-8618
▁ਮੁਆਫ਼	-8619
▁ਸਹੁਰੇ	-8620
indi	-8621
ਦਸ਼ਾ	-8622
▁ਗੋਪਾਲ	-8623
▁ਮਜਦੂਰ	-8624
▁ਨਿਰਾਸ਼	-8625
▁ਟਿੱਪਣੀਆਂ	-8626
▁ਦੁਕਾਨਦਾਰ	-8627
jh	-8628
ਪੰਜ	-8629
ਮਾਏ	-8630
▁ਐਾਡ	-8631
▁ਬੱਕ	-8632
▁ਰੋਮ	-8633
▁ਨਿਮਰ	-8634
▁ਦਿਲੋਂ	-8635
▁ਬਾਰਡਰ	-8636
▁ਕਾਹਲੋਂ	-8637
ਕਈ	-8638
▁i	-8639
ਪੰਨ	-8640
ਕਾਤਾ	-8641
▁ਫੈਨ	-8642
▁ਅੰਤਮ	-8643
▁ਕਪਿਲ	-8644
▁ਕੋਮਲ	-8645
▁ਦਾਦਾ	-8646
▁ਮਾਸੂ	-8647
▁Singh	-8648
▁ਉਠਾਉਣ	-8649
▁ਜੇਹੜਾ	-8650
▁ਦੇਖਦਿਆਂ	-8651
▁ਪ੍ਰਮਾਣੂ	-8652
▁ਮਿਲਦੀਆਂ	-8653
ਕਾਣਾ	-8654
▁ਕਿੰਗ	-8655
▁ਵੇਲਾ	-8656
▁ਸਬਸਿਡੀ	-8657
ਸਿਮਰਤ	-8658
▁ਦੁਰਘ	-8659
▁ਲਾਲਾ	-8660
▁ਸ਼ਤਾਬਦੀ	-8661
:00	-8662
▁ਲਟਕ	-8663
▁ਉਠਾਇਆ	-8664
▁ਚਾਨਣਾ	-8665
▁ਭਟਕਣਾ	-8666
▁ਮਾਰਦਾ	-8667
▁ਸਭਨਾਂ	-8668
▁ਦਾਜ	-8669
▁ਵਹਾ	-8670
▁ਸੱਦ	-8671
ਟਾਮਿਨ	-8672
▁ਨਸੀਬ	-8673
▁ਸੀਤਲ	-8674
▁ਸੰਖਿਆ	-8675
▁ਲਿਮਟਿਡ	-8676
▁ਚਾਹੀਦੀਆਂ	-8677
▁।”	-8678
▁ਮਤਿ	-8679
▁ਮੂੰ	-8680
ਇਹਨਾਂ	-8681
▁ਭਾਗੀ	-8682
▁ਅਜੇਹੇ	-8683
▁ਐਲਾਨੇ	-8684
▁ਪੱਖਾਂ	-8685
▁ਰਾਜੇਸ਼	-8686
▁ਸਮਰਥਕਾਂ	-8687
।)	-8688
▁51	-8689
▁ਠੇਸ	-8690
▁ਧੱਕ	-8691
ਾਲੀਆਂ	-8692
▁ਅੰਸ਼	-8693
▁ਉਤਰਾ	-8694
▁ਦੋਨੋ	-8695
▁ਨਕਾਰ	-8696
▁ਵਧਾਇਆ	-8697
▁ਰੁਕਾਵਟ	-8698
▁ਦੁਰਵਰਤੋਂ	-8699
ਖ਼ਰ	-8700
▁ਦੱਬ	-8701
▁ਅਨਸਰਾਂ	-8702
▁ਪ੍ਰਾਚੀਨ	-8703
੍ਸ	-8704
ਲੀਟ	-8705
▁ਸਬਦਿ	-8706
▁ਉਸਾਰੂ	-8707
▁ਸਿਫ਼ਾਰ	-8708
▁ਸ੍ਰੀਨਗਰ	-8709
ਉਦਾ	-8710
ਠਾਂ	-8711
ਡੋਰ	-8712
ਕ੍ਰਿਆ	-8713
▁ਜਸ਼ਨ	-8714
▁ਉਸਤਾਦ	-8715
▁ਜਰੂਰਤ	-8716
▁ਦੇਖਭਾਲ	-8717
॥(	-8718
ਸਰਬ	-8719
ਆਪਣੀ	-8720
▁ਅਰਧ	-8721
▁ਉਨਾ	-8722
ਤੁਸੀਂ	-8723
ਸੰਮਤੀ	-8724
▁ਧੰਦੇ	-8725
▁ਪਹਿਨ	-8726
▁ਬੇਟਾ	-8727
▁ਲਾਈਵ	-8728
▁ਮਸਜਿਦ	-8729
▁ਡੇਰਿਆਂ	-8730
48	-8731
ਿਗ	-8732
ਮਿੱ	-8733
▁ਆੜ	-8734
ਬਾਦਲ	-8735
▁ਤਰਾ	-8736
ਮਿਲਨਾ	-8737
ਦਰਾਬਾਦ	-8738
▁ਆਕਾਸ਼	-8739
▁ਦੋਰਾਨ	-8740
ਬਲਵਿੰਦਰ	-8741
▁ਸਰਪ੍ਰਸਤ	-8742
,.	-8743
▁ਅਮੀ	-8744
▁ਇੱਟ	-8745
▁ਭਰੂਣ	-8746
▁ਸੁਣਦੇ	-8747
▁ਸੁਣਾਇਆ	-8748
▁ਗ਼ੁ	-8749
▁ਘੋਰ	-8750
▁ਦੁਸ	-8751
▁ਰੁਤ	-8752
▁ਤਜਵੀ	-8753
▁ਪ੍ਰਸੰਨ	-8754
▁ਵਪਾਰੀਆਂ	-8755
ਸਦੇ	-8756
ਬ੍ਰਾ	-8757
▁ਸੰਜੀ	-8758
▁ਬੱਚਿਆ	-8759
3]	-8760
ੱਭ	-8761
ਲੀਜ	-8762
ਚਰਵਾਰ	-8763
▁ਉਜਵਲ	-8764
▁ਕਮਜ਼	-8765
▁ਲੱਛਣ	-8766
▁ਬਾਰਾਂ	-8767
▁ਮਜ਼ਾਕ	-8768
▁ਕੈਰੀਅਰ	-8769
▁ਸੁਸ਼ਮਾ	-8770
ਧਿਆ	-8771
ਸ਼ਿਵ	-8772
▁ਬਾਲਣ	-8773
▁ਕਾਸ਼ਤ	-8774
▁ਗੁਰਪੁਰ	-8775
▁ਕਸ਼ਮੀਰੀ	-8776
▁ਫ਼ੁਰਮਾਨ	-8777
▁ਬੇਰੁਜ਼ਗਾਰੀ	-8778
atch	-8779
▁ਚੇਨ	-8780
▁ਚੰਨ	-8781
▁ਢੋਲ	-8782
▁ਮਰਾ	-8783
▁ਸਮਝੀ	-8784
ਜੁਆ	-8785
ਥਰੂ	-8786
ਦਾਤਾ	-8787
▁ਇੰਚ	-8788
▁ਬੋਰ	-8789
▁ਜਾਦੂ	-8790
▁ਸ਼ੇਖ	-8791
▁ਸਿਕੰਦਰ	-8792
▁ਅਹਿਮੀਅਤ	-8793
▁ਪੈਦਾਵਾਰ	-8794
▁ਮਸ਼ੀਨਰੀ	-8795
▁ਹਰਗੋਬਿੰਦ	-8796
▁ਕਾਇ	-8797
ਸਮੈਂਟ	-8798
▁ਪਾਰਦਰ	-8799
▁ਮਹਿੰਗਾ	-8800
rr	-8801
▁੧੦	-8802
otic	-8803
ਹਾਰਡ	-8804
▁ਪੇਜ	-8805
▁ਇੰਡੋ	-8806
▁ਗੁਰਾਂ	-8807
▁ਨਾਵਾਂ	-8808
▁ਫ਼ਰੀਦ	-8809
ਇਆਂ	-8810
ਡੀਜ਼	-8811
ਧਾਰਣ	-8812
▁ਧੂੜ	-8813
▁ਹੀਰ	-8814
ੈਨਸ਼ਨ	-8815
▁ਲਾਡੀ	-8816
▁ਸ਼ਾਸਨ	-8817
▁ਨਾਰਾਜ਼	-8818
▁ਅਸੈਂਬਲੀ	-8819
ਥਾਈ	-8820
ੰਦੀ	-8821
ਾਲੀਆ	-8822
▁ਕਥਨ	-8823
▁ਗਾਏ	-8824
▁ਅੱਡਾ	-8825
▁ਗੀਤਕਾਰ	-8826
▁ਜ਼ਿਲ੍ਹਿਆਂ	-8827
ult	-8828
▁ਆਬ	-8829
ਪਾਣੀ	-8830
ਪੇਸ਼	-8831
▁com	-8832
▁ਅਗਾ	-8833
▁ਪਾੜ	-8834
▁ਮੱਛ	-8835
▁ਪਲਾਨ	-8836
▁ਮਹਿੰਗੇ	-8837
ਕਾਜ	-8838
ਮਲੇ	-8839
ਮਰਾਹ	-8840
▁ਟਰੈ	-8841
▁ਸਭਿ	-8842
ਵਿਦੇਸ਼	-8843
▁ਪ੍ਰਚਲਤ	-8844
UR	-8845
ਾਨਵੀ	-8846
▁ਰਾਓ	-8847
▁ਕਸਟਮ	-8848
▁ਕਸਰਤ	-8849
▁ਕਾਕਾ	-8850
▁ਪੀੜੀ	-8851
▁ਜਾਅਲੀ	-8852
▁ਬਖਸ਼ੀ	-8853
▁ਸਤਪਾਲ	-8854
▁ਅਡੋਲਤਾ	-8855
▁ਮਜਬੂਰੀ	-8856
▁ਬਖਸ਼ਿਸ਼	-8857
▁ਹੈਦਰਾਬਾਦ	-8858
▁ਹਰਿਗੋਬਿੰਦ	-8859
tails	-8860
▁ਦਾਤਾ	-8861
▁ਕੰਨਾਂ	-8862
▁ਲੱਤਾਂ	-8863
▁ਵਾਰਿਸ	-8864
▁ਜਮਾਤਾਂ	-8865
▁ਬੀਮਾਰੀਆਂ	-8866
▁ਵਸੀ	-8867
▁2005	-8868
▁ਰੰਗਾਂ	-8869
▁ਵੱਸਦਾ	-8870
▁ਐਡੀਸ਼ਨ	-8871
ੰਕ	-8872
▁ਓਮ	-8873
▁ਧੜ	-8874
ੁੱਲਾ	-8875
ੋਰੈਂਟ	-8876
▁ਸਾਖੀ	-8877
▁ਵੱਸਦੇ	-8878
▁ਕਰਨਾਟਕ	-8879
ਥਾਨ	-8880
ੋਗਰਾ	-8881
▁ਅਜ਼	-8882
▁ਚਾਅ	-8883
▁ਟੋਕ	-8884
▁ਚਿਤਰ	-8885
▁ਪੰਡਤ	-8886
▁ਮਿੱਠਾ	-8887
▁ਚਰ੍ਮਾਨੰਦ	-8888
.2	-8889
ੈਟਿਸ਼	-8890
▁ਭੋਲੇ	-8891
▁ਮੋਤੀ	-8892
▁ਯੂਰੋ	-8893
▁ਅਸ਼ਵਨੀ	-8894
▁ਧਮਕੀਆਂ	-8895
▁ਫਤਹਿਗੜ੍ਹ	-8896
▁ਅਫ਼ਗਾਨਿਸਤਾਨ	-8897
ੱਨ	-8898
▁ad	-8899
ਸੂਸੀ	-8900
▁ਕਰਾਈ	-8901
▁ਤਾਨਾ	-8902
▁ਅਜਾਇਬ	-8903
▁ਕੈਂਪਸ	-8904
▁ਸੀਮਿਤ	-8905
▁ਨਤਮਸਤਕ	-8906
▁ਬੁਲਾਰਿਆਂ	-8907
ros	-8908
ਿਸੀ	-8909
ਨੀਅਮ	-8910
▁ਕਵਰ	-8911
▁ਤਦੋਂ	-8912
▁ਬੰਧਨ	-8913
▁ਬੱਬਰ	-8914
▁ਮੱਕੀ	-8915
▁ਜੰਗਲਾਤ	-8916
▁ਦਰਸਾਇਆ	-8917
▁ਮੁਅੱਤਲ	-8918
",	-8919
▁ਘੁੰ	-8920
▁ਤੀਰ	-8921
ਡੂੰਗਰ	-8922
▁ਜਾਨੀ	-8923
▁ਲੋਹੇ	-8924
▁ਤਿੰਨੇ	-8925
▁ਏਸ਼ੀਅਨ	-8926
▁ਸਮੂਹਿਕ	-8927
▁ਲੋੜੀਂਦੀ	-8928
mo	-8929
ਵਾਕ	-8930
ੜਕੂ	-8931
▁ਨਗ	-8932
▁ਉਲਟਾ	-8933
▁ਚੌਥੀ	-8934
▁ਖ਼ਤਰੇ	-8935
▁ਡਿੱਗਣ	-8936
▁ਹਰੀਸ਼	-8937
yle	-8938
▁ਜੱਗ	-8939
▁ਵੈੱਲ	-8940
▁ਮੰਗਿਆ	-8941
▁ਰਣਬੀਰ	-8942
▁ਅਨੁਸ਼ਾ	-8943
▁ਚੈਨਲਾਂ	-8944
ਕ੍ਰਮ	-8945
ੈਂਡਰ	-8946
▁ਕਲਿੱਕ	-8947
▁ਅਕਾਊਂਟ	-8948
▁ਲਿਜਾਇਆ	-8949
▁ਹਰਸਿਮਰਤ	-8950
ਥਾਹ	-8951
ਪੱਛ	-8952
▁ਘਨ	-8953
▁ਘੋਸ਼	-8954
▁ਵੈਰੀ	-8955
▁ਸੱਤਾਧਾਰੀ	-8956
▁ਹਵੇ	-8957
▁ਟਵਿੱ	-8958
▁ਹੰਗਾ	-8959
ਰਾਮੈਂਟੋ	-8960
▁ਅੰਨ੍ਹੇ	-8961
ਰਾਰ	-8962
▁ਪਿਕ	-8963
▁ਨਜ਼ਰਾਂ	-8964
▁SIN	-8965
▁ਦਸ਼	-8966
▁ਔਲਾਦ	-8967
▁ਬਿਆਸ	-8968
▁ਨੇਪਰੇ	-8969
ੱਤੀਸਗੜ੍ਹ	-8970
▁ਹਿੰਦੂਤਵ	-8971
42	-8972
ip	-8973
ਐਸਪੀ	-8974
ਲਦਾਰ	-8975
ਖਤਿਆਰ	-8976
▁ਸਪੇਨ	-8977
▁ਸਮਝੇ	-8978
▁ਗਿਰੋਹ	-8979
▁ਜਾਏਗੀ	-8980
▁ਦਰਗਾਹ	-8981
▁ਤਰਨਤਾਰਨ	-8982
▁ਨੁਮਾਇੰਦਿਆਂ	-8983
ਹੋਰ	-8984
ਰੇਰੀ	-8985
▁ਫੋਕ	-8986
▁ਝੂਠਾ	-8987
▁ਫਾਇਲ	-8988
▁ਫਾਊਂ	-8989
▁ਸ਼ਿਕ	-8990
▁Hindi	-8991
▁ਆਧਾਰਤ	-8992
▁ਜਿਥੋਂ	-8993
▁ਵਿਸਾਰ	-8994
▁ਟਿਕਟਾਂ	-8995
▁ਦੂਜੀਆਂ	-8996
▁ਕ੍ਰਮਵਾਰ	-8997
▁ਨਿਰਧਾਰਿਤ	-8998
ਰੰਗ	-8999
ਸੰਭ	-9000
ਢੀਆਂ	-9001
▁ਕੁੜ	-9002
aasaa	-9003
▁ਮਾਵਾਂ	-9004
▁ਰੂਹਾਨੀ	-9005
▁ਵਰਤਾਰਾ	-9006
▁ਜਿਆਦਾਤਰ	-9007
ਅੱ	-9008
”,	-9009
ਕਰੋ	-9010
▁ਆਵੈ	-9011
▁ਨੋਜ	-9012
▁ਮਰੇ	-9013
▁ਵੱਟ	-9014
▁ਪੱਲੇ	-9015
▁ਸਰਾਂ	-9016
ਹਰਿਆਣਾ	-9017
▁ਖਿਤਾਬ	-9018
▁ਨਾਬਾਲ	-9019
▁ਮਾਲਵਾ	-9020
▁ਬਡੂੰਗਰ	-9021
75	-9022
▁ਨਨ	-9023
▁ਕਮਰ	-9024
▁ਕੀਹ	-9025
▁ਗੋਗ	-9026
▁ਲਾਲੂ	-9027
▁ਰਿਜ਼ਰ	-9028
▁ਵਿਚਾਰੇ	-9029
▁ਸ਼ਰੀਫ਼	-9030
▁ਲਾਇਬ੍ਰੇਰੀ	-9031
ਈਓ	-9032
ਵਚਨ	-9033
▁੧੨	-9034
ਸੈਂਸ	-9035
▁ਖੰਭ	-9036
▁ਪੱਤ	-9037
▁ਮੇਘ	-9038
▁ਗੱਦੀ	-9039
▁ਵਾਜਪ	-9040
▁ਸਰਵਰ	-9041
▁ਅਜ਼ਾਦ	-9042
▁ਜਥਾ	-9043
▁ਲਈਏ	-9044
▁ਕੁੱਖ	-9045
▁ਜਿਵੇ	-9046
▁ਦੇਵਤੇ	-9047
▁ਪਰਮਾਣੂ	-9048
▁ਭਾਈਵਾਲ	-9049
▁ਮਾਮੂਲੀ	-9050
▁ਲੱਗੇਗਾ	-9051
▁ਵਨ	-9052
ਚੰਡੀ	-9053
ਮਾਲਾ	-9054
▁ਗੁੰਝ	-9055
▁ਮੁਸਾ	-9056
▁ਬਹਿਬਲ	-9057
▁ਦੁੱਖਾਂ	-9058
▁ਬਾਰਿਸ਼	-9059
▁ਵਿਕੀਪੀ	-9060
▁ਵਿਟਾਮਿਨ	-9061
ਕਿਟ	-9062
▁ਜਥੇਦਾਰਾਂ	-9063
▁ਖੈਰ	-9064
▁ਠੱਗੀ	-9065
ਪ੍ਰਧਾਨ	-9066
▁ਕਾਸ਼ੀ	-9067
▁ਸਿਖਾਂ	-9068
▁ਸੋਹਣਾ	-9069
▁ਬੋਲੀਆਂ	-9070
ਛੱਤਰ	-9071
▁ਝਾਂ	-9072
▁ਸੋਈ	-9073
▁ਜਖਮੀ	-9074
▁ਫੌਜਾਂ	-9075
▁ਬਰਕਤਿ	-9076
▁details	-9077
ਬਲੂ	-9078
▁ਪਨ	-9079
ਨੀਸ਼	-9080
▁ਆਦੀ	-9081
▁ਵਿੱਚੋ	-9082
ਜਿਨ੍ਹਾਂ	-9083
▁ਔਨਲਾਈਨ	-9084
▁ਕੁਰਾਹੇ	-9085
▁ਟਵਿੱਟਰ	-9086
▁ਮੁਹੱਬਤ	-9087
▁ਕੋਲਕਾਤਾ	-9088
ਕੂਵਰ	-9089
ਚਿਆਂ	-9090
▁ਘੋੜ	-9091
▁ਤਤਕ	-9092
▁ਬੂੰ	-9093
▁ਰੈਗ	-9094
▁ਥੋੜੀ	-9095
▁ਦਰਾਂ	-9096
▁ਮਨੁਖ	-9097
ਵਾਲਿਆਂ	-9098
▁ਹਿੰਦੋ	-9099
▁ਬਹਾਦਰੀ	-9100
▁ਮੈਮੋਰੀਅਲ	-9101
ੌਗ	-9102
ਦੀਕ	-9103
▁ਤਿਲਕ	-9104
▁ਨੰਗੇ	-9105
▁ਜੜ੍ਹਾਂ	-9106
▁ਦਰਵਾਜ਼ਾ	-9107
▁ਰਵੱ	-9108
▁ਵਿਰਸਾ	-9109
▁ਸਨਮੁਖ	-9110
▁ਚਲਾਈਆਂ	-9111
▁ਗੁਲਜ਼ਾਰ	-9112
▁ਤਕਨੀਕਾਂ	-9113
▁ਸੈਕਰਾਮੈਂਟੋ	-9114
ਏਂ	-9115
▁ਕੜੀ	-9116
▁ਗੱਤ	-9117
▁ਘਿਰ	-9118
▁ਜਤਨ	-9119
▁ਅਕਬਰ	-9120
▁Canada	-9121
▁ਮੁੱਢਲੀ	-9122
▁ਸਰਪ੍ਰਸਤੀ	-9123
ਆਨ	-9124
▁ਆਵ	-9125
ਾਰਾਂ	-9126
▁ਪੰਪ	-9127
▁ਨੇਪਾਲ	-9128
▁ਵਿਪੁਲ	-9129
▁(1)	-9130
▁ਬਲੀ	-9131
▁ਸੱਥ	-9132
▁ਪਾਲੀ	-9133
▁ਪੰਕਜ	-9134
▁ਬਣਕੇ	-9135
▁ਲਾਲੀ	-9136
▁ਫ਼ਰਜ਼	-9137
ਮਿਲਨਾਡੂ	-9138
▁ਚੰਗੀਆਂ	-9139
ਮਟ	-9140
ary	-9141
ook	-9142
ਦਾਨੀ	-9143
ਮਪੁਰ	-9144
▁ਨੀਰ	-9145
▁ਨੇਮ	-9146
ਸਿਮਰਨ	-9147
▁ਆੜ੍ਹ	-9148
▁ਵਿਅਰਥ	-9149
▁Aaasaa	-9150
▁ਡਿਜੀਟਲ	-9151
ack	-9152
▁ਜੀਭ	-9153
▁ਸਵਿ	-9154
ਕੱਲ੍ਹ	-9155
▁ਚੁਕਾ	-9156
▁SINGH	-9157
▁ਵੇਖਦਾ	-9158
9)	-9159
sa	-9160
ਥੈ	-9161
ਪਲਾ	-9162
▁ਡਾਂਸ	-9163
▁ਕ੍ਰਿਪਾ	-9164
▁ਮਹਿੰਦਰਾ	-9165
▁ਕਾਨੂੰਨਾਂ	-9166
ੁਡ	-9167
ice	-9168
▁ਰਵ	-9169
ਿੰਦੇ	-9170
ਜਪਾਨੀ	-9171
▁ਟੀਚੇ	-9172
▁ਸਬਦੁ	-9173
▁ਸ਼ਾਦੀ	-9174
▁ਜੰਗਲਾਂ	-9175
ਜਿਆ	-9176
ਮੀਂ	-9177
▁You	-9178
▁ਲਖਨ	-9179
▁ਜ਼ੀਰਾ	-9180
▁ਗੁਲਾਮੀ	-9181
▁ਜ਼ਮੀਨਾਂ	-9182
ਦੰਡ	-9183
▁ਤੌ	-9184
ੰਗਾਂ	-9185
▁ਗੰਢ	-9186
▁ਘੋਲ	-9187
▁ਤਾਜ	-9188
▁ਲਾਜ	-9189
▁ਕਾਬਲ	-9190
▁ਗਰਾਮ	-9191
▁ਦਖ਼ਲ	-9192
▁ਨੌਕਰ	-9193
▁ਰੋਪੜ	-9194
▁ਨੂਰਪੁਰ	-9195
▁ਪ੍ਰਗਤੀ	-9196
ਸ਼੍ਰੋਮਣੀ	-9197
▁ਐਗਰੀਕਲਚਰਲ	-9198
work	-9199
ਮੇਰੀ	-9200
▁ਆਖ਼ਰ	-9201
▁ਉਤਰੀ	-9202
ain	-9203
▁ਘੁੱ	-9204
▁ਟੋਲ	-9205
▁ਓਵਰਾਂ	-9206
▁ਖ਼ਿਆਲ	-9207
▁ਰਸਮਾਂ	-9208
▁ਕਾਮਿਆਂ	-9209
▁ਥੋੜ੍ਹੇ	-9210
ash	-9211
ਵਰਾ	-9212
ਸਟਿੰਗ	-9213
ਿਤੀਆਂ	-9214
▁ਬੇਬੇ	-9215
▁ਮੈਰਿ	-9216
▁ਲਿਖਣਾ	-9217
▁ਦੀਪਿਕਾ	-9218
▁ਰਾਜਨਾਥ	-9219
▁ਧੋਖਾਧੜੀ	-9220
▁ਖੁਦਕੁਸ਼ੀ	-9221
▁Th	-9222
ਇਨਸਾ	-9223
ਸਿਟੀ	-9224
ੁਰਾਂ	-9225
▁ਅਗਨੀ	-9226
▁੧੭	-9227
ਗਿਣਤ	-9228
▁ਡਿਫ	-9229
▁ਮਦਨ	-9230
▁ਉਰਫ਼	-9231
▁ਕਿਹੋ	-9232
▁ਦੌਲਤ	-9233
▁ਲਿਜਾਣ	-9234
▁ਨਾਮਦੇਵ	-9235
▁ਸਮਝਾਇਆ	-9236
▁ਪਰੇਸ਼ਾਨ	-9237
▁ਏਨੇ	-9238
▁2004	-9239
▁ਖਾਤਾ	-9240
▁ਲਾਹਾ	-9241
▁ਕਵੀਆਂ	-9242
▁ਕੰਨਿਆ	-9243
▁ਪੰਚਾਇਤੀ	-9244
ਚਰਣ	-9245
▁ਡੂੰਘ	-9246
▁ਫਿਕਰ	-9247
▁ਪੰਛੀਆਂ	-9248
▁;	-9249
ਗੋਰੀ	-9250
ਦੂਰੀ	-9251
ਅਵਤਾਰ	-9252
▁ਪਲਾਟ	-9253
▁ਕਰੋਗੇ	-9254
▁ਗੁਲਾਬ	-9255
▁ਜੈਵਿਕ	-9256
▁ਤੀਸਰੇ	-9257
▁ਫ਼ਰਵਰੀ	-9258
▁ਪਰਿਵਰਤਨ	-9259
▁ਮੈਗਜ਼ੀਨ	-9260
▁ਰੈਸਟੋਰੈਂਟ	-9261
ਐੱਫ	-9262
▁ਜੋਨ	-9263
ਮਨਦੀਪ	-9264
......	-9265
ਸੰਗ੍ਯਾ	-9266
▁ਪੈਸਿਆਂ	-9267
▁ਬਰੈਂਪਟਨ	-9268
▁ਕੁਨੈਕਸ਼ਨ	-9269
ah	-9270
ਮਦ	-9271
ike	-9272
ਕੱਟ	-9273
ਖੂਬੀ	-9274
▁ਜੋਧ	-9275
▁ਦਾਰ	-9276
▁ਬੀੜ	-9277
▁ਹਿਲ	-9278
▁ਕੈਲੇ	-9279
▁ਦੇਖਦਾ	-9280
▁ਅਦਾਲਤੀ	-9281
▁ਜੱਥੇਦਾਰ	-9282
ਬੜੀ	-9283
ਿਆਮ	-9284
▁ਜੱਸਾ	-9285
▁ਤਾਲਿਬਾਨ	-9286
:)	-9287
ਇਸੇ	-9288
ਕਾਰਤਾ	-9289
▁ਕੋਨੇ	-9290
▁ਦੀਵੇ	-9291
▁ਯੂਜ਼ਰ	-9292
▁ਵਰਤਦੇ	-9293
▁ਕਿਲ੍ਹੇ	-9294
▁ਖੁੱਲ੍ਹੀ	-9295
ਘਾਉਣ	-9296
▁190	-9297
▁ਤਸ਼	-9298
▁ਵਤੀ	-9299
gasms	-9300
▁ਬਦਲਿਆ	-9301
▁ਸਹਿਜੇ	-9302
ਮਰਸ	-9303
ੱਚੀ	-9304
▁ਵਹੀ	-9305
▁ਰੋਗੀ	-9306
▁ਸਕੱਤ	-9307
▁ਸਿਆਣ	-9308
▁ਹਾਲਤਾਂ	-9309
▁ਬੱਲੇਬਾਜ਼	-9310
ਾਰੀਆ	-9311
▁ਫੜੀ	-9312
▁ਅਥਾਹ	-9313
▁ਮਿਲਿ	-9314
▁ਗਿੱਦੜ	-9315
ੋਕਿੰਗਜ਼	-9316
ਇੰਦ	-9317
ਜੂਰ	-9318
icle	-9319
▁ਡੋਲ	-9320
▁ਥੱਕ	-9321
▁ਲੱਤ	-9322
▁ਫਰੰਟ	-9323
▁ਲੜਕਾ	-9324
ਟਿਆਰ	-9325
▁ਘਾਹ	-9326
▁ਇਵੇਂ	-9327
▁ਬਾਘਾ	-9328
▁ਪ੍ਰਸੰ	-9329
▁ਮਾਲਿਆ	-9330
-12	-9331
ਰਜੀ	-9332
▁ਪੈਕੇ	-9333
▁ਮਾਲਾ	-9334
▁ਦਾਤਾਂ	-9335
▁ਸਤੀਸ਼	-9336
▁ਪ੍ਰੇਰਣਾ	-9337
ਗਜ਼	-9338
ਤਮਈ	-9339
▁ਨ੍ਹੀ	-9340
▁ਪਾਪਾ	-9341
▁ਮਾਲਿਕ	-9342
▁ਸਿੱਟਾ	-9343
▁ਅਮ੍ਰਿਤ	-9344
▁ਗੁਰਦਿਆਲ	-9345
▁ਵੈਨਕੂਵਰ	-9346
▁84	-9347
▁(4)	-9348
▁ਥਿਰ	-9349
▁ਮੰਗੇ	-9350
▁ਦਿਹਾਂਤ	-9351
ਜੋਰ	-9352
▁ਨਫ	-9353
▁ਸੀਸ	-9354
▁ਇਜਲਾਸ	-9355
▁ਕਰਨੀਆਂ	-9356
▁ਸੱਚਮੁੱਚ	-9357
▁ਸੰਵੇਦਨਸ਼ੀਲ	-9358
ਜੂਰੀ	-9359
▁ਖ਼ਰ	-9360
▁ਕੱਟੇ	-9361
▁ਕਟੌਤੀ	-9362
▁ਬਚਾਇਆ	-9363
▁ਸ਼ਰੀਰ	-9364
▁ਕੋਆਰਡੀਨੇਟਰ	-9365
▁ਨਾਅਰੇਬਾਜ਼ੀ	-9366
ood	-9367
ਰੇਤ	-9368
▁ਛਾਲ	-9369
ਜ਼ਲਾਂ	-9370
▁ਇਹਦੇ	-9371
ਗਣਵਾੜੀ	-9372
▁ਇਕਰਾਰ	-9373
▁ਸਾਧਾਂ	-9374
▁ਨਸ਼ੀਲੇ	-9375
▁ਪਵਿਤ੍ਰ	-9376
▁ਆਰਥਿਕਤਾ	-9377
▁ਦੁਕਾਨਦਾਰਾਂ	-9378
ਉਨ	-9379
ari	-9380
ਲੁਜ	-9381
▁ਈਸ	-9382
▁ਅਭੇਦ	-9383
▁ਝੰਡੀ	-9384
▁ਸ਼ਹਿਦ	-9385
▁ਏਸ਼ੀਆਈ	-9386
▁ਸੰਭਾਵਨਾਵਾਂ	-9387
ਬੋਰਡ	-9388
▁ਬਥੇ	-9389
▁ਮਲਿਕ	-9390
▁ਛੇਵੇਂ	-9391
▁ਖੂਨਦਾਨ	-9392
▁ਪਰਿਭਾਸ਼ਾ	-9393
▁ਵਿਸ਼ੇਸ਼ਤਾ	-9394
ਡਿਪ	-9395
ਜੀਅਮ	-9396
ਬੋਲੀ	-9397
▁ਅੱਡ	-9398
▁ਡੀਨ	-9399
▁ਸਬਰ	-9400
▁ਟਾਈਪ	-9401
▁ਸੁੰਨ	-9402
▁ਸਰਦੂਲ	-9403
▁ਪੰਦਰਾਂ	-9404
ਮਿੰਟ	-9405
▁ਕਹਿਰ	-9406
ਸ਼ੀਰਵਾਦ	-9407
▁ਸਸ	-9408
▁120	-9409
ਪਮੈਂਟ	-9410
▁ਧੰਦਾ	-9411
▁ਮਿਸਰ	-9412
▁ਸ਼ਾਰ	-9413
asturb	-9414
▁ਅਧਾਰਤ	-9415
▁ਉਪਯੋਗ	-9416
▁ਮਿਸ਼ਨਰੀ	-9417
▁ਲਾਭਦਾਇਕ	-9418
ਏਟਰ	-9419
ੱਪੜ	-9420
ਝਟਕਾ	-9421
ੋਂਗੇ	-9422
▁ਛੋਹ	-9423
▁ਪੱਤੇ	-9424
▁ਅਫ਼ਸੋਸ	-9425
▁85	-9426
▁ਛੂ	-9427
▁ਫੰ	-9428
ਦਮਿਕ	-9429
▁ਕਿੱ	-9430
▁ਟੱਪ	-9431
ਬਾਜ਼ਾਂ	-9432
▁ਜਗਦੇਵ	-9433
ਬਹੁਤ	-9434
▁ਨਕਦ	-9435
▁ਬਨਣ	-9436
▁ਫੈਡਰ	-9437
▁ਭਾਟੀਆ	-9438
▁ਸੁਮੇਲ	-9439
▁ਬ੍ਰਹਮਾ	-9440
▁ਸੱਜਣਾਂ	-9441
▁ਠਹਿਰਾਇਆ	-9442
▁ਇਨਸਾਨੀਅਤ	-9443
▁7.	-9444
▁ਲੇਟ	-9445
▁ਝਗੜਾ	-9446
▁ਅਵਾਰਡ	-9447
▁ਫੈਸ਼ਨ	-9448
▁ਹਿੰਸਕ	-9449
▁ਜ਼ਮੀਨੀ	-9450
ਜਿਲ	-9451
ਬਿਕ	-9452
ਪ੍ਰੋ	-9453
▁ਘਾਲ	-9454
▁ਖਾੜਕੂ	-9455
▁ਤਜਰਬਾ	-9456
▁ਪੂਰਵਕ	-9457
▁ਸਿੰਚਾਈ	-9458
77	-9459
ਬਦੇ	-9460
▁ਕਬੀ	-9461
▁ਘਰਿ	-9462
▁ਧੁੰਦ	-9463
▁ਨਸ਼ਟ	-9464
▁ਅਕਾਦਮੀ	-9465
▁ਸੰਭਾਵੀ	-9466
▁ਚੱਲਦਿਆਂ	-9467
ead	-9468
ਦੁਰ	-9469
▁\'	-9470
ਵਿਰੋ	-9471
▁ਤਜ਼ਰ	-9472
▁ਮੈਰੀ	-9473
▁ਸੰਗਿ	-9474
▁ਹੋਵੈ	-9475
ਖਾਸਤ	-9476
▁ਕੇਰਲ	-9477
▁ਢੁੱਕ	-9478
▁ਸਮਾਲ	-9479
▁ਸੁਖੀ	-9480
▁ਸੋਭਾ	-9481
▁ਬਿੰਦੂ	-9482
▁ਬੰਦੂਕ	-9483
▁ਵੇਖਣਾ	-9484
▁ਮੁਟਿਆਰ	-9485
▁ਬਹੁਗਿਣਤੀ	-9486
▁ਸ਼ਲਾਘਾਯੋਗ	-9487
);	-9488
ਬੜਾ	-9489
▁53	-9490
▁ਥੈ	-9491
▁ਘਾਣ	-9492
▁ਜੂਏ	-9493
▁ਫ਼ਲ	-9494
▁ਬਾਰੀ	-9495
▁ਮੁਗ਼	-9496
▁ਸੁਰਤਿ	-9497
▁ਅਮਰਦਾਸ	-9498
▁ਨਜਿੱਠਣ	-9499
▁ਸਾਮਰਾਜ	-9500
▁ਜ਼ਬਰਦਸਤ	-9501
▁ਸੈਨਿਕਾਂ	-9502
ਨਮ	-9503
ਕੁਆ	-9504
▁ਝੰ	-9505
▁ਮਾਈਨ	-9506
▁ਹਾਜ਼	-9507
▁ਲੰਬਾਈ	-9508
▁ਨੁਮਾਇੰਦੇ	-9509
ਜਤ	-9510
▁ਫੜਾ	-9511
ਸੰਭਾਲ	-9512
▁ਦੰਦਾਂ	-9513
▁ਪ੍ਰਗਟਾਈ	-9514
▁ਸਾਹਿਤਕਾਰ	-9515
ਦਕ	-9516
ਬਰੂ	-9517
▁ਖੀ	-9518
ਨਾਨੀ	-9519
ਵਾਣਾ	-9520
▁all	-9521
▁ਭਲੀ	-9522
▁2002	-9523
▁ਭਲਕੇ	-9524
▁ਹੋਲੀ	-9525
▁ਸਿੰਗਾ	-9526
▁ਅਹੰਕਾਰ	-9527
▁ਦਰਸ਼ਨਾਂ	-9528
▁ਵੈੱਲਫੇਅਰ	-9529
9,	-9530
ru	-9531
ਗੱਲ	-9532
ਬੋਹਰ	-9533
ਸ਼ਾਨ	-9534
▁ਜਿਉ	-9535
▁ਕਮਰਾ	-9536
▁ਤਰਜ਼	-9537
▁ਵਿਅੰਗ	-9538
▁ਬਾਖੂਬੀ	-9539
▁ਉਪਭੋਗਤਾ	-9540
▁ਨਸਲਕੁਸ਼ੀ	-9541
ਜਬ	-9542
▁PO	-9543
ੁੱਟੇ	-9544
▁ਮੇਂ	-9545
▁ਗੰਦੇ	-9546
▁ਜਪਾਨ	-9547
▁ਜੈਤੋ	-9548
▁ਸੌਂਪੀ	-9549
▁ਇਸ਼ਕ	-9550
▁ਚੂਚੇ	-9551
▁ਪੁਸ਼	-9552
▁ਮੁਹਾ	-9553
▁ਪ੍ਰਤੀਤ	-9554
▁ਫੈਲਾਉਣ	-9555
ਬਾਪ	-9556
ਰਾਇਆ	-9557
▁ਜੈਕ	-9558
▁ਬਾਠ	-9559
▁ਸੋਗ	-9560
▁ਅਨੂਪ	-9561
▁ਬਿਹਾਰੀ	-9562
▁ਦਫ਼ਤਰਾਂ	-9563
65	-9564
ੂਮ	-9565
ਤਮੇ	-9566
ਰਿਆ	-9567
੍ਡੋ	-9568
▁62	-9569
▁ਦਿਆ	-9570
▁ਯੁਵਾ	-9571
▁ਖਿੱਤੇ	-9572
▁ਅੱਖਰਾਂ	-9573
▁ਟਾਈਟਲਰ	-9574
▁ਤਰਲੋਚਨ	-9575
▁ਰੈਲੀਆਂ	-9576
▁ਭਾਈਚਾਰਾ	-9577
▁ਸ਼ਿੰਗਾਰ	-9578
ggs	-9579
▁ਅਕਸ	-9580
ਹਿੰਦੇ	-9581
▁ਲਕਸ਼	-9582
ਸਮੁੰਦਰ	-9583
▁ਗੁਨਾਹ	-9584
▁ਗੰਦਗੀ	-9585
▁ਟਾਂਡਾ	-9586
▁2014-0	-9587
ਗੰਢ	-9588
ਜਮਾਂ	-9589
ਝਾਉਣ	-9590
▁ਛੱਕ	-9591
▁ਥਰਮ	-9592
ਅਧਿਆਪਕ	-9593
▁ਕਾਂਸੀ	-9594
▁ਪੰਕਤੀ	-9595
▁ਮਹਿਜ਼	-9596
▁ਰਹਿੰਦ	-9597
▁ਪਾਰਕਿੰਗ	-9598
ਚਾਨ	-9599
ਸੀਰ	-9600
ਾਰਨੀ	-9601
▁ਜ਼ਰਾ	-9602
▁ਬਿਜ਼ਨ	-9603
▁ਲਾਉਂਦੇ	-9604
ੂਸ	-9605
▁41	-9606
▁as	-9607
▁ਲਾਰ	-9608
▁ਦੁਨਿਆ	-9609
▁ਗਗਨਦੀਪ	-9610
▁ਸਤਿੰਦਰ	-9611
ond	-9612
ਪਰੀ	-9613
▁ਪ੍ਰੋਫ	-9614
▁ਨਜਾਇਜ਼	-9615
▁ਲਾਹੇਵੰਦ	-9616
aw	-9617
ਮਹ	-9618
sggs	-9619
▁ਤਮਗਾ	-9620
▁ਫਰੀਦ	-9621
▁ਅਸਫ਼ਲ	-9622
▁ਹਨੇਰਾ	-9623
ਬਲਜਿੰਦਰਪਾਲ	-9624
-18	-9625
▁An	-9626
▁ਅਯ	-9627
▁ਨਹਾ	-9628
ਜਸਵੰਤ	-9629
ਜ਼ੀਅਮ	-9630
▁ਕੋਲੋ	-9631
▁ਗਰਾਂ	-9632
▁ਜੰਤਰ	-9633
▁ਭਰੀਆਂ	-9634
▁ਪ੍ਰੋਫ਼	-9635
▁ਪੰਨਿਆਂ	-9636
▁ਸੰਤੁਲਨ	-9637
▁ਬਰਤਾਨਵੀ	-9638
▁ਪ੍ਰਭਾਵਾਂ	-9639
aam	-9640
ਪਾਈ	-9641
▁ਹਾਕ	-9642
▁ਹੌਂ	-9643
ਫ਼ਰੰਸ	-9644
▁this	-9645
▁ਜਿਊਂ	-9646
▁ਫੋਰਮ	-9647
ਲਈ	-9648
-17	-9649
ਰੇਖ	-9650
ਦੋਸ਼	-9651
ਸਕੂਲ	-9652
▁ਐਂਟ	-9653
▁ਢਾਲ	-9654
▁ਲਿਵ	-9655
▁ਤੁਰੇ	-9656
▁ਨਿਭਾਅ	-9657
▁ਬੋਤਲਾਂ	-9658
▁ਆਦੇਸ਼ਾਂ	-9659
▁ਜਿਕਰਯੋਗ	-9660
ਧਕ	-9661
▁ਅਧੂ	-9662
▁ਆਫਿਸ	-9663
▁ਹਾਈਡ	-9664
ਨੌਜਵਾਨ	-9665
▁ਮਾਸੂਮ	-9666
▁ਸਤਲੁਜ	-9667
▁ਇਸਰਾਏਲ	-9668
▁ਹੌਲਦਾਰ	-9669
ਐਪ	-9670
ਵੰਡ	-9671
ਕਾਕੇ	-9672
ਸਰੂਪ	-9673
▁art	-9674
▁ਮੌੜ	-9675
▁ਮੋਟੇ	-9676
▁ਮੰਜੇ	-9677
▁ਵਿਆਜ	-9678
▁ਰੂਪਾਂ	-9679
▁ਵਾਜਪਾਈ	-9680
ep	-9681
ਜਾਤ	-9682
ਸਾਹ	-9683
▁ਆਟਾ	-9684
▁ਐਡਮ	-9685
▁ਹੁੱ	-9686
▁ਦਿੰਦ	-9687
▁ਨਾਈਟ	-9688
▁ਮਾਤਰ	-9689
▁ਫੂਲਕਾ	-9690
▁ਮਿੱਤਲ	-9691
▁ਰੈਗੂਲਰ	-9692
▁ਸਮਝਾਉਣ	-9693
▁ਗੁਰਪੁਰਬ	-9694
▁ਮਿਟ	-9695
▁ਉਤਸਵ	-9696
▁ਸਰਵਣ	-9697
▁Kab	-9698
▁ਬਗ਼	-9699
▁ਰੋਣ	-9700
▁ਕਮਾਉਣ	-9701
▁ਧਾਰਨੀ	-9702
▁ਸਹਾਰੇ	-9703
▁ਹੁਰਾਂ	-9704
▁ਉਸਦੀਆਂ	-9705
▁ਹੱਕਦਾਰ	-9706
ਕੋਣ	-9707
ਨੇਕ	-9708
able	-9709
▁ਯੁਵਕ	-9710
ਕ੍ਰਿਤੀ	-9711
▁ਅਬੋਹਰ	-9712
▁ਸ੍ਰੀਲੰਕਾ	-9713
ੈਚ	-9714
ਟਿਊ	-9715
ਸਪੇ	-9716
inst	-9717
▁ਸੌਣ	-9718
▁ਜਾਨਣ	-9719
▁ਬਰਸਾਤ	-9720
ਵਿਡ	-9721
▁ਖਲ	-9722
ਿਅਤਾ	-9723
▁ਖਿਚ	-9724
▁ਜੁਝ	-9725
▁ਰਿੰ	-9726
▁ਗਣਿਤ	-9727
▁ਭਾਰੂ	-9728
▁ਮੋਢੇ	-9729
▁ਯਤਨਸ਼ੀਲ	-9730
ਗਾਲ	-9731
ਨਾਚ	-9732
ੋਲਾ	-9733
▁red	-9734
▁ਆਖਣ	-9735
▁ਲੋਭ	-9736
▁ਗਾਇਆ	-9737
▁ਗਰਮੀਆਂ	-9738
▁ਵਿਸ਼ੇਸ	-9739
▁ਹੈਲੀਕਾ	-9740
ਮੈਟ	-9741
ਚੀਨੀ	-9742
▁ਸਚਾ	-9743
▁ਨਫਰਤ	-9744
▁ਮੁਲਾਂ	-9745
▁ਰਾਜਿਆਂ	-9746
!”	-9747
ਐੱਲ	-9748
ਸਟੋ	-9749
ੋਗ੍ਰਾਮ	-9750
▁ਦੀਦਾਰ	-9751
▁ਮੰਗਦਾ	-9752
▁ਨਿਪਟਾਰਾ	-9753
▁ਫਾਊਂਡੇਸ਼ਨ	-9754
▁ਗ੍ਰਿਫ਼ਤਾਰੀ	-9755
ਸਫ	-9756
ੜਕੇ	-9757
ਅੰਦਰ	-9758
ੌਤੀਆਂ	-9759
▁ਅੰਨਾ	-9760
▁ਟੱਬਰ	-9761
▁ਤੀਸਰਾ	-9762
▁ਨਿੱਕੀ	-9763
▁ਮਹਿਮਾ	-9764
▁ਸੁਹਿਰ	-9765
▁ਮਾਪਦੰਡ	-9766
▁ਸਨਮਾਨਤ	-9767
▁ਕੋਲੰਬੀਆ	-9768
ani	-9769
▁ਕਣ	-9770
ਦਸਤੀ	-9771
ਬਰਾਏ	-9772
▁ਚੇਤ	-9773
ਸ਼ਕਤੀ	-9774
▁ਨਾਜ਼	-9775
▁ਬੁੱਲ	-9776
▁ਵੇਖੇ	-9777
▁ਸਹਾਰ	-9778
▁ਹੈਂਡ	-9779
▁ਦਾਇਰੇ	-9780
▁ਅਟਾਰਨੀ	-9781
▁ਭੁਲੇਖਾ	-9782
▁ਸ਼ਰਾਰਤੀ	-9783
ਹਿਮ	-9784
▁ਯਸ਼	-9785
▁ਜਨਾਬ	-9786
▁ਰਿਹੈ	-9787
ਮੇਵਾਰੀ	-9788
▁ਪ੍ਰਥਾ	-9789
▁ਸੁਆਗਤ	-9790
▁ਦੰਗਿਆਂ	-9791
▁ਵੰਡੀਆਂ	-9792
enc	-9793
▁ਏਮ	-9794
ਕਾਲੇ	-9795
ਡਿਪਟੀ	-9796
▁ਗੁਰੇ	-9797
▁ਦਰਸਨ	-9798
▁ਹਸਤੀਆਂ	-9799
▁ਪ੍ਰਸੰਸਾ	-9800
▁ਆਂਗਣਵਾੜੀ	-9801
▁ਕਾਨਫ਼ਰੰਸ	-9802
ਟੂਨ	-9803
ਨੋਟ	-9804
▁63	-9805
▁ਖੂ	-9806
ਕੁਦਰ	-9807
ਲਿੰਗ	-9808
ਹਿਲਾ	-9809
ollow	-9810
▁ਗਾਇਬ	-9811
▁ਟਰਾਂ	-9812
▁ਪ੍ਰਾਰਥ	-9813
▁ਗੁਰਮੁਖੀ	-9814
▁ਬੇਰੁਜ਼ਗਾਰ	-9815
▁ਸਈ	-9816
▁ਦਾਨੀ	-9817
▁ਬਾਨੀ	-9818
▁ਮੋਟੀ	-9819
▁ਪੰਨੂੰ	-9820
▁ਬਲਕਾਰ	-9821
▁ਸੋਚਣਾ	-9822
▁ਗਾਇਕਾਂ	-9823
▁ਮਿੰਟਾਂ	-9824
▁ਮੂੰਹੋਂ	-9825
▁ਅਕਾਦਮਿਕ	-9826
24	-9827
▁ਮਠ	-9828
ਵਟਾਂ	-9829
ਵਿਦਾ	-9830
▁ਡੋਪ	-9831
▁ਲੜਾ	-9832
▁ਐਵੇਂ	-9833
▁ਵਧਦੇ	-9834
▁ਬਕਾਇਆ	-9835
▁ਵਿਗਿਆਪ	-9836
▁ਸਰਗਰਮੀ	-9837
▁ਅਵਸਰ	-9838
▁ਠੇਕਾ	-9839
▁ਨਕਦੀ	-9840
▁ਮੁਆਫ	-9841
▁ਇਰਾਦੇ	-9842
oft	-9843
▁ਕਬਰ	-9844
▁ਫਿਰਿ	-9845
▁ਬੁਢਾ	-9846
▁ਸਮਕਾਲੀ	-9847
▁ਦੱਸਦਿਆਂ	-9848
▁ਪਾਬੰਦੀਆਂ	-9849
ave	-9850
ਹੂਮ	-9851
▁56	-9852
੍ਹਵੀਂ	-9853
▁ਕਪੜੇ	-9854
▁ਮਾਈਕ	-9855
▁ਲੋਕਲ	-9856
▁ਸੰਨੀ	-9857
▁ਨਿਰਣਾ	-9858
▁ਪਿਆਰੀ	-9859
▁ਮਿਸ਼ਰਾ	-9860
▁ਐਪਲੀਕੇਸ਼ਨ	-9861
ਰੀਟ	-9862
▁ਪੱਟ	-9863
▁ਕੈਸ਼	-9864
▁ਬਰਾਕ	-9865
▁ਸੌਦੇ	-9866
▁ਕ੍ਰੋਧ	-9867
▁ਗ਼ਲਤੀ	-9868
▁ਸੁਹਿਰਦ	-9869
▁ਸਜ਼ਾਵਾਂ	-9870
▁ਹਥਿਆਰਬੰਦ	-9871
21	-9872
▁(5	-9873
ਖਾਨਾ	-9874
▁ਕੈਪ	-9875
▁ਫਾਲ	-9876
▁ਬਰਫ	-9877
▁ਰੁਲ	-9878
▁Guru	-9879
▁ਜਗਰਾ	-9880
▁ਯੰਤਰ	-9881
▁ਰਾਵਣ	-9882
▁ਵਸੂਲ	-9883
▁ਵਿੰਡ	-9884
▁ਇੰਸਟਾ	-9885
▁ਪ੍ਰਮੋ	-9886
▁ਰੁੱਖਾਂ	-9887
▁ਸਕੱਤਰੇਤ	-9888
ਉੱਤਰ	-9889
ਵਾੜੇ	-9890
▁ਅਨੋ	-9891
ਰੇਂਦਰ	-9892
▁ਕਿਛੁ	-9893
▁ਪੁੱਟ	-9894
▁ਅਖ਼ੀਰ	-9895
▁ਰਿਜ਼ਰਵ	-9896
ਮਿਆ	-9897
ਭਵਤੀ	-9898
▁ਝੀਲ	-9899
▁ਤਪਾ	-9900
▁ਨਜਰ	-9901
▁ਲੈਂਡ	-9902
▁ਵਧਿਆ	-9903
▁ਡਿਪਲੋ	-9904
▁ਕਚਹਿਰੀ	-9905
▁ਮੁੱਲਾਂ	-9906
ens	-9907
uck	-9908
▁ਖਹਿ	-9909
▁ੲਿਸ	-9910
ਾਰਖੰਡ	-9911
▁ਨਗਰੀ	-9912
▁ਬਸਪਾ	-9913
▁ਸੁਖੁ	-9914
ਮਾਤ	-9915
ੱਚਰ	-9916
▁੧੩	-9917
ੈਡਿਟ	-9918
▁ਛਿੱ	-9919
▁ਛੂਹ	-9920
▁ਕੀਆਂ	-9921
▁ਹੱਡੀ	-9922
▁ਕਰੀਅਰ	-9923
▁ਖ਼ਾਤਰ	-9924
▁ਨਛੱਤਰ	-9925
ਵਿਖ	-9926
tage	-9927
▁ਫਰਮ	-9928
▁ਸਾਨ	-9929
▁ਚੱਠਾ	-9930
▁ਜਗਮੀਤ	-9931
▁ਮਹਾਜਨ	-9932
▁ਲੜਕਿਆਂ	-9933
ਬ੍ਰਿਟਿਸ਼	-9934
ਹੀਨ	-9935
▁64	-9936
▁Sal	-9937
▁ਝੁਕ	-9938
▁ਡ੍ਰ	-9939
▁ਰੇਸ	-9940
▁ਰੈਂ	-9941
▁ਲੋਡ	-9942
▁ਦਾਦੂ	-9943
▁ਦਿਨੋ	-9944
▁ਬਣਾਕੇ	-9945
▁ਪ੍ਰੀਵਾਰ	-9946
▁ਪ੍ਰੈਸ਼ਰ	-9947
▁ਮਜ਼ਬੂਤੀ	-9948
ER	-9949
ਧੇਰੇ	-9950
▁ਉਸਤ	-9951
▁ਨਰਾਇ	-9952
▁ਨਾਕਾ	-9953
▁ਹਵੇਲੀ	-9954
▁ਰਸਾਇਣਕ	-9955
▁ਸੈਂਟਰਲ	-9956
▁ਹਾਦਸਿਆਂ	-9957
▁ਫੁਰਮਾਉਂਦੇ	-9958
ਿਦ	-9959
ਸਾਲ	-9960
ਣਯੋਗ	-9961
▁ਭਤੀ	-9962
▁2020	-9963
▁ਆਹਲੂ	-9964
▁ਕੁਆਰ	-9965
▁ਜੱਦੀ	-9966
ਵਰਸਿਟੀ	-9967
▁ਸੁਨਹਿਰੀ	-9968
ਾਇਆ	-9969
ਾਰਤ	-9970
▁250	-9971
▁ਦੀਨ	-9972
▁ਤੰਤਰ	-9973
▁ਪਰਚੇ	-9974
▁ਸਪੀਡ	-9975
▁ਸੁਆਸ	-9976
▁ਹਿਲਾ	-9977
▁ਮੁਹਾਰ	-9978
▁ਜਾਤੀਆਂ	-9979
▁ਮੁਖੀਆਂ	-9980
▁ਤਬਦੀਲੀਆਂ	-9981
▁ਸਰਬਸੰਮਤੀ	-9982
ਰਲਾ	-9983
▁ਬੋਲਣਾ	-9984
▁ਕੀਰਤਨੀ	-9985
▁ਵਾਰਦਾਤਾਂ	-9986
▁ਚੰਦੂਮਾਜਰਾ	-9987
ਮੱ	-9988
ਸਾਬ	-9989
ਧਿਕਾਰ	-9990
▁ਆਰਮੀ	-9991
▁ਈਸਾਈ	-9992
▁ਉੱਭਰ	-9993
▁ਵਾਈਟ	-9994
▁ਸੰਘਾ	-9995
ਅਮਰਜੀਤ	-9996
▁ਕਾਰਬਨ	-9997
▁ਟੈਕਸੀ	-9998
▁ਬਹੁਮਤ	-9999
▁ਸੰਬੋਧ	-10000
▁ਪੋਲਿੰਗ	-10001
▁ਵਿਤਕਰੇ	-10002
▁ਸਾਹਿਬਜ਼ਾਦਿਆਂ	-10003
ਤਾਨ	-10004
▁95	-10005
▁ਪਕ	-10006
ਗੁਪਤ	-10007
▁ਬਟਨ	-10008
▁ਮਿਨ	-10009
▁ਹੁਲ	-10010
▁ਵਾਸਤ	-10011
▁ਸਾਈਡ	-10012
▁ਗਵਾਹਾਂ	-10013
▁ਮੇਲਿਆਂ	-10014
▁ਸਿਧਾਂਤਕ	-10015
▁ਹਮਲਾਵਰਾਂ	-10016
ੋਆ	-10017
ਹਿੰਦੀ	-10018
▁ਮੁਗਲ	-10019
▁ਸ਼ਿਲ	-10020
▁ਲਾਉਣਾ	-10021
▁ਗਰਭਵਤੀ	-10022
▁ਟ੍ਰਿਬਿਊ	-10023
▁ਪੁਰਾਣੀਆਂ	-10024
▁ਨੋਟੀਫਿਕੇਸ਼ਨ	-10025
rap	-10026
ਸਵਾ	-10027
ੜਾਈ	-10028
▁ਕਰਤ	-10029
ਸ਼ਾਂਤ	-10030
▁ਸਿਗਰ	-10031
▁ਗ੍ਰੀਨ	-10032
▁ਜੁੱਤੀ	-10033
▁ਧੀਮਾਨ	-10034
▁ਹੱਡੀਆਂ	-10035
▁ਸਿੰਗਾਪੁਰ	-10036
ਤੇਰੇ	-10037
▁ਤਰਜ	-10038
▁ਥੋੜੇ	-10039
▁ਵਾਹੁ	-10040
▁ਛਾਪੇਮਾਰੀ	-10041
IT	-10042
ਰਾਗ	-10043
ਸੈਸ	-10044
ਖੋਰੀ	-10045
ਨਹੀਂ	-10046
▁ਟੰਗ	-10047
▁ਠੋਕ	-10048
▁ਉਵੇਂ	-10049
▁ਹਾਰਡ	-10050
ਕੀਮਤਾਂ	-10051
▁ਖੁਲ੍ਹ	-10052
▁ਤੁਰਿਆ	-10053
▁ਅਦਾਕਾਰੀ	-10054
pr	-10055
▁ਪਗ	-10056
▁2:1	-10057
▁ਡੋਰ	-10058
▁ਭੀਮ	-10059
▁ਚਾਰਾ	-10060
▁ਜ਼ਿਮ	-10061
▁ਧੁੱਪ	-10062
▁ਬੋਤਲ	-10063
▁ਯੂਪੀ	-10064
▁ਗੁੰਡਾ	-10065
▁ਤੁਰਕੀ	-10066
▁ਮਰਹੂਮ	-10067
▁ਵਾਰਤਾ	-10068
▁ਲੇਖਿਕਾ	-10069
▁ਚੇਅਰਪਰਸਨ	-10070
aan	-10071
▁ਮਖ	-10072
▁ਇੰਪ	-10073
▁ਬੂਥ	-10074
▁ਫਲਾਂ	-10075
▁ਰੈੱਡ	-10076
▁ਕੰਧਾਂ	-10077
▁ਬਾਈਕਾਟ	-10078
▁ਸੂਝਵਾਨ	-10079
▁ਪਹਿਲਵਾਨ	-10080
▁ਲਗੀ	-10081
▁ਆਰਥਕ	-10082
▁ਗੂੰਜ	-10083
▁ਪਰਵਾਹ	-10084
▁ਮੈਰਿਜ	-10085
▁ਰਣਧੀਰ	-10086
▁ਤ੍ਰਿਪਤ	-10087
ਥਾਰਥ	-10088
▁Maa	-10089
ਸ਼ੀਅਮ	-10090
ਸੰਸਾਰ	-10091
▁ਅਪਾਰ	-10092
▁ਆਈਪੀ	-10093
▁ਸਟਾਲ	-10094
▁ਕੀਟਨਾ	-10095
▁ਰਫਤਾਰ	-10096
▁ਅਣਗਿਣਤ	-10097
▁ਮੁਸੀਬਤ	-10098
ਸ੍	-10099
ਲੇਸ	-10100
▁ਵੇਲ	-10101
▁ਕਾਮਨਾ	-10102
▁ਚਿੱਟਾ	-10103
▁ਪ੍ਰੀਮੀ	-10104
▁ਵਧਾਈਆਂ	-10105
▁ਸਪੁੱਤਰ	-10106
▁ਸੁਧਾਰਨ	-10107
▁ਸਤਿਗੁਰੁ	-10108
▁ac	-10109
▁ਟੈਗ	-10110
੍ਰਿੰਗ	-10111
▁ਰਾਜਨ	-10112
▁ਰੋਮਾਂ	-10113
▁ਸਖ਼ਤੀ	-10114
ਵਿਸ਼ਵਾਸ	-10115
▁ਅਪਣਾਇਆ	-10116
▁ਵਿਤਕਰਾ	-10117
4]	-10118
ੰਦਨ	-10119
ਮਾਨੇ	-10120
ਲਾਉਣ	-10121
▁ਲੲੀ	-10122
▁ਅਸਹਿ	-10123
▁ਈਮੇਲ	-10124
▁ਬ੍ਰੇ	-10125
ਰੀਟੇਬਲ	-10126
▁ਨਿਗਾਹ	-10127
▁ਪਹਿਨਣ	-10128
▁ਰਾਸ਼ਨ	-10129
▁ਸ਼ਾਹਰ	-10130
▁ਦੇਹਾਂਤ	-10131
ਤਰਨ	-10132
▁ਬੋਹ	-10133
ਧਿਆਣਾ	-10134
▁free	-10135
▁ਤੇਜਾ	-10136
▁ਨੰਗਾ	-10137
▁ਯੋਗਾ	-10138
▁ਪਹਿਰੇ	-10139
▁ਪੜ੍ਹੋ	-10140
▁ਬੁਰਾਈਆਂ	-10141
▁ਵਟਾਂਦਰਾ	-10142
xxx	-10143
ਰੀਅਨ	-10144
▁ਇਨਫ	-10145
▁ਹਿਸ	-10146
ਵਧੇਰੇ	-10147
▁POST	-10148
▁ਚਲਾਨ	-10149
▁ਅਰਬਾਂ	-10150
▁ਸਮੁੱਚਾ	-10151
▁ਮਾਈਨਿੰਗ	-10152
ਸਹਾ	-10153
anie	-10154
▁ਸ੍ਰੋ	-10155
▁Kabir	-10156
ਭੁਪਿੰਦਰ	-10157
▁ਐਲਾਨਿਆ	-10158
▁ਜ਼ੁਬਾਨ	-10159
▁ਖ਼ਜ਼ਾਨੇ	-10160
▁ਗ੍ਰੰਥਾਂ	-10161
▁ਸ਼ਮਸ਼ੇਰ	-10162
ਉਂਡ	-10163
ਚੈੱਕ	-10164
▁ਗੋਰੇ	-10165
▁ਜਾਕੇ	-10166
▁ਪੁਲਾ	-10167
▁ਬਾਬਤ	-10168
▁ਵਾਇਸ	-10169
▁ਹੀਰੇ	-10170
ਰਾਸ਼ਟਰ	-10171
▁ਤਿੱਖੀ	-10172
▁ਸੋਨੂੰ	-10173
▁ਲਾਈਟਾਂ	-10174
▁ਲਾਈਨਾਂ	-10175
▁ਬਿਹਤਰੀਨ	-10176
urr	-10177
ਲੀਫ਼	-10178
▁350	-10179
▁ਆਖੇ	-10180
▁ਢੱਕ	-10181
ਸੁੰਦਰ	-10182
▁ਅਖਵਾ	-10183
▁ਕਾਲਮ	-10184
▁ਗਾਈਡ	-10185
▁ਜ਼ਬਤ	-10186
▁ਡੇਟਾ	-10187
▁ਪ੍ਰਤੀਕਰਮ	-10188
ukh	-10189
ੰਭਵ	-10190
▁99	-10191
ਗ੍ਰਾ	-10192
ਮਿਆਂ	-10193
▁ਅਨੀ	-10194
▁ਬਾਹ	-10195
▁ਵੀਜ਼ੇ	-10196
▁ਸੁੱਖਾ	-10197
ootwork	-10198
▁ਸੁਪਰਡੈਂਟ	-10199
ਵਟੀ	-10200
▁ਖਰਾ	-10201
▁ਬੱਧ	-10202
▁ਮਲੂ	-10203
▁ਲਿਹਾ	-10204
▁ਸੋਹਣ	-10205
▁watch	-10206
67	-10207
ਬੈਕ	-10208
ਸਟੀ	-10209
▁ਕਰੈ	-10210
▁ਗਾਰਡ	-10211
▁ਤੇਜੀ	-10212
▁ਵਰਦੀ	-10213
▁ਹੰਝੂ	-10214
ਹਿਲਪੁਰ	-10215
▁ਗ੍ਰਾਂ	-10216
▁ਜਜ਼ਬਾ	-10217
▁ਸਾਰਥਕ	-10218
▁ਚਾਹਵਾਨ	-10219
▁ਨਿਭਾਇਆ	-10220
▁ਇੰਟਰਨੈਟ	-10221
▁ਗੁਰਦਵਾਰਾ	-10222
aj	-10223
ਬੱ	-10224
ੲੇ	-10225
ont	-10226
ਬੁਲ	-10227
ਸੇਵਕ	-10228
▁ਬੌਧ	-10229
▁ਢਿੱਲ	-10230
▁ਵਿਹਲ	-10231
▁ਹੱਲਾ	-10232
▁ਤਰ੍ਹਾ	-10233
▁ਸਿੰਘਾ	-10234
▁ਮਿਲਾਵਟ	-10235
▁ਪ੍ਰਚਾਰਕਾਂ	-10236
85	-10237
।“	-10238
ੁਤ	-10239
ੋਗੀ	-10240
▁ਇਰ	-10241
ਿੰਡੀ	-10242
▁ਨਈਂ	-10243
▁ਬੇਹ	-10244
▁ਭ੍ਰ	-10245
▁ਉਚਾਈ	-10246
▁ਜਿਤੁ	-10247
▁ਵਾਲਿਆ	-10248
▁ਸਵਾਰੀ	-10249
▁ਹਜ਼ੂਰ	-10250
▁ਕਿੱਥੋਂ	-10251
▁ਗੁਰਜੰਟ	-10252
▁ਵਸਤੂਆਂ	-10253
▁ਇਮਾਨਦਾਰ	-10254
▁ਚੈਰੀਟੇਬਲ	-10255
▁ਨੁਮਾਇੰਦਗੀ	-10256
AL	-10257
ਅਤੀ	-10258
▁ਪੇਂ	-10259
▁ਲਾਸ	-10260
▁ਕਮਾਨ	-10261
▁ਨਾਲੋ	-10262
▁ਚੱਲਦੀ	-10263
▁ਦਿਖਾਏ	-10264
▁ਨਿਰਦੇ	-10265
▁ਮਾਣਯੋਗ	-10266
ਚੰਡੀਗੜ੍ਹ	-10267
▁ਗੁਰਬਖਸ਼	-10268
▁ਦਰਿਆਵਾਂ	-10269
ਸਮੀ	-10270
▁੧੪	-10271
▁ਉਂਗਲ	-10272
▁ਸਮਝੋ	-10273
punjab	-10274
ਗੜ੍ਹੀਆ	-10275
▁ਟਕਰਾਅ	-10276
▁ਸਿਡਨੀ	-10277
▁ਅਲਵਿਦਾ	-10278
▁ਦਿਲਜੀਤ	-10279
▁ਰਾਖਵਾਂ	-10280
▁article	-10281
??	-10282
ਬੋਲ	-10283
ਭੇਦ	-10284
▁ਆਣ	-10285
▁ਦੈ	-10286
▁੧੮	-10287
laiv	-10288
▁ਚਰਚ	-10289
▁ਨੇਂ	-10290
▁ਆਸਰੇ	-10291
▁ਨਾਇਬ	-10292
tslaiv	-10293
▁ਜਾਤਾਂ	-10294
▁ਸਜਾਇਆ	-10295
▁ਸਰਮਾਏ	-10296
▁ਹਾਇਕੂ	-10297
▁ਤਨਖ਼ਾਹ	-10298
▁ਦੁਖਾਂਤ	-10299
tslaivanie	-10300
?"	-10301
ਰੇਟਰ	-10302
ਹਿਮੀ	-10303
▁ਜੱਦ	-10304
ਮੈਟਿਕ	-10305
▁ਟਾਇਮ	-10306
▁ਪਾਤਿ	-10307
▁ਪੁੰਨ	-10308
▁ਬੇਲੋ	-10309
▁ਕਿੱਤੇ	-10310
▁ਮਹੇਸ਼	-10311
▁ਸੱਟਾਂ	-10312
▁ਪ੍ਰਾਰਥਨਾ	-10313
**	-10314
ਪੰਥ	-10315
▁sh	-10316
▁ਪਾਓ	-10317
▁ਬਜਾ	-10318
▁ਕੁੱਤਾ	-10319
▁ਗੱਤਕਾ	-10320
▁ਮੈਟਰੋ	-10321
▁ਸੂਫ਼ੀ	-10322
▁ਕੀਤਿਆਂ	-10323
▁ਆਨੰਦਪੁਰ	-10324
ਗਦਾ	-10325
ਨੇਮ	-10326
▁ਕਟਾਈ	-10327
▁ਗੁਜਰ	-10328
▁ਪੈਰੋ	-10329
▁ਸੁਆਰ	-10330
▁ਪੁਕਾਰ	-10331
▁ਬਿਰਤੀ	-10332
▁ਲੇਖਾਂ	-10333
▁ਫੱਟ	-10334
▁ਕਰਾਏ	-10335
▁ਗੀਤਾ	-10336
▁ਮਾਇਕ	-10337
▁ਲੋਹਾ	-10338
▁ਦੇਵਤਾ	-10339
▁ਸਹੋਤਾ	-10340
ਪਰਮਿੰਦਰ	-10341
▁ਗਲਤੀਆਂ	-10342
▁ਘੋਸ਼ਣਾ	-10343
,”	-10344
ਖਤਾ	-10345
ਲੇਰ	-10346
ੌਰਨ	-10347
ਗੱਦੀ	-10348
ਸ਼ੇਰ	-10349
▁ੳੁਹ	-10350
▁ਗਾਣੇ	-10351
▁ਜਿੰਨ	-10352
▁ਦਿਨਾ	-10353
▁ਸਖਤੀ	-10354
▁ਸਵਾਦ	-10355
▁ਭੰਗੜਾ	-10356
▁ਸੁਨਾਮ	-10357
▁ਖ਼ੁਰਾਕ	-10358
▁ਵਿਖਾਇਆ	-10359
uj	-10360
ਮੇਘ	-10361
▁57	-10362
▁ਝੜ	-10363
▁ਸ੍	-10364
ੇਸ਼ਟ	-10365
▁ਏੜੀ	-10366
▁ਕਰੰ	-10367
▁ਪਰਚਾਰ	-10368
▁ਮਿਲਕੇ	-10369
▁ਹਰਮੀਤ	-10370
▁ਛੇੜਛਾੜ	-10371
▁ਪ੍ਰਸ਼ਾਦ	-10372
▁ਲੋਗ	-10373
ਜੇਸ਼ਨ	-10374
▁ਨਾਮਕ	-10375
▁ਵਾਰੇ	-10376
▁ਸਨਅਤ	-10377
ਇਤਾਲਵੀ	-10378
ਜਤਿੰਦਰ	-10379
▁ਮੰਗਦੇ	-10380
▁ਵਿਕਰਮ	-10381
▁ਹਵਾਰਾ	-10382
▁ਜ਼ਮਾਨੇ	-10383
▁ਨਿਕਲਦਾ	-10384
▁ਫ਼ਾਇਦਾ	-10385
▁ਸੁਨੇਹੇ	-10386
▁ਇਲੈਕਟ੍ਰ	-10387
▁ਗੁਰਸ਼ਰਨ	-10388
▁ਲਗਾਉਂਦੇ	-10389
▁ਖ਼ੁਦਕੁਸ਼ੀ	-10390
-15	-10391
ਗਿਰ	-10392
▁ਵੰਗ	-10393
▁ਭਾਂਡੇ	-10394
▁ਸ਼ੋਭਾ	-10395
▁ਹਰਿਆਣੇ	-10396
ky	-10397
ਅਨੁ	-10398
ਵਰਨ	-10399
▁੧੬	-10400
ਸਾਂਝ	-10401
▁ਗਲਾਸ	-10402
▁ਕਨੂੰਨ	-10403
▁ਜਾਣੂੰ	-10404
▁ਜਿਨਸੀ	-10405
▁ਦੱਸਦੀ	-10406
▁ਹੋਏਗਾ	-10407
▁ਫੋਟੋਆਂ	-10408
▁ਰਿਟਾਇਰ	-10409
:4	-10410
ਬਦਲ	-10411
ੱਖੇ	-10412
▁66	-10413
ਧੋਖਾ	-10414
ਸਟੇਟ	-10415
▁ਮੀਰ	-10416
▁ਰਖਣ	-10417
ਗਿਆਨੀ	-10418
ਸ਼ੇਅਰ	-10419
▁ਬਣਾਓ	-10420
▁ਖ਼ਾਲੀ	-10421
▁ਦੁਰਗਾ	-10422
▁ਨਦੀਆਂ	-10423
▁ਸਮਰਪਣ	-10424
▁ਨਨਕਾਣਾ	-10425
▁ਵੋਟਿੰਗ	-10426
▁ਹਾਰਮੋਨ	-10427
▁ਅਧਿਆਪਕਾ	-10428
▁ਸ਼ਾਸਤਰੀ	-10429
▁ਕਮਿਊਨਿਸਟ	-10430
▁ਸਿਆਸਤਦਾਨਾਂ	-10431
▁us	-10432
▁ਚਿਕ	-10433
▁ਫਲਾ	-10434
▁ਥਰਮਲ	-10435
▁ਬੇਹੋ	-10436
ਫ਼ਰਾਂਸੀਸੀ	-10437
▁ਖੁਦਕੁਸ਼ੀਆਂ	-10438
87	-10439
:5	-10440
ਹਰਿਆਂ	-10441
▁ਜੌਹਰ	-10442
▁ਜ਼ਾਲਮ	-10443
▁ਪੈਕੇਜ	-10444
▁ਹਾਜਰੀ	-10445
▁ਸੰਪਰਦਾ	-10446
▁ਇਸਲਾਮਿਕ	-10447
▁ਕੰਵਲਜੀਤ	-10448
▁ਮੈਕਸੀਕੋ	-10449
▁ਫਾਜ਼ਿਲਕਾ	-10450
▁ਹਨੀਪ੍ਰੀਤ	-10451
ਕਾਸੀ	-10452
੍ਰਾਂ	-10453
▁ਈਸਟ	-10454
▁ਓਹੀ	-10455
▁ਧਵਨ	-10456
▁ਫਰੇ	-10457
▁ਵੀਂ	-10458
▁ਵਿਦਾ	-10459
▁ਖਾਦਾਂ	-10460
▁ਰਹਿਨੁ	-10461
▁ਅੰਬਾਲਾ	-10462
▁ਕੁਸ਼ਤੀ	-10463
▁ਖਜ਼ਾਨੇ	-10464
ਖਿ	-10465
ੁਸ	-10466
ਹਰਿ	-10467
▁8.	-10468
▁ਭਉ	-10469
ਸਾਡੇ	-10470
ਪੁਲਿਸ	-10471
▁ਜਾਣੈ	-10472
▁ਜਾਦਾ	-10473
▁ਦੁਰਲ	-10474
▁ਪਾਈਐ	-10475
▁ਬੁਰੇ	-10476
▁ਲਿਬਰ	-10477
▁ਅਟਵਾਲ	-10478
▁ਟਕਸਾਲੀ	-10479
▁ਦ੍ਰਿੜ੍ਹ	-10480
▁ਵਿਗਿਆਪਨ	-10481
ਗਰੇ	-10482
▁੧੧	-10483
ਕਾਰੇ	-10484
ਿਆਣੇ	-10485
▁ਢਹਿ	-10486
▁2003	-10487
▁ਔਜਲਾ	-10488
▁ਅਸੰਭਵ	-10489
▁ਕਲਚਰਲ	-10490
▁ਬਹਾਨਾ	-10491
▁ਮਿਸਟਰ	-10492
▁ਸਕੂਟਰ	-10493
▁ਸੁਖਮਨੀ	-10494
▁ਐਕਸਪ੍ਰੈਸ	-10495
▁ਕਿਮ	-10496
▁ਗੈਲ	-10497
▁ਹਸਨ	-10498
ਹੋਤਰਾ	-10499
▁ਵਿਉਂ	-10500
▁ਸਕਰਟ	-10501
▁ਤੂਫਾਨ	-10502
▁ਹੋਣਹਾਰ	-10503
▁ਮੁਲਾਜਮਾਂ	-10504
ਕੁਝ	-10505
anak	-10506
▁ਇਹੁ	-10507
▁ਬਾਸ	-10508
▁ਆਰਡਰ	-10509
▁ਭੱਲਾ	-10510
▁ਜਮ੍ਹਾ	-10511
▁ਫੈਡਰਲ	-10512
▁ਟਰੈਫਿਕ	-10513
SH	-10514
ੈਪ	-10515
▁ਸੇਕ	-10516
ਾਲੀਅਨ	-10517
▁ਕੂੜੇ	-10518
▁ਸੰਜਮ	-10519
▁ਆਹੂਜਾ	-10520
▁ਸੁੱਟਣ	-10521
▁ਪ੍ਰਭਾਵਤ	-10522
▁ਰਹਿੰਦਿਆਂ	-10523
▁ਲੁਟੇਰਿਆਂ	-10524
ਬਾਹਾ	-10525
▁ਫੜ੍ਹ	-10526
▁ਲਾਈਟ	-10527
▁ਅਕਾਸ਼	-10528
▁ਖੇਡਦੇ	-10529
▁ਫ਼ਤਿਹ	-10530
▁ਰਾਜਪੂ	-10531
▁ਤਤਕਾਲੀ	-10532
▁ਫੁਟ	-10533
▁ਲਾਅ	-10534
▁ਖੇਡੀ	-10535
▁ਰੇਂਜ	-10536
▁ਛਾਉਣੀ	-10537
▁ਸੁਣਦਾ	-10538
▁ਰਮਨਦੀਪ	-10539
▁ਹਿੰਦੋਸਤਾਨ	-10540
▁ਹੈਲੀਕਾਪਟਰ	-10541
oy	-10542
ਬੱਚ	-10543
ਭਗਤ	-10544
▁ਖਿਸ	-10545
▁ਤੋਲ	-10546
▁ਧੋਨੀ	-10547
▁ਬੁਰਜ	-10548
▁ਭੱਜਣ	-10549
▁ਅਣਜਾਣ	-10550
▁ਅੰਗਾਂ	-10551
▁ਤਿੱਖਾ	-10552
▁ਪ੍ਰਸ਼ੰ	-10553
ਹਟ	-10554
▁ਗੰਗ	-10555
▁ਜੋੜਾ	-10556
▁ਸਿਲੇ	-10557
ਫੈਟਿਸ਼	-10558
▁ਕਿਥੋਂ	-10559
▁ਭਵਾਨੀ	-10560
▁ਰਘਬੀਰ	-10561
▁ਹੇਠਲੀ	-10562
▁ਅੰਦਰਲੇ	-10563
▁ਸਮੈਸਟਰ	-10564
Footwork	-10565
▁ਪਹਿਰਾਵੇ	-10566
▁ਫ਼ਤਹਿਗੜ੍ਹ	-10567
ਫੋ	-10568
▁ਝਾਤ	-10569
▁ਸਾਕ	-10570
▁ਕੁਇੰ	-10571
▁ਝੂਠੀ	-10572
▁ਚੜ੍ਹਨ	-10573
ਬ੍ਰਾਜ਼ੀਲ	-10574
▁ਖੁੱਲ੍ਹਾ	-10575
ians	-10576
ਰਚਨਾ	-10577
▁ਜਨੇ	-10578
ਸਾਹਿਤ	-10579
▁ਘਬਰਾ	-10580
▁ਸ਼੍ਰ	-10581
▁ਖੋਜਾਂ	-10582
▁ਨਾਨਕੁ	-10583
▁ਪੁਛਿਆ	-10584
▁ਮਿੱਠੇ	-10585
▁ਰੋਸ਼ਨ	-10586
▁ਕਲਿੰਟਨ	-10587
▁ਪੁਰਸ਼ਾਂ	-10588
▁ਸ਼ੇਰਗਿੱਲ	-10589
▁ਦਬ	-10590
▁xxx	-10591
▁ਬਜੁਰ	-10592
▁ਭਾਵੁਕ	-10593
▁ਰੇਸ਼ਮ	-10594
▁ਦੁਖਦਾਈ	-10595
26	-10596
ਸਿਡ	-10597
▁69	-10598
▁ਤਫ਼	-10599
▁ਲੂਣ	-10600
intage	-10601
ਖੀਵਿੰਡ	-10602
▁ਕਲੋਨੀ	-10603
▁ਵਰਤਦਾ	-10604
ਧੋਖਾਧੜੀ	-10605
▁ਦਰਪੇਸ਼	-10606
▁ਵਿਸਤਾਰ	-10607
▁ਇੰਜਨੀਅਰ	-10608
▁ਰਿਪਬਲਿਕ	-10609
▁NA	-10610
▁ਛੋ	-10611
▁ਡਰੇ	-10612
▁ਬੱਝ	-10613
▁ਨੀਲੇ	-10614
▁ਸਾਹਬ	-10615
▁ਮੁਕਾਮ	-10616
▁ਯਥਾਰਥ	-10617
▁ਟੈਲੀਵਿ	-10618
▁ਪੁੱਤਰੀ	-10619
▁ਧਾਰਾਵਾਂ	-10620
ਐੱਚ	-10621
ਬਰੇ	-10622
ਰਿਟ	-10623
ੌਰੀ	-10624
imes	-10625
▁ਛਪੀ	-10626
▁ਐਕਟਰ	-10627
▁ਜਲਾਲ	-10628
▁ਬੈਂਡ	-10629
▁ਵਰਖਾ	-10630
▁ਸੋਹਲ	-10631
▁ਇਰਾਦਾ	-10632
▁ਮਲੂਕਾ	-10633
▁ਵੇਦਾਂ	-10634
▁ਸਮਰਥਕ	-10635
▁ਦਿਹਾੜੀ	-10636
▁ਫੰਕਸ਼ਨ	-10637
▁ਖ਼ਜ਼ਾਨਾ	-10638
'।	-10639
ੈਸਰ	-10640
੍ਤਕ	-10641
▁59	-10642
ਾਲਿਆ	-10643
▁ਜਾਉ	-10644
▁ਮਾਓ	-10645
▁ਜਿਉਣ	-10646
▁ਠੰਡੇ	-10647
▁ਮਸਾਂ	-10648
▁ਨਰਾਇਣ	-10649
▁ਪ੍ਰਵੀਨ	-10650
▁ਗਿਣਤੀਆਂ	-10651
▁ਗੁਰਿੰਦਰ	-10652
ਫੁਲ	-10653
ਭਰੂ	-10654
▁73	-10655
ਦੇਵੀ	-10656
ਪਸੰਦ	-10657
ਮਜੀਤ	-10658
▁ਦਿਖ	-10659
ਗੇਸ਼ਨ	-10660
▁ਸਦਕੇ	-10661
▁ਰਸਾਇਣ	-10662
▁ਹੁਕਮਰ	-10663
ਲੁਧਿਆਣਾ	-10664
▁ਅਡਵਾਨੀ	-10665
▁ਲਿਆਉਣਾ	-10666
ach	-10667
ਸਹਿ	-10668
▁54	-10669
ਅਲੱਗ	-10670
▁ਚੂੰ	-10671
▁ਤਾਰੇ	-10672
▁ਦਾਰੂ	-10673
▁ਪੇਸ਼ੀ	-10674
▁ਮਾਤ੍ਰ	-10675
▁ਕਾਤਲਾਂ	-10676
▁ਮਿਹਨਤੀ	-10677
ਆਲ	-10678
ਜੁਨ	-10679
ਟਿਲ	-10680
ਰਜਿ	-10681
▁ਔਖੇ	-10682
▁ਚੱਢਾ	-10683
▁ਟੈਲੀਫ	-10684
▁ਕਾਦੀਆਂ	-10685
▁ਨਿਰੀਖਣ	-10686
▁ਮਾਰੀਆਂ	-10687
▁ਕਹਾਣੀਕਾਰ	-10688
ਘੜ	-10689
ell	-10690
ੱਬਾ	-10691
▁ਗੰਦ	-10692
▁ਗੰਧ	-10693
ਮਿਸਾਲ	-10694
▁ਪੁੱਜਾ	-10695
▁ਵਾਲ਼ੀ	-10696
▁ਪੰਜਾਬੀਅਤ	-10697
▁ਮਾਹਿਲਪੁਰ	-10698
-)	-10699
ਥਨ	-10700
▁he	-10701
ਲਾਡਾ	-10702
▁ਡਾਈ	-10703
▁ਨਵੇ	-10704
▁ਮੈਕ	-10705
▁ਕਾਹਨ	-10706
▁ਪਰੇਡ	-10707
▁ਸਰਦੀ	-10708
▁ਕਾਰਕੁ	-10709
▁ਜਿੰਦਲ	-10710
▁ਪੈਣਗੇ	-10711
▁ਕਿਲ੍ਹਾ	-10712
▁ਗੁਜ਼ਾਰ	-10713
▁ਹਾਕਮਾਂ	-10714
▁ਸੂਬੇਦਾਰ	-10715
▁ਗੁੰਝਲਦਾਰ	-10716
▁ਪ੍ਰਸ਼ਾਸਨਿਕ	-10717
▁68	-10718
▁ਪਦਮ	-10719
ਗੇਨਾਈ	-10720
▁ਪੋਲੀ	-10721
▁ਉਸਤੋਂ	-10722
▁ਫ਼ਰਾਰ	-10723
▁ਵਾਲਮੀ	-10724
▁ਕੱਪੜਿਆਂ	-10725
ਠਿ	-10726
oad	-10727
ਦਾਮ	-10728
ਪ੍ਰਾ	-10729
▁ਤਨੁ	-10730
ਮੋਸ਼ੀ	-10731
▁ਜਨਮੇ	-10732
▁ਸਫ਼ੇ	-10733
▁Salok	-10734
▁ਅਜੋਕੀ	-10735
▁ਕੌਸ਼ਲ	-10736
▁ਪ੍ਰੋਟ	-10737
▁ਬੁੱਟਰ	-10738
▁ਕਮਜ਼ੋਰੀ	-10739
▁ਪ੍ਰਸ਼ੰਸ	-10740
▁ਬੈਲਜੀਅਮ	-10741
▁ਇਮੀਗ੍ਰੇਸ਼ਨ	-10742
▁ਛੋੜ	-10743
ਮੇਵਾਰ	-10744
▁ਮੀਆਂ	-10745
▁ਕਿਰਤੀ	-10746
▁ਡਾਇਰੈਕਟ	-10747
28	-10748
ਕਵਿ	-10749
ਫੋਰਡ	-10750
▁ਅਵਰ	-10751
▁ਨੋਕ	-10752
▁ਟੇਬਲ	-10753
▁ਤੀਆਂ	-10754
ਗੁਲਾਮੀ	-10755
▁ਜਿੰਦਾ	-10756
▁ਮਿ੍ਤਕ	-10757
▁ਕੁਇੰਟਲ	-10758
▁ਖਜ਼ਾਨਾ	-10759
▁ਲਗਾਉਣਾ	-10760
ram	-10761
ਰਾਈਲ	-10762
▁ਕੀਆ	-10763
▁ਥਿਊ	-10764
▁ਘਾਤਕ	-10765
▁ਬਦਮਾ	-10766
▁ਸ਼ੁੱਭ	-10767
▁ਪ੍ਰੰਪਰਾ	-10768
▁ਵਰਨਣਯੋਗ	-10769
▁ਤੁਹਾਡੀਆਂ	-10770
/11	-10771
ਫ਼ਾਨ	-10772
▁ਹੰਢਾ	-10773
▁ਕਿੱਤਾ	-10774
▁ਬਾਜ਼ੀ	-10775
▁ਖੋਲ੍ਹਿਆ	-10776
▁ਮਲੇਸ਼ੀਆ	-10777
▁ਪਾਰਬ੍ਰਹਮ	-10778
▁ਆਹਲੂਵਾਲੀਆ	-10779
ਭੱਗ	-10780
ਾਂਗਾ	-10781
▁ਫ਼ੈ	-10782
▁ਰਚੀ	-10783
ਪੱਛਮੀ	-10784
▁ਉੱਧਰ	-10785
▁ਖੰਡੇ	-10786
▁ਨੀਲਮ	-10787
ਬੁਕਾਕੇ	-10788
▁ਦਾਖਲੇ	-10789
▁ਖਿਲਵਾੜ	-10790
▁ਮਲਹੋਤਰਾ	-10791
▁ਸਾਹਿਬਾਨਾਂ	-10792
ੱਈਆ	-10793
▁ਬੀਬਾ	-10794
▁ਖੋਲ੍ਹੇ	-10795
▁ਬਿਰਤਾਂ	-10796
▁ਅੰਗ੍ਰੇਜ਼ੀ	-10797
rom	-10798
▁67	-10799
ਿਸਟਰ	-10800
▁ਭੂੰ	-10801
▁ਮੁਤ	-10802
▁ਚੇਲੇ	-10803
▁ਰਾਤੀ	-10804
▁ਲਖਨਊ	-10805
▁girls	-10806
▁ਛੇਵੀਂ	-10807
▁ਦਸਤਖਤ	-10808
▁ਤਜਵੀਜ਼	-10809
▁ਬਖ਼ਸ਼ਿਸ਼	-10810
ਟੈਕ	-10811
ਡਰਨ	-10812
ਤਿਨ	-10813
ਬਿਨ	-10814
ਲੀਅਮ	-10815
▁ਸਟੋ	-10816
ਧਾਮਾਂ	-10817
ਕਾਹਲੋਂ	-10818
▁ਕਮਾਂਡ	-10819
▁ਤਿੱਖੇ	-10820
▁ਦਰੱਖਤ	-10821
▁ਇੰਸਟਾਗ੍ਰਾਮ	-10822
ਮੂਰ	-10823
▁ਮਚਾ	-10824
▁ਵਰਣ	-10825
▁ਅਸੂਲ	-10826
▁ਉਧਾਰ	-10827
▁ਖੁਰਾ	-10828
▁ਜੌੜਾ	-10829
▁ਬੱਬੂ	-10830
▁ਸ਼ਗਨ	-10831
▁ਮਿੰਟੂ	-10832
▁ਤਾਕਤਵਰ	-10833
ਆਤ	-10834
▁ਫ੍ਰ	-10835
▁ਮਿਤ	-10836
▁ਪੁਰਤ	-10837
▁ਸਰਵੋ	-10838
▁ਲਾਲਸਾ	-10839
▁ਤਸਕਰਾਂ	-10840
▁ਮੁਲਾਂਕਣ	-10841
Otslaivanie	-10842
.9	-10843
/-	-10844
ਚਿੱ	-10845
ਜੁਗ	-10846
ਇਟਲੀ	-10847
▁ਫ਼ੀ	-10848
▁ਤਗਮੇ	-10849
▁ਫੈਂਸ	-10850
ਵਿਕਾਰਾਂ	-10851
▁ਜ਼ਿੰਦਾ	-10852
▁ਰਹਿਨੁਮਾਈ	-10853
ਅਕਾਲ	-10854
ਕੰਬਦੇ	-10855
੍ਰਿਤੀ	-10856
▁ਰਹੱਸ	-10857
▁ਬਾਈਬਲ	-10858
▁ਮਾਨਵੀ	-10859
▁ਕਾਰਪੋਰੇਟ	-10860
▁ਲੋੜਵੰਦਾਂ	-10861
ਉਤ	-10862
ਊਦ	-10863
1).	-10864
ਮਾਰਕ	-10865
ਰੂਸੀ	-10866
▁ਅਟਲ	-10867
▁ਵਜੀ	-10868
▁ਪੁੱਲ	-10869
▁ਲਿਟਰ	-10870
▁ਵਸੋਂ	-10871
▁ਕਲਾਸਾਂ	-10872
▁ਟਿਵਾਣਾ	-10873
▁ਹੁਕਮਰਾਨ	-10874
ਜਿਨ	-10875
ਸ਼ਮ	-10876
▁al	-10877
ਡੀਪੀ	-10878
▁ਭਗੌ	-10879
▁ਮਿਜ਼	-10880
▁ਸਿਧਾ	-10881
▁ਸੁਆਹ	-10882
▁ਤਾਂਕਿ	-10883
▁ਮਿਸ਼ਰ	-10884
▁ਵਿਚਾਰਨ	-10885
▁ਕੁੱਤਿਆਂ	-10886
▁ਫਤਿਹਗੜ੍ਹ	-10887
ਵਧੂ	-10888
rypt	-10889
ਅਨਾਂ	-10890
ਬਿਧਾ	-10891
▁ਬਲਿ	-10892
▁ਕਲਗੀ	-10893
▁ਕਾਫ਼	-10894
▁ਤੜਕੇ	-10895
▁ਦੀਵਾ	-10896
▁ਹਿੱਲ	-10897
ਇਨ੍ਹਾਂ	-10898
ਪ੍ਰਤਾਪ	-10899
▁ਭੁੱਖੇ	-10900
▁ਹਿਲੇਰੀ	-10901
▁ਚੁਣੌਤੀਆਂ	-10902
▁ਵਿਕੀਪੀਡੀਆ	-10903
ਡਬਲ	-10904
Read	-10905
▁ਓਨਾ	-10906
▁ਖੱਡ	-10907
▁ਲਾਡ	-10908
▁ਵਿਚੋ	-10909
▁ਇਤਹਾਸ	-10910
▁ਅਨੁਪਾਤ	-10911
▁ਸਟੂਡੈਂਟਸ	-10912
ਬਾਬ	-10913
ਸਪੈ	-10914
over	-10915
ਢਿਆਂ	-10916
▁ਇਨਾ	-10917
▁ਲੈਬ	-10918
ਸੂਰਤੀ	-10919
▁ਖੜਕਾ	-10920
▁ਸਾਕਾ	-10921
ਸੁਰਜੀਤ	-10922
▁ਇੰਨਾਂ	-10923
▁ਚਲਾਣਾ	-10924
▁ਬੋਲਾਂ	-10925
▁ਨਿਰਦੋਸ਼	-10926
▁ਨਿਸ਼ਾਨੀ	-10927
sh	-10928
ਮੁਹ	-10929
ੋਂਗ	-10930
ਜੀਵੀ	-10931
▁ਰੁਖ	-10932
▁ਮਨੋਜ	-10933
▁ਵਜੂਦ	-10934
2).	-10935
▁-”	-10936
▁ਓਪ	-10937
▁ਸੀਲ	-10938
▁ਕੋਲੇ	-10939
▁ਇਹਨੂੰ	-10940
▁ਗੋਲਡੀ	-10941
▁ਦਿਸਦਾ	-10942
▁ਜਿਉਂਦੇ	-10943
▁ਰੋਟੀਆਂ	-10944
▁ਹਰਕਤਾਂ	-10945
________	-10946
▁ਸਮਾਰਟਫੋਨ	-10947
▁ਸੰਵਿਧਾਨਕ	-10948
▁ਭਿੱਖੀਵਿੰਡ	-10949
ue	-10950
ਅਹਿ	-10951
ਵਰਤ	-10952
੍ਰਤ	-10953
ਐਸਟੀ	-10954
▁ਹੱਟ	-10955
ਕੱਟਦਾ	-10956
▁ਛਾਪਾ	-10957
▁ਜਨਮੁ	-10958
▁ਮਾਨਸ	-10959
▁ਲਾਪਰ	-10960
▁ਨੋਟਾਂ	-10961
▁ਬਣੇਗਾ	-10962
▁ਜ਼ਿਮਨੀ	-10963
▁ਸੁਖਚੈਨ	-10964
▁ਸਿਮਰਜੀਤ	-10965
▁ਸੰਭਾਲਿਆ	-10966
ਸੁਰਿੰਦਰਪਾਲ	-10967
ਸਟਨ	-10968
▁ਲਫ	-10969
▁ਡੈਨ	-10970
▁ਤੀਹ	-10971
▁ਨੀਂ	-10972
▁ਡਰਾਇ	-10973
▁ਬੁਰਾਈ	-10974
▁ਲਛ	-10975
ਜ਼ਿਕ	-10976
ਬੀਅਨ	-10977
ਬੀਤੇ	-10978
ਸ਼ਰੀ	-10979
▁ਕੀਰ	-10980
▁ਠੱਪ	-10981
▁ਤ੍ਰਾ	-10982
▁ਪਾਲੇ	-10983
▁ਸੂਚਕ	-10984
▁ਮੁੱਕੇ	-10985
▁ਲਗਾਈਆਂ	-10986
▁ਵਿਸ਼ਵਕਰਮਾ	-10987
ਲੌ	-10988
ੈਲੋ	-10989
▁le	-10990
ਪੁਣੇ	-10991
ਪੋਰਨ	-10992
▁Nov	-10993
▁ਕੱਤ	-10994
▁ਤੁਕ	-10995
▁ਬੁਢ	-10996
▁ਕੰਢੀ	-10997
▁ਰਿਆਸਤ	-10998
▁ਸਿਆਣਪ	-10999
▁ਨਜ਼ਰੀਏ	-11000
▁ਨਿਮਰਤਾ	-11001
ਜਿਤ	-11002
▁ਈਰ	-11003
form	-11004
ਆਤਮਕ	-11005
▁ਅਵਿ	-11006
▁ਆਸਿ	-11007
▁ਧੜਾ	-11008
▁ਇਰਾਨ	-11009
▁ਮੈਸੇ	-11010
▁ਟਿੱਬਾ	-11011
▁ਕੁਲਬੀਰ	-11012
▁ਵਾਰਡਾਂ	-11013
▁ਹਰਦਿਆਲ	-11014
▁ਦਹਿਸ਼ਤਗਰ	-11015
▁ਰਾਜਵਿੰਦਰ	-11016
▁ਡਿਵੈਲਪਮੈਂਟ	-11017
▁Goo	-11018
▁ਕਰੂ	-11019
▁ਜੀਓ	-11020
▁ਸਨੇ	-11021
▁ਸੇਲ	-11022
▁ਨਿਵਾਜ	-11023
▁ਸਟਰੀਟ	-11024
▁ਟਿਕਾਣਾ	-11025
▁ਖੁਸ਼ਹਾਲ	-11026
▁ਸੰਤੁਸ਼ਟ	-11027
-11	-11028
ਕੋਡ	-11029
ਸਾਜ	-11030
ੋਕਾ	-11031
ਧਿਆਂ	-11032
▁ਜੇਠ	-11033
▁ਡੱਬ	-11034
▁ਬਗਾ	-11035
ਅਸ਼ੋਕ	-11036
ਨੀਕਾਂ	-11037
▁ਟੀਕੇ	-11038
▁ਮਾਦਾ	-11039
▁ਸੇਠੀ	-11040
▁ਖੁੱਲੇ	-11041
▁ਕਰਮਕਾਂ	-11042
▁ਤਸ਼ੱਦਦ	-11043
▁ਨਰਸਿੰਗ	-11044
▁ਅਪਰੇਸ਼ਨ	-11045
▁ਲੋੜੀਂਦਾ	-11046
▁ਸਮਾਜਵਾਦੀ	-11047
ED	-11048
gle	-11049
▁ਫਿੱ	-11050
ating	-11051
▁ਅਲੋਪ	-11052
▁ਦਲੀਲਾਂ	-11053
▁ਵਿਆਹਾਂ	-11054
▁ਅਫ਼ਰੀਕਾ	-11055
▁ਮਜ਼ਦੂਰੀ	-11056
▁ਹੁਕਮਨਾਮਾ	-11057
▁ਬ੍ਰਹਮਪੁਰਾ	-11058
ਗੇਡ	-11059
ਗੰਜ	-11060
ਵਿਲ	-11061
ਹਿਲੀ	-11062
▁ਗੇਮ	-11063
▁ਲਾਮ	-11064
▁ਕਲਚਰ	-11065
▁ਪੰਨੂ	-11066
▁ਡੀਜੀਪੀ	-11067
▁ਸਮਰਾਲਾ	-11068
43	-11069
ਮੂਲ	-11070
ਾਨਿਕ	-11071
▁ਠੰਢ	-11072
▁ਸੋਇ	-11073
▁ਖੰਡਨ	-11074
▁ਤਬਾਦ	-11075
▁ਗਾਇਕਾ	-11076
▁ਮਾਲਵੇ	-11077
▁ਕਿਸ਼ੋਰ	-11078
▁ਤੇਜਿੰਦਰ	-11079
▁ਅਹੁਦੇਦਾਰ	-11080
▁ਪ੍ਰਵਾਸੀਆਂ	-11081
▁ਓਟ	-11082
ਸੰਦੀ	-11083
▁ਗਲਾ	-11084
ਬਿੰਦਰ	-11085
▁ਤਿਹਾ	-11086
▁ਰੁਝੇ	-11087
▁ਲੀਲਾ	-11088
▁ਟੁਕੜੇ	-11089
▁ਭਰੋਸੇਯੋਗ	-11090
kal	-11091
ਆਸਾ	-11092
ਸਿਸ	-11093
ਬਾਰੇ	-11094
▁ਵ੍ਹ	-11095
▁ਕੂੜਾ	-11096
▁ਹੋਸ਼	-11097
▁ਇਕੱਲੀ	-11098
▁ਬੁਲਾਈ	-11099
▁ਮਨੀਸ਼	-11100
▁ਸਾਂਸਦ	-11101
▁ਅਪਣਾਉਣ	-11102
▁ਯੂਨੀਵਰ	-11103
▁ਸ਼ੀਸ਼ੇ	-11104
▁ਬਹੁਤੀਆਂ	-11105
ne	-11106
ਇਰਸ	-11107
ਣਤਾ	-11108
▁600	-11109
▁ਮੁਸ	-11110
ਜਲੰਧਰ	-11111
▁ਟਾਵਰ	-11112
▁ਲੰਘਣ	-11113
▁ਸਟਾਕ	-11114
▁ਸੁਣੋ	-11115
▁ਸੁੱਕ	-11116
▁ਤਿਵੇਂ	-11117
▁ਅਨਪੜ੍ਹ	-11118
▁ਬੂਟਿਆਂ	-11119
▁ਮਨਿੰਦਰ	-11120
.6	-11121
▁ਢੇ	-11122
ਘਰਾਂ	-11123
ਤੁਰਕ	-11124
▁ਵੈਰ	-11125
▁ਹਿਊ	-11126
▁ਚਾਦਰ	-11127
▁ਪਾਸਾ	-11128
▁ਮਰਦਾ	-11129
ਾਲੀਵੁਡ	-11130
▁ਨਿਕਾਸੀ	-11131
▁ਪ੍ਰੋਸੈਸ	-11132
▁ਸ਼ਾਂਤਮਈ	-11133
▁ਪ੍ਰਸਿੱਧੀ	-11134
ਡੈ	-11135
ਫਿਊ	-11136
▁੧੫	-11137
ਖ਼ਸ਼	-11138
▁ਖਿੜ	-11139
▁ਭਜਾ	-11140
▁ਆਸਾਰ	-11141
▁ਜੈਸੇ	-11142
▁ਮੈਕਸ	-11143
▁ਡੇਵਿਡ	-11144
▁ਨੀਵਾਂ	-11145
.”	-11146
ale	-11147
ੁੰਡ	-11148
▁ਰੀਸ	-11149
bians	-11150
ਦਾਦਾਂ	-11151
ਸਰਿਆਂ	-11152
▁ਅਰਪਣ	-11153
▁ਆਕਸੀ	-11154
▁ਚੋਣਾ	-11155
▁ਡਰਦੇ	-11156
▁ਭਾਵੈ	-11157
▁ਰਾਧਾ	-11158
▁ਕਾਲੀਆ	-11159
▁ਕੰਬੋਜ	-11160
▁ਥੀਏਟਰ	-11161
▁ਨਿਕਲੀ	-11162
▁ਵਿਸ਼ਨ	-11163
▁ਪੈਂਦੀਆਂ	-11164
▁ਮੰਤਰਾਲਾ	-11165
ਨਿਰਦੇਸ਼ਾਂ	-11166
▁ਨਿਰੰਕਾਰੀ	-11167
▁ਫੋਟੋਗ੍ਰਾ	-11168
27	-11169
Emo	-11170
ਚੋਲ	-11171
ਟ੍ਰ	-11172
ਬਾਜ	-11173
▁125	-11174
▁ਗੰਜ	-11175
▁ਧਾਮ	-11176
▁ਬੇਲ	-11177
▁ਲੀਕ	-11178
▁ਕੁੰਭ	-11179
▁ਚਾਲੀ	-11180
▁ਚੁਕੀ	-11181
▁ਭਾਂਤ	-11182
▁ਮਲੇਰ	-11183
▁ਲੱਕੀ	-11184
▁ਸੂਖਮ	-11185
▁ਵਿਚਲਾ	-11186
ਮਨਪ੍ਰੀਤ	-11187
▁ਪੰਜਵੀਂ	-11188
▁ਅਪਰਾਧਿਕ	-11189
▁ਦੁਰਘਟਨਾ	-11190
▁ਕਰਵਾਉਂਦੇ	-11191
▁ਧੱਕੇਸ਼ਾਹੀ	-11192
▁ਬੱਲੇਬਾਜ਼ੀ	-11193
ਇੱ	-11194
ੌਲਾ	-11195
▁ਉਭ	-11196
▁ਗਤ	-11197
ਬਬਲੂ	-11198
▁ਚੜਾ	-11199
▁ਧਨੁ	-11200
▁ਪਿਸਤ	-11201
▁ਸੁਣੇ	-11202
▁ਸੰਗਮ	-11203
▁Share	-11204
▁ਲਿਆਂਦੇ	-11205
▁ਸਲੋਕਾਂ	-11206
▁ਲਉ	-11207
▁ਕੋਲ਼	-11208
▁ਗੋਰਾ	-11209
▁ਦੇਕੇ	-11210
▁ਪੈਟਰ	-11211
▁ਭਾਣਾ	-11212
▁ਧਾਰੀਵਾਲ	-11213
▁ਲੈਕਚਰਾਰ	-11214
ਕੁੱਲ	-11215
▁ਆਜਾ	-11216
▁ਟੈਨ	-11217
ਤਾਬਿਕ	-11218
ਨੇਸ਼ਨ	-11219
▁ਕਲਸੀ	-11220
▁ਦੁੱਗ	-11221
▁ਭਾਸ਼	-11222
▁ਵੰਡੀ	-11223
▁ਸਾਈਨ	-11224
ਨਰਿੰਦਰ	-11225
▁ਦਸਵੇਂ	-11226
▁ਯੂਨਾਈ	-11227
▁ਸੁੱਟਿਆ	-11228
▁ਸੇਵਕਾਂ	-11229
▁ਹਜਾਰਾਂ	-11230
▁ਭਾਈਚਾਰਕ	-11231
▁ਸ਼ਖ਼ਸੀਅਤਾਂ	-11232
oth	-11233
ਜੰਮ	-11234
ਮਰੀ	-11235
ਜੇਕਰ	-11236
ਲ੍ਹਾ	-11237
▁144	-11238
▁ਅਚਨ	-11239
▁ਕਨਵ	-11240
▁ਦਾਗ	-11241
▁ਪਤਨ	-11242
▁ਹੂੰ	-11243
▁ਉੱਕਾ	-11244
▁ਏਰੀਆ	-11245
▁ਚਰਬੀ	-11246
▁ਮੂਸਾ	-11247
▁ਵਿਸੇ	-11248
▁ਨਵਦੀਪ	-11249
▁ਸਰਹਿੰਦ	-11250
▁ਸਾਵਧਾਨ	-11251
erv	-11252
ਗੰਧ	-11253
ਜਗਤ	-11254
▁ਛੀ	-11255
▁ਪਉ	-11256
▁ਨਾਉ	-11257
ਅੰਗਰੇ	-11258
ਹਾਬਾਦ	-11259
▁ਕਾਮਾ	-11260
▁ਧੋਖੇ	-11261
▁ਮੈਨੀ	-11262
▁ਗਿੱਧਾ	-11263
!"	-11264
ਚਣ	-11265
ਲਟੀ	-11266
▁ਛੇਕ	-11267
▁ਕਾਬਜ਼	-11268
▁ਮੌਕਿਆਂ	-11269
▁ਵਿਰਾਸਤੀ	-11270
▁ਪ੍ਰਕ੍ਰਿਆ	-11271
ਣੈ	-11272
ਰਿਟੀ	-11273
▁ਭੇਖ	-11274
▁ਹੋਂ	-11275
▁Porn	-11276
▁ਕਾਰੀ	-11277
▁ਵਕਾਲ	-11278
ਨਾਈਲੋਨ	-11279
▁ਬੇਸ਼ਕ	-11280
▁ਕੇਸਗੜ੍ਹ	-11281
▁ਸਦਭਾਵਨਾ	-11282
▁ਸੁਪਨਿਆਂ	-11283
ਅਤਿ	-11284
▁ਆਲੀ	-11285
▁ਗਰੁ	-11286
▁ਜਹਾਂ	-11287
▁ਜਿਊਣ	-11288
▁ਸਕੀਏ	-11289
▁ਵਿੱਖੇ	-11290
▁ਸਟਾਈਲ	-11291
▁ਆਰਗੇਨਾਈ	-11292
▁ਖੁਸ਼ਹਾਲੀ	-11293
ਨੂੜ	-11294
ਮੇਨ	-11295
▁ਇਮ	-11296
aily	-11297
ਜਾਰੀ	-11298
▁ਆਲਾ	-11299
▁ਫਿ਼	-11300
▁ਗਠਿਤ	-11301
ਖ਼ਤਿਆਰ	-11302
▁ਗਰਲਜ਼	-11303
▁ਸੱਕਦੇ	-11304
▁ਅਪਰਾਧੀ	-11305
▁ਦਿਨੇਸ਼	-11306
▁ਬ੍ਰਾਂਚ	-11307
▁ਮੱਲ੍ਹੀ	-11308
▁ਰਾਜਦੂਤ	-11309
▁ਸਰੋਤਾਂ	-11310
▁ਹਰਮਨਪ੍ਰੀਤ	-11311
ਿਡ	-11312
ਸਨੀ	-11313
▁ਆਕੇ	-11314
▁ਟਾਹ	-11315
▁ਪਸੀ	-11316
ਵਲਜੀਤ	-11317
▁ਫਿੱਟ	-11318
▁ਕਰੰਸੀ	-11319
▁ਹਨੇਰੀ	-11320
▁ਲਾਇਸੈਂਸ	-11321
▁ਤਿਉਹਾਰਾਂ	-11322
ock	-11323
▁ਲਹ	-11324
▁ਨੀਚ	-11325
▁ਜਾਮੇ	-11326
▁ਨੀਲਾ	-11327
▁ਬਾਗੀ	-11328
▁ਰਖਦੇ	-11329
▁ਸਜਾਏ	-11330
▁ਸੀਤਾ	-11331
▁ਹਾਨੀ	-11332
ਜੀਵੀਆਂ	-11333
▁ਦੁਸ਼ਮ	-11334
▁ਨਿਵਾਰ	-11335
▁ਪਾਂਡੇ	-11336
▁ਪੈਰੀਂ	-11337
▁ਵੀਡਿਓ	-11338
▁ਸਕਾਲਰ	-11339
▁ਸ਼ੰਕਰ	-11340
▁ਸੁੱਖੀ	-11341
▁ਦੁਬਿਧਾ	-11342
▁ਰੱਖੀਆਂ	-11343
▁ਸਤਵਿੰਦਰ	-11344
▁ਹੁਕਮਰਾਨਾਂ	-11345
▁ਜੱਥੇਬੰਦੀਆਂ	-11346
3).	-11347
:30	-11348
▁800	-11349
▁ਖਾਈ	-11350
▁ਬਲੂ	-11351
ਿਸਟਰੀ	-11352
▁ਉਸਾਰ	-11353
▁ਚਾਚਾ	-11354
▁ਦਾਊਦ	-11355
▁ਪ੍ਰਕਾ	-11356
▁ਬਦਲਦੇ	-11357
Vintage	-11358
▁ਸਰੀਰਾਂ	-11359
▁ਦਸ਼ਮੇਸ਼	-11360
ਮੇਟ	-11361
ਿਫ਼	-11362
▁77	-11363
▁qu	-11364
▁ਤਤ	-11365
▁ਭਵ	-11366
▁ਕੈਰ	-11367
▁ਤੂਰ	-11368
▁ਸਤਰ	-11369
▁ਬਾਲਗ	-11370
▁ਮਾਫੀ	-11371
▁ਗਾਰਡਨ	-11372
▁ਪੁਰਾਣ	-11373
▁ਪੁਲਾੜ	-11374
▁ਬ੍ਰਹਿ	-11375
▁ਮਿੱਠੀ	-11376
▁ਮੱਲਾਂ	-11377
▁ਸੱਕਦਾ	-11378
▁ਏਜੰਟਾਂ	-11379
▁ਤਿਵਾੜੀ	-11380
▁ਗ਼ਜ਼ਲਾਂ	-11381
ੈਦ	-11382
ਜਨਮ	-11383
▁9,	-11384
▁ਸੈਮ	-11385
ਵਿਚਾਰ	-11386
▁ਕਾਇਆ	-11387
▁ਲੈਵਲ	-11388
▁ਤਾਰਾਂ	-11389
esbians	-11390
ਵਿਸ਼ੇਸ਼	-11391
▁ਦੇਵਾਂਗੇ	-11392
▁ਭ੍ਰਿਸ਼ਟ	-11393
▁ਕਾਂਗਰਸੀਆਂ	-11394
gur	-11395
▁ਉਛ	-11396
ਚਾਰੂ	-11397
ਤੀਨੀ	-11398
▁ਤਗ਼	-11399
▁ਤਸੀ	-11400
▁ਅਰਾਮ	-11401
▁ਇਕਦਮ	-11402
▁ਰੈਫਰ	-11403
▁ਵਰਜਨ	-11404
▁ਅੰਕੜਾ	-11405
▁ਅੰਤਰਿ	-11406
▁ਮੈਰਿਟ	-11407
▁ਦੁਨਿਆਵੀ	-11408
▁ਲੁਧਿਆਣੇ	-11409
▁ਸ਼ਖਸੀਅਤ	-11410
ੳੁ	-11411
ਤੋੜ	-11412
play	-11413
▁ਕਿ੍	-11414
▁ਮਾਨੋ	-11415
▁ਲੋਕੀ	-11416
▁ਵਕਾਲਤ	-11417
▁ਮਿਲਣਗੇ	-11418
▁ਮੱਛੀਆਂ	-11419
▁ਫ਼ੁਰਮਾਉਂਦੇ	-11420
ਮੌਰ	-11421
▁||	-11422
ਟੀਵਲ	-11423
ਪਰਟੀ	-11424
ਫੀਆਂ	-11425
ਭਾਗਾ	-11426
ਹੋਂਦ	-11427
▁Mar	-11428
▁ਅਵਾ	-11429
▁ਗਇਆ	-11430
▁ਪੰਧ	-11431
▁ਅਰਬੀ	-11432
▁ਬੱਤੀ	-11433
▁ਹਿਦਾ	-11434
▁ਨਮੂਨੇ	-11435
▁ਸਲਾਮੀ	-11436
▁ਗਹਿਰਾਈ	-11437
▁ਮੁਹਾਰਤ	-11438
▁ਲਾਇਸੰਸ	-11439
▁ਸਰਦੀਆਂ	-11440
▁ਪ੍ਰਫੁੱਲ	-11441
▁ਪ੍ਰਭਾਵੀ	-11442
▁ਮਹਾਰਾਣੀ	-11443
▁ਵਿਰੋਧਤਾ	-11444
▁ਸ਼ਰਮਨਾਕ	-11445
▁ਜਮਹੂਰੀਅਤ	-11446
man	-11447
ਮੋਰ	-11448
ਿਆਦ	-11449
▁76	-11450
▁ਓਨਟ	-11451
▁ਪੋਹ	-11452
▁ਮੱਖੀ	-11453
ਨੇਸ਼ੀਆ	-11454
▁ਟੁੱਟਣ	-11455
▁ਨੁਕਤਾ	-11456
▁ਫੇਲ੍ਹ	-11457
▁ਮਠਿਆਈ	-11458
▁ਮਾਣਿਆ	-11459
▁ਵੱਧਦੀ	-11460
▁ਕਮਾਂਡਰ	-11461
▁ਵਾਪਰੀਆਂ	-11462
▁ਸ਼ਾਹਰੁਖ	-11463
ld	-11464
li	-11465
ਦੂਨ	-11466
▁ex	-11467
▁ਤਖ	-11468
ਬਤਾਂ	-11469
▁your	-11470
▁ਤਾਲਾ	-11471
▁ਯੋਗੀ	-11472
▁ਸਨਅਤੀ	-11473
▁ਉਮੀਦਾਂ	-11474
▁ਜਥੇਬੰਦ	-11475
▁ਸਿਲੇਬਸ	-11476
hibition	-11477
▁ਇੰਨ੍ਹਾਂ	-11478
▁ਕ੍ਰਿਪਾਲ	-11479
▁ਬੁਢਲਾਡਾ	-11480
▁ਟੈਕਨਾਲੋਜੀ	-11481
ਘੂ	-11482
ਭਰਾ	-11483
ਿੱਦ	-11484
ਬਰਟਾ	-11485
▁Dev	-11486
▁ਚੱਟ	-11487
▁ਵਹਿਮ	-11488
▁ਹਾਮੀ	-11489
ਕੁਲਦੀਪ	-11490
ਧਾਰੀਆਂ	-11491
▁Maajh	-11492
▁ਸਿਧਾਰ	-11493
ਮੁਤਾਬਿਕ	-11494
▁ਦਿਲਬਾਗ	-11495
▁ਕਰਨਗੀਆਂ	-11496
▁ਪਹਿਲੂਆਂ	-11497
▁ਅਨੁਸ਼ਾਸਨ	-11498
be	-11499
ਯਮ	-11500
▁ਨਮੀ	-11501
▁ਬੇਦ	-11502
▁ਬਿਸਤ	-11503
▁ਸੋਚੀ	-11504
ਪਟਿਆਲਾ	-11505
ਮਨੁੱਖੀ	-11506
▁ਅਪਡੇਟ	-11507
▁ਅਪਲਾਈ	-11508
▁ਆਈਫੋਨ	-11509
▁ਕਦਮਾਂ	-11510
▁ਜਾਪਦੀ	-11511
▁ਸੋਮਿਆਂ	-11512
▁ਧਰਮਸ਼ਾਲਾ	-11513
▁ਗਿੱਦੜਬਾਹਾ	-11514
,(	-11515
▁58	-11516
▁ਧਨਾ	-11517
▁ਫੋਲ	-11518
▁ਅਕਾਰ	-11519
▁ਜਿਸੁ	-11520
▁ਦੁਆਰ	-11521
▁ਮੰਜੀ	-11522
▁ਹਾਰਟ	-11523
▁Times	-11524
▁ਪਰਲੋਕ	-11525
▁ਪੀਂਦੇ	-11526
▁ਸ਼ਿਮਲਾ	-11527
▁ਅਸਥਾਨਾਂ	-11528
ਬੇਸ	-11529
ਸਕੀ	-11530
ਸਰੋ	-11531
ਸਾਨੂੰ	-11532
▁ਨਰਮੇ	-11533
▁ਪੀਟਰ	-11534
▁ਬਨੂੜ	-11535
▁ਤੀਸਰੀ	-11536
▁ਬਲਰਾਜ	-11537
▁ਸਮਾਣਾ	-11538
▁ਦਰਦਨਾਕ	-11539
▁ਜਹਾਜ਼ਾਂ	-11540
▁ਵਿਵਾਦਾਂ	-11541
▁bl	-11542
ਗਮੋਹ	-11543
▁ਰਤਾ	-11544
▁ਸੀਨ	-11545
▁2001	-11546
▁ਪਨਾਹ	-11547
▁ਬੱਦਲ	-11548
ਦਿਲ੍ਡੋ	-11549
▁ਪੜ੍ਹਦਾ	-11550
▁ਮੁੱਢਲੇ	-11551
▁ਅੱਜਕਲ੍ਹ	-11552
ਬਿਲ	-11553
ਬਾਲਾ	-11554
ਿਲਾਸ	-11555
ਿਸ਼ਟ	-11556
▁ਐਪਲ	-11557
▁ਘੋਖ	-11558
▁ਤੰਦ	-11559
▁ਪਲਟ	-11560
▁ਕਾਉਂ	-11561
▁ਧੀਰਜ	-11562
▁ਪਾਗਲ	-11563
▁ਫਾਈਲ	-11564
▁ਬਨਾਮ	-11565
▁ਰੁਕਣ	-11566
ਪੁਰਾਣੇ	-11567
▁ਪਰਵਾਨ	-11568
▁ਸਿਆਣਾ	-11569
▁ਨਾਜ਼ੁਕ	-11570
ਰਾਸ	-11571
▁ਤਾਂਘ	-11572
▁ਨੰਗੀ	-11573
▁ਮੈਗਾ	-11574
▁ਰੀਤੀ	-11575
▁ਕਲੇਸ਼	-11576
▁ਜਾਹਿਰ	-11577
▁ਪਸੰਦੀ	-11578
▁ਬੁੱਢੇ	-11579
▁ਸਾਕਾਰ	-11580
ਿਆਂਵਾਲੀ	-11581
▁ਗੁਰਤੇਜ	-11582
sp	-11583
ਕਾਲਜ	-11584
ਿਅਾਂ	-11585
▁ਇਸਾਈ	-11586
▁ਟਰੇਨ	-11587
▁ਨਿਮਾ	-11588
▁ਨੇਕੀ	-11589
▁ਪਾਸ਼	-11590
▁ਬਿਰਧ	-11591
▁ਇਕਸਾਰ	-11592
▁ਜਾਵਾਂ	-11593
▁ਦਲਬੀਰ	-11594
▁ਲਵੇਗਾ	-11595
▁ਗੁਰੇਜ਼	-11596
▁ਸਿਰੋਪਾਓ	-11597
▁ਸੁਭਾਵਿਕ	-11598
▁ਅੰਤ੍ਰਿੰਗ	-11599
][	-11600
se	-11601
▁Z	-11602
ਗਮਨ	-11603
▁ਨਹ	-11604
▁ਆਡੀਓ	-11605
▁ਮੁਜਾ	-11606
▁ਰਣਵੀਰ	-11607
▁ਖਾਤਿਆਂ	-11608
▁ਸੁਸ਼ੀਲ	-11609
▁ਹਜ਼ਾਰਾ	-11610
▁ਪ੍ਰੋਟੀਨ	-11611
▁ਵਿਚਲੀਆਂ	-11612
▁ਪਾਤਿਸ਼ਾਹ	-11613
ਛੂ	-11614
ਛਾਂ	-11615
ਤੀਬ	-11616
ੱਸੀ	-11617
▁ਉਚਾ	-11618
ਗ੍ਰਹਿ	-11619
ਮਾਰਟਮ	-11620
▁ਘਾਟੇ	-11621
▁ਦਲਾਂ	-11622
▁ਸਦੱਸ	-11623
▁ਉਤਾਰਨ	-11624
▁ਕੋਸ਼ਿਸ	-11625
▁ਗਿਆਰਾਂ	-11626
▁ਮਾਰਕਿਟ	-11627
▁ਅਸਾਮੀਆਂ	-11628
ਰਡ	-11629
ਮੰਤ	-11630
▁|'	-11631
।[2]	-11632
ਸਾਗਰ	-11633
▁ਓਧਰ	-11634
▁ਤਖ਼	-11635
▁ਤਾੜ	-11636
▁ਨਿਭ	-11637
▁ਨੁੱ	-11638
▁ਵਸੂ	-11639
▁ਔਰੰਗ	-11640
▁ਗੋਲਕ	-11641
▁ਜਨਸੰ	-11642
▁ਪੀਰੀ	-11643
▁ਮਰਜੀ	-11644
▁ਮਾਛੀ	-11645
▁ਸਤਿਸ	-11646
▁ਨਿੱਕਲ	-11647
▁ਮਹਿਬੂ	-11648
▁ਰਾਜ਼ੀ	-11649
▁ਪ੍ਰਸਾਰਣ	-11650
▁ਪਰੇਸ਼ਾਨੀ	-11651
.7	-11652
unn	-11653
ਆਪਣਾ	-11654
ਵਾਰੇ	-11655
▁ਨਿਘ	-11656
▁ਸਿਹਰਾ	-11657
▁ਸੋਚਾਂ	-11658
▁ਇਸ਼ਾਰੇ	-11659
▁ਦਿਵਾਲੀ	-11660
▁ਪ੍ਰੀਤੀ	-11661
▁ਮੁਹੱਲੇ	-11662
▁ਮੁਜ਼ਾਹਰਾ	-11663
▁ਸੁਤੰਤਰਤਾ	-11664
▁ਦ੍ਰਿਸ਼ਟੀਕੋਣ	-11665
ਇਡ	-11666
ਸਮਝ	-11667
▁ਫੋ	-11668
▁ਵਗੈ	-11669
▁੨੦੧	-11670
ਫਾਈਨਲ	-11671
▁ਆਰਤੀ	-11672
▁ਕਰਹਿ	-11673
▁ਗਸ਼ਤ	-11674
▁ਬੱਚਤ	-11675
▁ਪਾਖੰਡ	-11676
▁ਰਾਮਾਂ	-11677
▁ਅਪਨਾਉਣ	-11678
▁ਨੈਟਵਰਕ	-11679
▁ਮੁਲਾਜਮ	-11680
▁ਦਾਦੂਵਾਲ	-11681
▁ਬ੍ਰਹਿਮੰਡ	-11682
▁ਪ੍ਰਤੀਕਿਰਿਆ	-11683
ਟੇਜ	-11684
ਬਿਆ	-11685
ਸੀਏ	-11686
▁ਜਖ਼	-11687
▁ਸਗਲ	-11688
▁ਕਿਲੇ	-11689
▁ਬਰਫ਼	-11690
▁ਭੇਟਾ	-11691
▁ਖਿੱਚਣ	-11692
▁ਟਿਕਿਆ	-11693
▁ਡਿਵਾਈ	-11694
▁ਨੁਕਤੇ	-11695
▁ਨੌਜੁਆ	-11696
▁ਗੁਜ਼ਾਰਾ	-11697
▁ਰਿਹਾਇਸ਼ੀ	-11698
hibitionist	-11699
ਫੋਟ	-11700
▁ਟੁ	-11701
▁ਨਈ	-11702
▁ਅਾਪ	-11703
▁ਸਨਾ	-11704
▁ਸੱਤੀ	-11705
▁ਹਾਰਨ	-11706
ਕਾਂਗਰਸ	-11707
▁ਵਿਉਂਤ	-11708
ਿਆਰਥੀਆਂ	-11709
▁ਸੰਬੰਧਾਂ	-11710
▁ਸੰਸਥਾਪਕ	-11711
▁ਗੁਰਧਾਮਾਂ	-11712
ਟੈਟ	-11713
ਜ਼ਿਟ	-11714
ਰਾਹਟ	-11715
▁ਚੂਹ	-11716
▁ਨਿਪ	-11717
▁ਸੂਟ	-11718
▁ਐਸਿਡ	-11719
▁ਜਾਈਏ	-11720
▁ਠਹਿਰ	-11721
▁ਥਾਈਂ	-11722
▁ਮੋਹਣ	-11723
▁ਲੰਘਾ	-11724
ਬਠਿੰਡਾ	-11725
▁ਅਰਜੁਨ	-11726
▁ਕ੍ਰਿਤ	-11727
▁ਬਦਕਿਸ	-11728
▁ਕੈਂਪਾਂ	-11729
▁ਕ੍ਰਿਸ਼	-11730
▁ਦਰਜਨਾਂ	-11731
▁ਪਾਉਂਦੀ	-11732
▁ਲੋਕਸਭਾ	-11733
▁ਵੇਖਦਿਆਂ	-11734
▁ਅਗਾਂਹਵਧੂ	-11735
▁ਨਾਗਰਿਕਤਾ	-11736
▁ਮ੍ਰਿਤਕਾਂ	-11737
Ex	-11738
ਂਗ	-11739
ory	-11740
ਘਾਟ	-11741
ਟਿਨ	-11742
ਮਾਸ	-11743
▁78	-11744
ਫ਼ਿਕ	-11745
▁ਕੱਚਾ	-11746
▁ਫਕੀਰ	-11747
▁ਫੌਂਟ	-11748
▁ਲੱਚਰ	-11749
▁https	-11750
▁ਦਿਨੋਂ	-11751
▁ਪਰਵਾਸ	-11752
▁ਲਾਂਘਾ	-11753
▁ਵਿਲੀਅਮ	-11754
▁ਸ਼ਰਮਾਂ	-11755
▁ਸ਼ੁਕਰਾ	-11756
▁ਉਤਰਾਖੰਡ	-11757
▁ਓਨਟਾਰੀਓ	-11758
▁ਤਨਖਾਹਾਂ	-11759
▁ਪ੍ਰਸਾਦਿ	-11760
▁ਸੰਬੋਧਿਤ	-11761
ਕਹਾ	-11762
▁6,	-11763
▁ਰਨ	-11764
▁ਆਪੁ	-11765
▁ਹੋਲ	-11766
▁ਐਚਡੀ	-11767
▁ਗੋਲਡਨ	-11768
▁ਪਾਇਲਟ	-11769
▁ਮਜੀਠਾ	-11770
▁ਵਧੀਆਂ	-11771
▁ਸੇਖਵਾਂ	-11772
▁ਇਸਤਰੀਆਂ	-11773
▁ਪਿਛਲੀਆਂ	-11774
▁ਸ਼ਮਸ਼ਾਨ	-11775
▁ਪ੍ਰਸ਼ੰਸਾ	-11776
ਬੀਨ	-11777
▁at	-11778
ਦੇਵਾ	-11779
ਵਿਕਾਸ	-11780
▁ਘੱਲੂ	-11781
▁ਜਿਤਾ	-11782
▁ਫ੍ਰੀ	-11783
▁ਸਚਿਨ	-11784
ਬੂਲੈਂਸ	-11785
▁ਹਫ਼ਤਾ	-11786
▁ਉਲੰਪਿਕ	-11787
▁ਕਰਾਉਣਾ	-11788
▁ਕਲੀਨਿਕ	-11789
▁ਵਾਂਗੂੰ	-11790
ਲੀਮੈਂਟਰੀ	-11791
▁ਸ੍ਰੇਸ਼ਟ	-11792
▁ਛੱਤੀਸਗੜ੍ਹ	-11793
▁ਵਿਸ਼ੇਸ਼ਤਾਵਾਂ	-11794
ਖਿਆਂ	-11795
ਜੀਕਲ	-11796
ਵਾਚਕ	-11797
▁ਉਚੀ	-11798
▁ਪੈਕ	-11799
▁ਬੂਝ	-11800
itsar	-11801
▁ਪਛਤਾ	-11802
▁ਸਿਰਿ	-11803
ਵਿਵਸਥਾ	-11804
▁ਸਿਲਵਰ	-11805
▁ਲੱਗਿਆਂ	-11806
▁ਸੁਚੱਜੇ	-11807
ਗੁਰਦੁਆਰਾ	-11808
▁ਸਰੋਕਾਰਾਂ	-11809
..?	-11810
ਾਂਗ	-11811
ਟਸਐਪ	-11812
ਦੀਕੀ	-11813
▁Ind	-11814
▁ਚੋਟ	-11815
▁ਜੀਊ	-11816
▁ਪੂਲ	-11817
▁ਰੂਟ	-11818
▁ੳੁਸ	-11819
▁ਉਠਾਏ	-11820
▁ਦਿਲਾ	-11821
▁ਪੀਪਲ	-11822
▁ਸਮਰਾ	-11823
▁ਸਹਿਬ	-11824
ਸ਼ਾਂਤੀ	-11825
▁ਅੰਕਿਤ	-11826
▁ਪੈਲੇਸ	-11827
ove	-11828
own	-11829
ਚੌਰ	-11830
ਕੱਛਾ	-11831
ਿਆਉਣ	-11832
▁ਅੱਲ	-11833
▁ਉਪਾਅ	-11834
▁ਖਾਰਜ	-11835
▁ਅੰਦਰਲੀ	-11836
▁ਬਹਾਦੁਰ	-11837
▁ਸ਼ਰਾਬੀ	-11838
▁ਬਿਰਤਾਂਤ	-11839
ਚਤ	-11840
6).	-11841
ਮੁੰ	-11842
ਸਟਾ	-11843
ਟਿਊਬ	-11844
ਪਿਆਰ	-11845
▁ਕੌਲ	-11846
▁ਸਬੂ	-11847
▁ਹੱਡ	-11848
▁ਮਹੌਲ	-11849
▁ਯੂਕੇ	-11850
▁ਲਗਾਓ	-11851
ਸਿੱਖਿਆ	-11852
▁ਕੱਪੜਾ	-11853
▁ਮੁਗ਼ਲ	-11854
▁ਰੋਜ਼ੀ	-11855
▁ਨਿਯੰਤਰ	-11856
▁ਪੋਸਟਾਂ	-11857
▁ਪੜ੍ਹਨਾ	-11858
▁ਬੇਇਨਸਾ	-11859
▁ਸਰਵੋਤਮ	-11860
▁ਮੋਰਿੰਡਾ	-11861
ਪੜੀ	-11862
ਿੱਥੇ	-11863
ੋਆਣਾ	-11864
▁ਤਰਲ	-11865
▁ਜਗਿਆ	-11866
▁ਤਿਉਂ	-11867
▁ਦਲੇਰ	-11868
ਾਂਵਾਲੀ	-11869
▁ਉੱਤਰਾ	-11870
▁ਬੌਧਿਕ	-11871
▁ਸਿਨਹਾ	-11872
▁ਨਿੰਦਿਆ	-11873
▁ਨਾਮਧਾਰੀ	-11874
ਛੜ	-11875
ਬਣ	-11876
ਕਿਊ	-11877
ਫਟੀ	-11878
ਫੇਰ	-11879
▁ਕੱਸ	-11880
▁ਜਲਾ	-11881
▁ਰਾਸ	-11882
ਮੀਡੀਆ	-11883
▁1999	-11884
▁ਜੀਆਂ	-11885
▁ਬੁੱਝ	-11886
▁ਭਾਰਦ	-11887
▁ਰਾਵੀ	-11888
▁ਲੁੱਕ	-11889
▁ਜਤਾਇਆ	-11890
▁ਡਰਾਮਾ	-11891
▁ਭਰਵੀਂ	-11892
▁ਭਾਂਵੇ	-11893
▁ਰੋਕਣਾ	-11894
ਸ਼ੀਲੀਆਂ	-11895
▁ਉਪਭੋਗੀ	-11896
▁ਪੁਆਇੰਟ	-11897
▁ਪੰਜਵਾਂ	-11898
▁ਮਹਿੰਗੀ	-11899
▁ਮਿਲਟਰੀ	-11900
▁ਮੈਬਰਾਂ	-11901
▁ਗਰੁੱਪਾਂ	-11902
▁ਪੀੜ੍ਹੀਆਂ	-11903
▁ਫ਼ਾਜ਼ਿਲਕਾ	-11904
ੱਮ	-11905
arb	-11906
ਣੀਆ	-11907
▁it	-11908
▁10,	-11909
▁2:2	-11910
▁ਭੂਆ	-11911
▁ਖੇੜਾ	-11912
▁ਜਹਾਨ	-11913
▁ਡਿਸਟ	-11914
▁ਰਾਇਲ	-11915
▁ਦੇਹਰਾ	-11916
▁ਪਨੀਰੀ	-11917
▁ਸਾਦਿਕ	-11918
▁ਫਾਇਰਿੰਗ	-11919
▁ਸ਼੍ਰੇਣੀਆਂ	-11920
▁x	-11921
ਵਿਦ	-11922
ਪਛਾਣ	-11923
ਹਾਣਾ	-11924
ਕਾਤਾਂ	-11925
▁ਉਪਜਾ	-11926
▁ਜਤਾਈ	-11927
▁ਸ਼ਾਟ	-11928
▁ਸੂਤਰ	-11929
▁ਸੰਗੀਤਕ	-11930
▁ਪ੍ਰਚਲਿਤ	-11931
ਬਾਇ	-11932
▁98	-11933
▁ਬੈਨ	-11934
▁ਅਰਸ਼	-11935
ੇਸ਼ਨਾਂ	-11936
▁ਇੰਦ੍ਰ	-11937
▁ਫਿਲੌਰ	-11938
▁ਹਿਤਾਂ	-11939
▁ਕੰਮਕਾਜ	-11940
▁ਦਿੰਦਿਆ	-11941
▁ਭੰਡਾਰੀ	-11942
▁ਥਾਈਲੈਂਡ	-11943
▁ਵਰ੍ਹੇਗੰਢ	-11944
▁ਪ੍ਰੋਡਕਸ਼ਨ	-11945
35	-11946
ਪਰਿ	-11947
▁9.	-11948
ਗ੍ਰੇ	-11949
▁ਈਸਵੀ	-11950
▁ਗੋਲਾ	-11951
▁ਨਾਮਿ	-11952
▁ਬੱਚਨ	-11953
▁ਵਜ਼ਨ	-11954
▁ਵਿਛਾ	-11955
▁ਢੰਗਾਂ	-11956
▁ਮਨਾਹੀ	-11957
▁ਕੌਾਸਲਰ	-11958
▁ਦਾੜ੍ਹੀ	-11959
▁ਕੀਰਤਪੁਰ	-11960
▁ਦਰਸਾਉਂਦਾ	-11961
ਕੰਧ	-11962
ਯਾਨ	-11963
ਜੇਸ਼	-11964
▁ਉਘੇ	-11965
▁ਕੋਠ	-11966
▁ਸਟਰ	-11967
▁ਓਪਰੇ	-11968
▁ਕਹਾਂ	-11969
▁ਬਾਡੀ	-11970
▁ਹਿੱਟ	-11971
▁ਚਰਚਿਤ	-11972
▁ਸਹੇਲੀ	-11973
ਅੰਦਾਜ਼ੀ	-11974
ਹਰਪ੍ਰੀਤ	-11975
▁ਕਿਰਪਾਨ	-11976
▁ਬਖਸ਼ਿਆ	-11977
▁ਲਫ਼ਜ਼ਾਂ	-11978
▁ਮੈਜਿਸਟ੍ਰੇਟ	-11979
ogg	-11980
▁un	-11981
ਦਪੁਰ	-11982
ਸ਼ਲਮ	-11983
rapon	-11984
ਤਰਿਆਂ	-11985
ਅੰਦਾਜ਼	-11986
▁ਪ੍ਰਸਤ	-11987
▁ਮਾਰਨਾ	-11988
▁ਇਜ਼ਹਾਰ	-11989
▁ਸ਼ਾਸਤਰ	-11990
▁ਰੋਡਵੇਜ਼	-11991
ਸਟੋਕਿੰਗਜ਼	-11992
▁ਇਤਿਹਾਸਕਾਰ	-11993
▁ਪ੍ਰਦੂਸ਼ਿਤ	-11994
ਥਰੀ	-11995
ਸੰਧ	-11996
ਨਿਸ਼	-11997
▁ਉੱਨ	-11998
▁ਲਿਪੀ	-11999
▁ਉਚਾਰਣ	-12000
▁ਪਿੰਕੀ	-12001
▁ਫਿਲਮੀ	-12002
▁ਨਿਜ਼ਾਮ	-12003
▁ਸੁਚਾਰੂ	-12004
▁ਮਿਊਜ਼ਿਕ	-12005
▁ਸੈਲਾਨੀਆਂ	-12006
ਹਨਤ	-12007
▁546	-12008
▁any	-12009
▁ਡੀਲ	-12010
▁ਵਾਦ	-12011
▁ਆਈਐਸ	-12012
▁ਗੁਰਿ	-12013
▁ਡੈਡੀ	-12014
▁ਤੁਧੁ	-12015
▁ਸਹਿਮ	-12016
▁ਭੂਗੋਲ	-12017
▁ਲਿਆਇਆ	-12018
▁ਵਾਂਝੇ	-12019
▁ਮਿਥਿਹਾਸ	-12020
ਵੇਲ	-12021
ated	-12022
▁ਲੜੇ	-12023
ਗੁਲਾਮ	-12024
ਿਸਟਾਂ	-12025
▁ਅਸਲਾ	-12026
▁ਏਡਜ਼	-12027
▁ਪੰਜੇ	-12028
▁ਰਹੀਆ	-12029
▁ਏਜੰਡੇ	-12030
▁ਕਾਲਕਾ	-12031
▁ਦੀਵਾਰ	-12032
▁ਵਾਲ਼ਾ	-12033
▁ਵਿਵੇਕ	-12034
▁ਇਕਾਈਆਂ	-12035
▁ਕਿਰਾਇਆ	-12036
▁ਲੁਟੇਰੇ	-12037
ੱਜਲ	-12038
▁ਪਾਉ	-12039
▁ਫਿਕ	-12040
▁ਰਹੁ	-12041
▁ਸੌਰ	-12042
ਵੈਦਿਕ	-12043
▁ਆਸ਼ੂ	-12044
▁ਇੰਟੈ	-12045
▁ਚਤੁਰ	-12046
▁ਚਿੜੀ	-12047
▁ਝੁਕਾ	-12048
▁ਦੁਖੁ	-12049
ਪਹਿਲਾਂ	-12050
▁ਠੱਲ੍ਹ	-12051
▁ਬਿੱਲੀ	-12052
▁ਸੁੱਤੇ	-12053
old	-12054
ਗਲੇ	-12055
ਰਾਓ	-12056
ਸੀਨ	-12057
▁96	-12058
▁pl	-12059
ਭੂਮੀ	-12060
inder	-12061
otica	-12062
ਵਾਈਆਂ	-12063
▁ਅਰਸੇ	-12064
▁ਕਲੇਰ	-12065
▁ਜਾਤਿ	-12066
▁ਸਿੰਧ	-12067
▁ਖੁਫੀਆ	-12068
▁ਪਾਪਾਂ	-12069
▁ਵੰਗਾਰ	-12070
▁ਸਿੰਧੂ	-12071
▁ਨਰੇਂਦਰ	-12072
▁ਵਿਛੋੜੇ	-12073
▁ਮੂਰਤੀਆਂ	-12074
▁ਜਾਇਦਾਦਾਂ	-12075
▁ਫਾਇਦੇਮੰਦ	-12076
▁ਦਸਤਾਵੇਜ਼ਾਂ	-12077
ib	-12078
ਮੂੰਹ	-12079
▁ਪਠਾ	-12080
▁ਪਤਰ	-12081
▁ਬੌਸ	-12082
▁ਸਲੇ	-12083
▁ਕਬਜਾ	-12084
▁ਘਾਟੀ	-12085
▁ਮਿਰਚ	-12086
▁ਗ੍ਰਿਹ	-12087
▁ਚਾਲਾਂ	-12088
▁ਚਿੱਟੀ	-12089
▁ਨਾਅਰਾ	-12090
▁ਨਿੰਬੂ	-12091
▁ਸਤਰਾਂ	-12092
▁ਘੁਟਾਲੇ	-12093
▁ਨਾਟਕਾਂ	-12094
▁ਰਾਏਪੁਰ	-12095
▁ਆਉਂਦਿਆਂ	-12096
▁ਪ੍ਰੋਫ਼ੈਸਰ	-12097
ਾਂਦਾ	-12098
▁ਘਿਓ	-12099
▁ਘੋਟ	-12100
▁ਟਾਇ	-12101
▁ਵਿੰ	-12102
▁ਨਿੱਘ	-12103
▁ਰੋਕੂ	-12104
▁ਆਗਾਜ਼	-12105
▁ਐਂਟਰੀ	-12106
▁ਧੂੰਆਂ	-12107
▁ਜਾਸੂਸੀ	-12108
▁ਵਿਚਾਰਾ	-12109
▁ਕਿੰਨੀਆਂ	-12110
▁ਮੇਜ਼ਬਾਨ	-12111
▁ਲਾਇਬਰੇਰੀ	-12112
▁ਗੁਰੂਦੁਆਰਾ	-12113
ਜੰਗ	-12114
ੈਸਟ	-12115
▁ਖਜ	-12116
ਸੰਗਤ	-12117
ੁਸਤੀ	-12118
▁ਕਾਫ	-12119
▁ਸਹਜ	-12120
-2018	-12121
ਨਾਨਗਰ	-12122
▁ਬਜਾਇ	-12123
▁ਸਿਆਲ	-12124
▁ਹਮਾਇ	-12125
▁ਫਰਿਜ਼	-12126
▁ਧੂਮਧਾਮ	-12127
▁ਮੈਂਨੂੰ	-12128
uk	-12129
ਸਲੋ	-12130
▁71	-12131
▁ਤਹ	-12132
▁ਨਰੋ	-12133
▁ਮੋਮ	-12134
▁ਰੀਤ	-12135
ਸ਼ਨਿਕ	-12136
▁1990	-12137
▁ਗੱਭਰੂ	-12138
▁ਜ਼ਮੀਰ	-12139
▁ਬੀਜਾਂ	-12140
▁ਰੁਪਿਆ	-12141
▁ਵਿਰਲਾ	-12142
▁ਪਾਸਿਓਂ	-12143
▁ਅਣਗਹਿਲੀ	-12144
▁ਪੋਸਟਮਾਰਟਮ	-12145
ਪਤਿ	-12146
।...	-12147
ਚਿੰਗ	-12148
ਸ਼ੁਦਾ	-12149
▁ਕਲਰਕ	-12150
▁ਚਹਿਲ	-12151
▁ਚਾਚੇ	-12152
▁ਮਿਲੈ	-12153
▁ਮੱਛਰ	-12154
▁ਰਾਵਤ	-12155
▁ਘੱਲੂਘ	-12156
▁ਮਾਸਿਕ	-12157
▁ਪਹਾੜਾਂ	-12158
▁ਵਿਛੋੜਾ	-12159
▁ਬਾਗਬਾਨੀ	-12160
▁ਨਸ਼ੀਲੀਆਂ	-12161
eep	-12162
ਮੋਟ	-12163
▁87	-12164
▁ਚਉ	-12165
▁ਛਕ	-12166
▁ਹੜ	-12167
ਸ਼ੋਭ	-12168
▁ਘੜੇ	-12169
▁ਸਚੇ	-12170
ਗਰੁੱਪ	-12171
ਸ਼ਕਾਂ	-12172
▁ਚਾਕੂ	-12173
▁ਛੱਡੇ	-12174
▁ਪਤਿਤ	-12175
▁ਹਰਚਰਨ	-12176
▁ਪ੍ਰਚੱਲ	-12177
▁18030004	-12178
ਅਫ਼	-12179
▁ਖੌ	-12180
▁ਔਖੀ	-12181
▁ਢੱਡ	-12182
▁1980	-12183
ਧਾਰਮਿਕ	-12184
▁ਅਜੇਹਾ	-12185
▁ਕਿਸ਼ਤ	-12186
▁ਕਾਪੀਆਂ	-12187
▁ਗਿਲਾਨੀ	-12188
▁ਨਿਕਲਦੇ	-12189
▁ਫ਼ੌਜਾਂ	-12190
▁ਸੌਂਪਿਆ	-12191
▁ਸਿਪਾਹੀਆਂ	-12192
▁ਟੈਲੀਵਿਜ਼ਨ	-12193
▁ਪ੍ਰੋਸੈਸਿੰਗ	-12194
▁ਕ੍ਰਾਂਤੀਕਾਰੀ	-12195
ਂਸ	-12196
ਯੇ	-12197
min	-12198
ਕੋਚ	-12199
ਲੇਡ	-12200
▁ਫਲਸ	-12201
▁ਮਾਇ	-12202
▁ਰਹਾ	-12203
▁ਡਰਦਾ	-12204
▁ਨਾਰਥ	-12205
▁ਮੰਦੇ	-12206
▁ਚੁਕਾਈ	-12207
▁ਨਾਰੰਗ	-12208
▁ਰੱਖਣੀ	-12209
▁ਬੁਨਿਆਦ	-12210
▁ਸਿਲੰਡਰ	-12211
▁ਬਦਕਿਸਮਤੀ	-12212
▁ਬ੍ਰਾਜ਼ੀਲ	-12213
RI	-12214
ਆਖ	-12215
ਪੱ	-12216
ਸਰਾ	-12217
▁(4	-12218
tain	-12219
▁ਬੁਕ	-12220
▁crypt	-12221
▁ਆਤਿਸ਼	-12222
▁ਕੋਸਿ਼	-12223
▁ਨਿਖਾਰ	-12224
▁ਪ੍ਰਿਯ	-12225
▁ਬੁਖਾਰ	-12226
▁ਰਿਵਾਜ	-12227
▁ਭੁਲੇਖੇ	-12228
▁ਰਾਜਪੂਤ	-12229
▁ਨਾਵਲਕਾਰ	-12230
▁ਵਿਧਾਨਸਭਾ	-12231
ਆਦਿ	-12232
ਕੀਆ	-12233
ਬਾਸ	-12234
ਬਿੱ	-12235
ਇੰਡੀ	-12236
ਸ਼ਹੀ	-12237
▁ਦੁਲ	-12238
▁ਸੇਠ	-12239
ਕਿਰਤੀ	-12240
ੈਜੂਏਟ	-12241
▁ਗੁੱਟ	-12242
▁ਨਾਰਾਇ	-12243
▁ਫਲਾਈਟ	-12244
▁ਰਿਪੋਰ	-12245
▁ਕਿਸ਼ਤੀ	-12246
▁ਭਾਈਵਾਲੀ	-12247
)—	-12248
4).	-12249
ਬੀਚ	-12250
ਵਹੁ	-12251
ਿਕੋ	-12252
ater	-12253
ਟੈਟੂ	-12254
▁ਟੁਰ	-12255
▁ਕਰਤੂ	-12256
▁ਜਾਣੋ	-12257
▁ਪੱਲਾ	-12258
▁ਥਿਊਰੀ	-12259
▁ਸਰਾਭਾ	-12260
▁ਕਾਮੇਡੀ	-12261
▁ਸੈਕਸ਼ਨ	-12262
▁ਅਧਿਆਤਮਕ	-12263
ana	-12264
ara	-12265
ਨਾਰ	-12266
ਪੱਕ	-12267
▁do	-12268
▁ਜੜ	-12269
▁ਇਕੁ	-12270
▁ਐਲਬ	-12271
▁ਜੋਕ	-12272
ਮਹਾਰਾ	-12273
▁ਠੰਢਾ	-12274
▁ਬਜਾਜ	-12275
▁ਭਾਣੇ	-12276
▁ਭਾਵੇ	-12277
▁ਲੰਘੇ	-12278
▁ਲੰਦਨ	-12279
ਕੈਨੇਡਾ	-12280
▁ਡੋਨਲਡ	-12281
▁ਲਖਵੀਰ	-12282
▁ਵਗੈਰਾ	-12283
▁ਇੰਤਜ਼ਾਮ	-12284
ਦਕਰ	-12285
ਟੀਨਾ	-12286
ਨੰਗਾ	-12287
▁ਕੰਡ	-12288
▁ਭੋਜ	-12289
ਸ਼ਟਿਕ	-12290
▁ਅਤੀਤ	-12291
▁ਛਾਇਆ	-12292
▁ਤਮਾਮ	-12293
▁ਫੈਸਲਿਆਂ	-12294
2-2	-12295
[2]	-12296
ਅੱਖ	-12297
▁ਥੇ	-12298
▁3:1	-12299
▁ਅਸਟ	-12300
▁ਬੇਈ	-12301
ਮਾਸਟਰ	-12302
▁ਚੇਤਨ	-12303
▁ਜਨਾਹ	-12304
▁ਬਲੌਗ	-12305
▁ਲਵਲੀ	-12306
▁ਲੈਣੇ	-12307
▁ਸਸਤੇ	-12308
▁ਟੈਕਸਟ	-12309
▁ਦਰਸਾਉਣ	-12310
▁ਦਿੱਸਦਾ	-12311
▁ਪਹਿਲੀਆਂ	-12312
▁ਸ਼ੁੱਧਤਾ	-12313
▁ਉਦਯੋਗਪਤੀ	-12314
▁ਪ੍ਰਤੀਨਿਧੀ	-12315
ਿਫ	-12316
ely	-12317
ple	-12318
ਿ੍ਹ	-12319
ਤੁਹਾ	-12320
ਮਾਹੀ	-12321
ਰਾਈਟ	-12322
▁ਰੇਖ	-12323
ਮੇਸ਼ਨ	-12324
▁ਬਾਲੀ	-12325
▁ਮਿੱਠ	-12326
▁ਰਚਿਆ	-12327
▁ਸਿਉਂ	-12328
▁ਹਸਤਾ	-12329
▁ਖੁਸ਼ਕ	-12330
▁ਜੱਟਾਂ	-12331
▁ਪਿੰ੍ਰ	-12332
▁ਮਾਰਕੇ	-12333
▁ਪਾਲਿਸੀ	-12334
▁ਕਾਰਜਕਾਰ	-12335
▁ਪਾਵਰਕਾਮ	-12336
ੇਕ	-12337
ਿੰਘ	-12338
ਸ਼ੋਰ	-12339
▁ਖੇਲ	-12340
ਸ਼ੀਸ਼	-12341
▁ਬੋਹਾ	-12342
▁ਮਕਸੂ	-12343
▁ਤੈਨਾਤ	-12344
▁ਤਨਦੇਹੀ	-12345
▁ਸਿਖਾਉਣ	-12346
▁ਸੰਸਥਾਨ	-12347
▁ਪ੍ਰੇਰਿਆ	-12348
▁ਭਾਰਦਵਾਜ	-12349
Exhibitionist	-12350
ose	-12351
ਰੀਓ	-12352
ਤਾਰੀ	-12353
ਨਵਾਂ	-12354
▁(5)	-12355
ਾਨਿਆਂ	-12356
▁ਚੰਨੀ	-12357
▁ਮਜ਼ੇ	-12358
ਵਿਰੋਧੀ	-12359
▁ਕਾਹਲੀ	-12360
▁ਵਾਇਰਸ	-12361
▁ਸਾਧਨਾ	-12362
▁ਗੁਮਰਾਹ	-12363
▁ਲਾਭਪਾਤ	-12364
▁ਟੈਲੀਫੋਨ	-12365
▁ਦੇਹਰਾਦੂਨ	-12366
▁ਨਿਸ਼ਾਨਦੇਹੀ	-12367
▁¢	-12368
-16	-12369
[1]	-12370
oun	-12371
▁(6	-12372
▁7,	-12373
▁ਗਿਣ	-12374
▁ਟੂਲ	-12375
▁ਮੱਚ	-12376
▁ਫਸਿਆ	-12377
ations	-12378
▁ਜ਼ਬਾਨ	-12379
▁ਜੰਮਪਲ	-12380
▁ਤੁਰਦਾ	-12381
▁ਨਿੱਘਾ	-12382
▁ਪਰਮਾਰ	-12383
▁ਪਾਠਾਂ	-12384
▁ਨਾਬਾਲਗ	-12385
▁ਪ੍ਰਵਾਣ	-12386
▁ਵਹਿਮਾਂ	-12387
▁ਧਰਮਿੰਦਰ	-12388
▁ਲਾਭਪਾਤਰੀਆਂ	-12389
▁ਸਾਹਿਤਕਾਰਾਂ	-12390
ਧੰਨ	-12391
ript	-12392
ਗਰੂਪ	-12393
▁ਕਲਕ	-12394
▁ਕਲਰ	-12395
▁ਜੂਸ	-12396
ਲਾਈਜ਼	-12397
▁ਅਨੁਰਾ	-12398
▁ਅਸਮਰਥ	-12399
▁ਫਰਜ਼ੀ	-12400
▁ਮਰੀਜਾਂ	-12401
ma	-12402
ਕਾਏ	-12403
ਜਿ਼	-12404
ਫਰੀ	-12405
▁ਅਹ	-12406
ਕਸੂਰ	-12407
ਸਟਾਰ	-12408
▁ਡਾਲ	-12409
ਦਰੀਆਂ	-12410
ਵੱਖਰੇ	-12411
▁ਕਰਮੀ	-12412
▁ਗੰਨੇ	-12413
▁ਟਰੇਡ	-12414
▁ਭੱਠਲ	-12415
▁ਰੀਅਲ	-12416
▁ਵਫ਼ਾ	-12417
ਅੰਮਿ੍ਤ	-12418
▁ਟੌਹੜਾ	-12419
▁ਕੇਮੇਰਾ	-12420
▁ਮੰਦਰਾਂ	-12421
▁ਰਜਿਸਟਰਾਰ	-12422
ੰਤੀ	-12423
ਮਹਾਂ	-12424
ਲਾਸੀ	-12425
ਲਿਟੀ	-12426
ੈਸ਼ੀ	-12427
▁ਥੰਮ	-12428
▁ਮੁਦ	-12429
▁ਇਜ਼ਾ	-12430
▁ਬੋਹੜ	-12431
▁ਅਖਾੜਾ	-12432
▁ਟੈਨਿਸ	-12433
▁ਮਾਂਗਟ	-12434
▁ਦਫਤਰਾਂ	-12435
▁ਪਿਸਤੌਲ	-12436
▁ਸਿਰਜਿਆ	-12437
▁November	-12438
▁ਖ਼ੂਬਸੂਰਤ	-12439
▁ਸੰਸਕ੍ਰਿਤੀ	-12440
ਕਦੀ	-12441
ਕਾਂਗ	-12442
ਜਗਾਰ	-12443
ਜੁੱਟ	-12444
ਬਖਸ਼	-12445
ਸਿਹਤ	-12446
ਹੁਤਾ	-12447
▁ਅਸਲੇ	-12448
▁ਚੁਣੀ	-12449
▁ਦੇਵੋ	-12450
▁ਨਕਸਲ	-12451
▁ਗੋਗਨਾ	-12452
▁ਲਿਬਰਲ	-12453
▁ਕਲਗੀਧਰ	-12454
▁ਖਪਤਕਾਰ	-12455
▁ਤਾਰੀਖ਼	-12456
▁ਵ੍ਹਾਈਟ	-12457
▁ਸੁਖਜੀਤ	-12458
▁ਲੈਂਦੀਆਂ	-12459
ਕੜੀ	-12460
ਟੋਰੀ	-12461
ਦਾਰਾ	-12462
▁ਅਤੀ	-12463
▁ਅਸੂ	-12464
▁ਅਸਿੱ	-12465
▁ਜਮਾਨ	-12466
▁ਦਾਖਾ	-12467
▁ਬੰਗਲ	-12468
▁ਲਾਇਨ	-12469
▁ਗਣਤੰਤਰ	-12470
▁ਡੂੰਘਾਈ	-12471
▁ਮਿੱਤਰਾਂ	-12472
▁ਇਲੈਕਟ੍ਰੋ	-12473
io	-12474
ich	-12475
ਟੇਅਰ	-12476
ਹਾਨੀ	-12477
ੋਹਰਾ	-12478
▁ਜੁਗਤ	-12479
▁ਬਾਬਰ	-12480
▁ਬੈੱਡ	-12481
▁ਲਿਫਾ	-12482
▁ਵਸਿਆ	-12483
▁ਸੋਚੋ	-12484
ritsar	-12485
▁ਜੇਹੜੇ	-12486
▁ਜੰਗਾਂ	-12487
▁ਮਹਿੰਦੀ	-12488
▁ਮੁਕੇਸ਼	-12489
▁8,	-12490
ਰਮੰਦ	-12491
ਾਰਥੀ	-12492
▁ਖੜੋ	-12493
▁ਧੋਣ	-12494
▁ਸਲੋ	-12495
ਵਾਹਾਂ	-12496
▁ਜਾਵੋ	-12497
▁ਦਸ਼ਾ	-12498
▁ਭਾਗੋ	-12499
▁ਸੰਕਲ	-12500
▁ਹਾਂਗ	-12501
▁ਹੈਰੀ	-12502
▁ਅਮਲਾਂ	-12503
▁ਅੰਦਰਿ	-12504
▁ਕਹਾਵਤ	-12505
▁ਤੁਕਾਂ	-12506
▁ਰੁਤਬਾ	-12507
▁ਸਰਜਰੀ	-12508
▁ਬ੍ਰਾਂਡ	-12509
▁ਵਿਖਾਉਣ	-12510
▁ਸਬੂਤਾਂ	-12511
▁ਮਿਊਜ਼ੀਅਮ	-12512
▁ਮਲੇਰਕੋਟਲਾ	-12513
▁my	-12514
...।	-12515
ਗੁਰੁ	-12516
ੂੰਹਦ	-12517
▁Mic	-12518
▁www	-12519
▁ਨਾੜ	-12520
▁ਵਾਗ	-12521
▁ਅਯੋਗ	-12522
▁ਆਗਮਨ	-12523
▁ਔਸਤਨ	-12524
▁ਗੁਆਚ	-12525
▁ਵਰੁਣ	-12526
▁ਸੰਘੀ	-12527
ਟੀਨੈਂਟ	-12528
▁ਅਵਾਰਾ	-12529
▁ਕੁੰਜੀ	-12530
▁ਮਾਜਰਾ	-12531
▁ਆਕਸੀਜਨ	-12532
▁ਕੁਲਜੀਤ	-12533
▁ਘੋਸ਼ਿਤ	-12534
▁ਬੀਜਿੰਗ	-12535
▁ਲੱਗਭੱਗ	-12536
▁ਵਸਨੀਕਾਂ	-12537
ਬਰਟ	-12538
ਵਿਸ	-12539
ਗਿਰੀ	-12540
ਸਮਤੀ	-12541
ੇਵਾਲ	-12542
ੈਨਿਕ	-12543
▁ਅਰਾ	-12544
▁ਚੀਜ	-12545
ਜਗਤਾਰ	-12546
▁ਛੁਪਾ	-12547
▁ਦਾਣੇ	-12548
▁ਪੋਰਟਲ	-12549
ਹਰਵਿੰਦਰ	-12550
▁ਅਚਨਚੇਤ	-12551
▁ਦਰਵੇਸ਼	-12552
▁ਹੋਵੋਗੇ	-12553
▁ਆਟੋਮੈਟਿਕ	-12554
ਨੋਆ	-12555
▁ਕਾਢ	-12556
▁ਘਰੁ	-12557
▁ਆਮਿਰ	-12558
▁ਉਗਰਾ	-12559
▁ਗੰਦਾ	-12560
▁ਲੱਡੂ	-12561
▁ਰਾਂਹੀ	-12562
ਹਰਮਿੰਦਰ	-12563
▁ਜੀਐਸਟੀ	-12564
▁ਪੂਜਨੀਕ	-12565
▁ਮਿਸ਼ਰਣ	-12566
▁ਰਿਪਬਲਿਕਨ	-12567
▁ਪ੍ਰਦਰਸ਼ਨਕਾਰੀਆਂ	-12568
ਗਉ	-12569
ਥਮ	-12570
ick	-12571
ਜਨਾ	-12572
ਜਾਲ	-12573
▁Se	-12574
ਿਆਰੀ	-12575
▁ਖਾਰ	-12576
▁ਜਿਮ	-12577
▁ਬੱਤ	-12578
ਇਕਬਾਲ	-12579
ਮਾਲਕਣ	-12580
▁ਅਪਾਹ	-12581
▁ਕੱਚੀ	-12582
▁ਖਾਧਾ	-12583
▁ਚੇਤਾ	-12584
▁ਮਿਸਲ	-12585
▁ਰੇਡੀ	-12586
▁ਰੌਣਕ	-12587
▁ਸਸਤਾ	-12588
ਸਰਬਜੀਤ	-12589
▁ਬਿਲਾਸ	-12590
▁ਜੋਧਪੁਰ	-12591
▁ਸ਼ਾਹਿਦ	-12592
▁ਇਸਤਰ੍ਹਾਂ	-12593
ਗੇਟ	-12594
ਵਣਾ	-12595
▁ਏਡ	-12596
▁ਝਿਜ	-12597
▁ਪਤਿ	-12598
▁ਫਲੈ	-12599
▁ਵਡਾ	-12600
▁ਅੜਿੱ	-12601
▁ਕਲਾਮ	-12602
▁ਪਾਕੇ	-12603
▁ਭਵਿਖ	-12604
▁ਵਖਰੇ	-12605
▁ਹਿੱਕ	-12606
ਡਮਿੰਟਨ	-12607
▁ਗਹਿਰੀ	-12608
▁ਜਿੱਤੀ	-12609
▁ਤਕਲੀਫ	-12610
▁ਨਰਾਜ਼	-12611
▁ਮਾਫੀਆ	-12612
▁ਰਾਗਾਂ	-12613
▁ਸੰਤਾਪ	-12614
▁ਹੱਦਾਂ	-12615
▁ਵਿਸਫੋਟ	-12616
Lesbians	-12617
▁ਬਾਜ਼ਾਰਾਂ	-12618
ਉਲ	-12619
8).	-12620
ਘਾਤੀ	-12621
ਦੁਆਰ	-12622
▁ਖੂੰ	-12623
▁ਮਧੂ	-12624
ਬੇਵਾਲ	-12625
▁ਗੋਡੇ	-12626
▁ਪਿਆਸ	-12627
▁ਮੰਦਾ	-12628
▁ਸਫ਼ਾ	-12629
▁ਹਰਸ਼	-12630
▁ਰਿਹਾਂ	-12631
▁ਕਮਰਿਆਂ	-12632
▁ਬਕਾਇਦਾ	-12633
▁ਸੰਪਾਦਨਾ	-12634
me	-12635
-14	-12636
ace	-12637
ਦੇਣ	-12638
▁ਡਟ	-12639
▁189	-12640
▁ਹਾਜ	-12641
atest	-12642
ਿਆਣਵੀ	-12643
▁ਆਸਾਂ	-12644
▁ਢੇਰੀ	-12645
▁ਬੇੜੀ	-12646
▁ਭਗਤਿ	-12647
▁ਵਾਦੀ	-12648
▁ਹਾਸਾ	-12649
ਇਤਿਹਾਸ	-12650
▁ਪੜਚੋਲ	-12651
▁ਸੈਂਟੀ	-12652
▁ਹੁਲਾਰਾ	-12653
▁ਪੜ੍ਹਾਉਣ	-12654
▁ਫਰਿਜ਼ਨੋ	-12655
▁ਵਿਚਾਰਿਆ	-12656
▁ਸ਼ਰਨਜੀਤ	-12657
▁........	-12658
▁ਸਖਸ਼ੀਅਤਾਂ	-12659
jit	-12660
ਸਾਧ	-12661
▁ਓਂ	-12662
▁ਮੈਟ	-12663
▁ਰਸੀ	-12664
ਡੂੰਘੇ	-12665
▁1500	-12666
▁ਰਖਦਾ	-12667
▁ਰੁਖ਼	-12668
▁ਹੋਸਟਲ	-12669
▁ਸੂਚੀਆਂ	-12670
▁ਸੰਚਾਲਕ	-12671
▁ਐਡੀਸ਼ਨਲ	-12672
▁ਕੇਂਦਰਿਤ	-12673
▁ਸਕਾਰਾਤਮਕ	-12674
"।	-12675
pe	-12676
ਪਿਕ	-12677
ions	-12678
ਟੀਜ਼	-12679
੍ਹਣੇ	-12680
▁ਅਣਖ	-12681
▁ਸਪਰ	-12682
▁ੲਿਹ	-12683
▁ਝਬਾਲ	-12684
▁ਫੈਲੇ	-12685
▁.....	-12686
▁ਅਟਾਰੀ	-12687
▁ਫ਼ੋਟੋ	-12688
▁ਬਾਰਸ਼	-12689
▁ਮੌਜ਼ੂ	-12690
▁ਬਣਦੀਆਂ	-12691
▁ਮਲਕੀਅਤ	-12692
▁ਏਅਰਲਾਈਨ	-12693
▁ਇੰਡੋਨੇਸ਼ੀਆ	-12694
ums	-12695
ਮੁਚ	-12696
▁Al	-12697
ਕਾਰਕ	-12698
▁ਘਿਉ	-12699
▁ਤਾਏ	-12700
▁ਚਾਂਦ	-12701
▁ਜਹਾਜ	-12702
▁ਦਸਾਂ	-12703
▁ਪਰਜਾ	-12704
▁ਪਾਪੀ	-12705
▁ਪੰਨੀ	-12706
▁ਮਨਸੂ	-12707
▁ਸੱਜਨ	-12708
▁ਬਿੱਲਾ	-12709
▁ਲਾਂਘੇ	-12710
▁ਅਲਬਰਟਾ	-12711
▁ਚੜ੍ਹਿਆ	-12712
▁ਟਿਕਾਣੇ	-12713
▁ਬਾਣੀਆਂ	-12714
▁ਮੁਨਸ਼ੀ	-12715
▁ਲੜੀਵਾਰ	-12716
▁ਧੰਨਵਾਦੀ	-12717
▁ਅੱਤਿਆਚਾਰ	-12718
HD	-12719
TC	-12720
oin	-12721
ਦਮਾ	-12722
ੱਟੇ	-12723
▁er	-12724
▁ਤਵ	-12725
ਕੋਸ਼	-12726
ਵਰਾਜ	-12727
ਸ਼ਾਬ	-12728
▁ਜ਼ਖ	-12729
ਵਿਰਤੀ	-12730
▁ਇੰਗਲ	-12731
▁ਕਿਵੇ	-12732
▁ਖੱਜਲ	-12733
▁ਚੰਦਨ	-12734
▁ਟੇਕਣ	-12735
▁ਨਿਬੇ	-12736
▁ਬੁਝਾ	-12737
ਪਾਲਿਕਾ	-12738
▁ਅਜਾਦੀ	-12739
▁ਆਵਾਰਾ	-12740
▁ਦਲੇਰੀ	-12741
▁ਨਿਘਾਰ	-12742
▁ਸਮਰਥਾ	-12743
▁ਸਿੱਕੇ	-12744
▁ਪਲਵਿੰਦਰ	-12745
▁ਵਾਅਦਿਆਂ	-12746
ਦਾਹ	-12747
ਵਿਗ	-12748
▁ਚਮਤ	-12749
ਸਨਮਾਨ	-12750
▁ਆਰੋਪ	-12751
▁ਈਮਾਨ	-12752
▁ਖ੍ਰੀ	-12753
ੜ੍ਹੀਆਂ	-12754
▁ਛੱਡਣਾ	-12755
▁ਮੈਸੇਜ	-12756
Strapon	-12757
ਕ੍ਰਿਸ਼ਨ	-12758
▁ਆਵਾਜ਼ਾਂ	-12759
▁ਦੂਸਰਿਆਂ	-12760
▁ਵਲੰਟੀਅਰਾਂ	-12761
ਿਐ	-12762
▁su	-12763
ਿਤਾਬ	-12764
▁ਕੇਬਲ	-12765
▁ਝਟਕੇ	-12766
▁ਇੱਟਾਂ	-12767
▁ਪੀੜਿਤ	-12768
▁ਪ੍ਰਿਅ	-12769
▁ਫ਼ਿਕਰ	-12770
ਕੰਵਲਜੀਤ	-12771
▁ਇੰਸਟਾਲ	-12772
▁ਪੌੜੀਆਂ	-12773
▁ਸ਼ੁਕੀਨ	-12774
▁ਫੈਸਟੀਵਲ	-12775
▁ਰਾਜੋਆਣਾ	-12776
.1	-12777
ਇਥੇ	-12778
ਫਿਲ	-12779
ਯੂਰ	-12780
ownl	-12781
▁ਕੇਅਰ	-12782
▁ਜੀਊਂ	-12783
▁ਬਾਜ਼	-12784
▁ਚਿੰਤਤ	-12785
▁ਜਾਂਦੈ	-12786
▁ਮੱਝਾਂ	-12787
ਸ਼ੁਮਾਰੀ	-12788
▁ਆਪਣਿਆਂ	-12789
▁ਸਤਿਸੰਗ	-12790
urs	-12791
ਕੱਲ	-12792
ਨਰੀ	-12793
▁ਸਜ	-12794
▁ਐਸ਼	-12795
▁ਨਮਕ	-12796
ਗ੍ਰਸਤ	-12797
▁ਅਲਰਟ	-12798
▁ਆਯੁਰ	-12799
▁ਜਗਸੀਰ	-12800
▁ਫੰਡਾਂ	-12801
▁ਵਾਪਰਨ	-12802
ਸੁਰਿੰਦਰ	-12803
▁ਸੈਲਾਨੀ	-12804
▁ਪ੍ਰਾਪਰਟੀ	-12805
▁ਤਾਮਿਲਨਾਡੂ	-12806
ਨਵ	-12807
ali	-12808
uct	-12809
ਗੜਾ	-12810
▁::	-12811
ਕਪੁਰ	-12812
ਫੀਲਡ	-12813
ੱਖਿਆ	-12814
▁11,	-12815
▁ਉਦਮ	-12816
▁ਜਾਰ	-12817
▁ਨਦਰ	-12818
▁ਪਛਾ	-12819
▁ਮਿਡ	-12820
▁ਸਰਚ	-12821
▁ਸਿਧ	-12822
▁ਆਰੀਆ	-12823
▁ਉਤਰਨ	-12824
▁ਗੌਤਮ	-12825
▁ਜਲੂਸ	-12826
▁ਜੰਮਣ	-12827
▁ਓਬਰਾਏ	-12828
▁ਕੇਰਲਾ	-12829
▁ਕ੍ਰਿਆ	-12830
▁ਚੜ੍ਹੇ	-12831
▁ਰਾਜਕੁ	-12832
▁ਲੁੱਟਣ	-12833
▁ਪੈਮਾਨੇ	-12834
▁ਸ਼ਹਿਣਾ	-12835
ਏਗਾ	-12836
ਟਲਾਂ	-12837
▁ਏਕੁ	-12838
▁ਆਉਣੀ	-12839
▁ਕਿਸੀ	-12840
▁ਪਰਬਤ	-12841
▁ਰੈਂਕ	-12842
▁ਸਿਰੀ	-12843
▁ਘੁਸਪੈ	-12844
▁ਚਾਹੁਣ	-12845
▁ਨਿਯਮਤ	-12846
▁ਬੈਟਰੀ	-12847
▁ਮੁਢਲੀ	-12848
▁ਵਿੱਢੀ	-12849
▁ਸਿੱਕਾ	-12850
▁ਸੈਂਸਰ	-12851
▁ਤੂਫ਼ਾਨ	-12852
▁ਪੌਦਿਆਂ	-12853
▁ਬਰਬਾਦੀ	-12854
▁ਸੰਜੀਦਾ	-12855
ੌਣ	-12856
ake	-12857
ank	-12858
ina	-12859
ਗਿਲ	-12860
▁93	-12861
ਮਾਰੂ	-12862
ਵੈੱਲ	-12863
▁ਗਜ਼	-12864
▁ਐਸਈਓ	-12865
▁ਕਰਜਾ	-12866
▁ਜਬਰੀ	-12867
▁ਠੰਡਾ	-12868
▁ਫਾਟਕ	-12869
▁ਮੈਬਰ	-12870
▁ਉਚੇਰੀ	-12871
▁ਸਮਸਿਆ	-12872
▁ਚੜ੍ਹਦੇ	-12873
▁ਬਲਾਚੌਰ	-12874
▁ਰਜਿਸਟਰਡ	-12875
▁ਵਿਸ਼ਨੂੰ	-12876
ube	-12877
▁ਘੱ	-12878
▁ਡੂ	-12879
▁110	-12880
▁ਗਹੁ	-12881
▁ਜੁੰ	-12882
▁ਫੇਫ	-12883
▁ਵਤਨ	-12884
▁ਅਣਖੀ	-12885
▁ਗੁਜਰੀ	-12886
▁ਤਰਤੀਬ	-12887
▁ਪਾਰਲੀ	-12888
▁ਪ੍ਰਿਤ	-12889
▁ਬਿਸ਼ਨ	-12890
▁ਵਾਰਤਕ	-12891
▁ਸਿਆਹੀ	-12892
▁ਮਹਾਨਤਾ	-12893
▁ਮਰਿਯਾਦਾ	-12894
ਸੁਕ	-12895
ੁਆਈ	-12896
ਮਾਜ਼	-12897
ਲੇਸ਼	-12898
▁ਨਿਜ	-12899
▁ਲਿੰ	-12900
▁ਇਸਲਈ	-12901
▁ਕਿਲਾ	-12902
▁ਡਿਪਾ	-12903
▁ਦਸਦੇ	-12904
▁ਰਹਿਆ	-12905
▁ਲਗਵਾ	-12906
▁ਵਿਸਰ	-12907
▁ਆਂਧਰਾ	-12908
▁ਤਰਨਾਚ	-12909
▁ਸੈਂਪਲ	-12910
▁ਦਰਬਾਰਾ	-12911
▁ਹੋਣੀਆਂ	-12912
▁ਅਰਜ਼ੀਆਂ	-12913
▁ਨਜ਼ਰਬੰਦ	-12914
▁ਕਨਵੈਨਸ਼ਨ	-12915
▁ਮੈਨੇਜਿੰਗ	-12916
▁ਸ਼ਖਸੀਅਤਾਂ	-12917
▁ਸੁਵਿਧਾਵਾਂ	-12918
ਵਡ	-12919
ame	-12920
www	-12921
ਵਤਾ	-12922
sikh	-12923
ਸੰਗੀ	-12924
▁ਨੀਲ	-12925
ਸਪੇਨੀ	-12926
▁from	-12927
▁ਹਫਤਾ	-12928
ਟਰਨਿੰਗ	-12929
▁ਖਹਿੜਾ	-12930
▁ਤਸੀਹੇ	-12931
▁ਗੁਰਪਾਲ	-12932
▁ਅੰਗਰੇਜੀ	-12933
▁ਲਾਪਰਵਾਹੀ	-12934
▁ਅੰਮ੍ਰਿਤਧਾਰੀ	-12935
ਕ੍ਸ	-12936
ਸੀਮ	-12937
▁di	-12938
ਥਰੂਮ	-12939
ੋੜਾਂ	-12940
▁ਮਰਣ	-12941
▁ਸੱਖ	-12942
▁ਕਿਓਂ	-12943
▁ਜੰਮੇ	-12944
▁ਦਲਾਲ	-12945
▁ਭਰਦੇ	-12946
▁ਲੀਗਲ	-12947
▁ਸਲਾਮ	-12948
▁ਚਿੰਤਕ	-12949
▁ਜਸਕਰਨ	-12950
▁ਟੁੱਟੇ	-12951
▁ਲਾਈਆਂ	-12952
▁ਸਾਈਟਾਂ	-12953
▁ਹਫਤਿਆਂ	-12954
▁ਸਵਾਰੀਆਂ	-12955
ਵੈਤ	-12956
▁Sa	-12957
ਅਰਜ਼	-12958
ੱਤਰੀ	-12959
▁ਭੁੰ	-12960
▁ਵਿੱਥ	-12961
▁ਸੁਖਾ	-12962
▁ਯਹੂਦੀ	-12963
▁ਹੋਏਗੀ	-12964
ਅਤਿਕਾਮੀ	-12965
▁ਅਸਮਰੱਥ	-12966
▁ਦੂਸ਼ਿਤ	-12967
▁ਬੇਹੋਸ਼	-12968
▁ਐਲੀਮੈਂਟਰੀ	-12969
rig	-12970
ਮੱਧ	-12971
ਸਿਨ	-12972
▁ਛਡ	-12973
ized	-12974
ਕਪੂਰ	-12975
ਸਹਾਏ	-12976
ਸ਼ਾਮ	-12977
▁ਥੀਮ	-12978
▁ਅਵਾਜ	-12979
▁ਕਪਾਹ	-12980
▁ਕੁਰੀ	-12981
▁ਜਲਵਾ	-12982
▁ਪੋਥੀ	-12983
▁ਲਵਾਂ	-12984
ਰਾਜਮਾਨ	-12985
▁ਉਲੰਘਣ	-12986
▁ਢਿਲੋਂ	-12987
▁ਸੂਰਜੀ	-12988
▁ਹਿਰਦਾ	-12989
▁ਦਸਤਖ਼ਤ	-12990
▁ਛੋਟੇਪੁਰ	-12991
▁ਰੈਂਕਿੰਗ	-12992
▁ਬੈਡਮਿੰਟਨ	-12993
ਲੇਪ	-12994
▁am	-12995
ਵਿਤਰ	-12996
ਵੇਦੀ	-12997
▁ਆਰਾ	-12998
▁ਜੈਸ	-12999
▁ਇਸਨੇ	-13000
▁ਕਾਗ਼	-13001
▁ਜਿਲੇ	-13002
▁ਟ੍ਰੈ	-13003
▁ਬਿਨੈ	-13004
▁ਮਾਹਿ	-13005
▁ਸਿਦਕ	-13006
▁ਵਰਤਣਾ	-13007
▁ਵੇਰਕਾ	-13008
ownload	-13009
▁ਸਮਾਨਤਾ	-13010
▁ਸਿਧਾਰਥ	-13011
▁ਅਧਿਕਾਰਤ	-13012
▁ਅਭਿਨੇਤਰੀ	-13013
▁ਤੰਦਰੁਸਤੀ	-13014
▁ਪ੍ਰਕਾਸ਼ਨ	-13015
▁ਸੰਗੀਤਕਾਰ	-13016
▁ਰਾਖਵਾਂਕਰਨ	-13017
▁>	-13018
ਤਹਿਤ	-13019
ਸ਼ੀਟ	-13020
ਸੱਤਾ	-13021
▁ਬਿਗ	-13022
▁ਸੁਧ	-13023
▁ਕੰਡੇ	-13024
▁ਜਨਾਂ	-13025
▁ਰੈਗੂ	-13026
ਸਮਾਜਿਕ	-13027
▁ਕੋਟਲੀ	-13028
▁ਵਾਕਿਆ	-13029
▁ਸੱਦਿਆ	-13030
▁ਕਲੱਬਾਂ	-13031
▁ਕ੍ਰਿਕਟਰ	-13032
▁ਗੁਰਗੱਦੀ	-13033
▁ਹਫ਼ਤਿਆਂ	-13034
18,	-13035
500	-13036
ਕੇਲ	-13037
▁ਲ਼	-13038
ideo	-13039
ਵਰਤੀ	-13040
ਗੁਣਾਂ	-13041
ਸਿੱਖੀ	-13042
▁ਅਮਲੇ	-13043
▁ਇਹਦਾ	-13044
▁ਕੱਟੀ	-13045
▁ਛੱਡੋ	-13046
▁ਦੌਡ਼	-13047
▁ਸ਼ਰਣ	-13048
▁ਕਰੀਬੀ	-13049
▁ਲੱਭਿਆ	-13050
Masturb	-13051
▁ਚੂੜੀਆਂ	-13052
▁ਟ੍ਰਾਂਸ	-13053
▁ਲੜਾਈਆਂ	-13054
▁ਦ੍ਰਿੜਤਾ	-13055
▁ਪਾਰਦਰਸ਼ੀ	-13056
ਡਿਊ	-13057
ical	-13058
ਰਹਿਤ	-13059
ਸ਼ਕਰ	-13060
▁ਚਹੇ	-13061
▁ਚਾਈ	-13062
▁ਚੌਾ	-13063
▁ਟਿਪ	-13064
▁ਸੈਟ	-13065
▁ਜ਼ੁਲ	-13066
▁ਨਾਲਿ	-13067
▁ਪਨੀਰ	-13068
▁ਵਿਧਾ	-13069
▁ਸਬੱਬ	-13070
▁ਹੋਈਆ	-13071
▁ਮੰਨਦੀ	-13072
▁ਕੁਰਸੀਆਂ	-13073
▁ਹਿੱਸੇਦਾਰੀ	-13074
ਕਮਲ	-13075
ਜੀਆ	-13076
ਚਾਨਣ	-13077
ਸੁੱਖ	-13078
ਿੰਨੀ	-13079
▁ਆਡੀ	-13080
▁ਨਿਗ	-13081
▁ਵਰੇ	-13082
▁ਮਾਝੇ	-13083
▁ਮੈਲਬ	-13084
▁ਵਾਰਸ	-13085
▁ਸਹਿਰ	-13086
▁ਸੁਰਗ	-13087
▁ਹਾਸੇ	-13088
▁ਜੁਗਤਿ	-13089
▁ਟਰਾਫੀ	-13090
▁ਟਾਕਰਾ	-13091
▁ਰੱਖੜੀ	-13092
▁ਸਥਿੱਤ	-13093
▁ਹੁੰਦਲ	-13094
ਸੰਗ੍ਰਹਿ	-13095
▁ਕੁਆਰਟਰ	-13096
▁ਗੁਰਭਜਨ	-13097
▁ਪੁੱਛਦਾ	-13098
▁ਗੈਂਗਸਟਰਾਂ	-13099
,"	-13100
ON	-13101
ਬੇਨ	-13102
ਰਾਕ	-13103
▁Ar	-13104
ਟੇਕਸ	-13105
▁ਦੈਂ	-13106
acial	-13107
▁ਨੇਤਰ	-13108
▁ਉਪਜਾਊ	-13109
▁ਜਣਿਆਂ	-13110
▁ਜਿੰਮੀ	-13111
▁ਢਿੱਲੋ	-13112
▁ਖਿਡਾਰਨ	-13113
▁ਪਟਵਾਰੀ	-13114
▁ਅਨੁਸਾਰੀ	-13115
▁ਪਟਾਕਿਆਂ	-13116
▁ਸਿਲਸਿਲੇ	-13117
5).	-13118
ਜਥੇ	-13119
ਨੀਰ	-13120
ਸਮਰ	-13121
▁ਉਕ	-13122
▁ਫਤ	-13123
ਮੁਲਾ	-13124
▁ਅਲਗ	-13125
▁ਜਕੜ	-13126
▁ਵੋਲ	-13127
ਏਸ਼ੀਆ	-13128
ਪਿਆਉਣ	-13129
▁ਅਲਾਟ	-13130
▁ਦਲਦਲ	-13131
▁ਮਰਦੇ	-13132
▁ਵਿਦਰ	-13133
▁ਸੈਨੀ	-13134
follow	-13135
▁ਇੱਕਠੇ	-13136
▁ਨਕਸ਼ੇ	-13137
▁ਪੁਤਲਾ	-13138
▁ਲੱਗਣਾ	-13139
▁ਯੂਨਾਨੀ	-13140
▁ਉਤਸ਼ਾਹਤ	-13141
▁ਬਿਲਕੁੱਲ	-13142
▁ਜ਼ਬਰਦਸਤੀ	-13143
▁ਪ੍ਰਗਟਾਇਆ	-13144
▁ਪ੍ਰਿਯੰਕਾ	-13145
▁ਤਾਨਾਸ਼ਾਹੀ	-13146
7).	-13147
ਸਾਡੀ	-13148
▁170	-13149
▁ਛਾਣ	-13150
▁ਪੜਨ	-13151
▁ਫੇਲ	-13152
▁ਰੇਪ	-13153
ਸਰਕਾਰ	-13154
ਸਾਬਕਾ	-13155
▁ਡੱਬੇ	-13156
▁ਲੇਖੇ	-13157
▁ਸਕਦੈ	-13158
▁ਪਰਿਭਾ	-13159
▁ਪਰਿਸ਼	-13160
▁ਸੰਕੋਚ	-13161
▁ਕੋਰਸਾਂ	-13162
▁ਲਾਉਂਦਾ	-13163
▁ਸਾਹਿਬਾਂ	-13164
▁ਵਿਭਿੰਨਤਾ	-13165
▁ਸੇਵਾਮੁਕਤ	-13166
ਧਵ	-13167
ans	-13168
ਖੜਾ	-13169
ਧੀਆ	-13170
ਲਿਨ	-13171
▁(9	-13172
ਕੁੰਨ	-13173
ਿਸ਼ੇਕ	-13174
▁ਨਾਨਾ	-13175
▁ਮੰਗਣੀ	-13176
▁ਸੰਪੰਨ	-13177
▁ਅਖਵਾਉਣ	-13178
▁ਬਾਸਮਤੀ	-13179
▁ਬੇਕਸੂਰ	-13180
▁ਬਾਰ੍ਹਵੀਂ	-13181
86	-13182
ਥਵੀ	-13183
ਸਪਾ	-13184
▁83	-13185
▁86	-13186
▁ਯੇ	-13187
ਵੀਜਨ	-13188
ਾਈਜ਼	-13189
▁ਨੈਨ	-13190
▁ਪੂਛ	-13191
▁ਬੂੰਦ	-13192
▁ਸ਼ੈਲ	-13193
▁ਬਾਹਾਂ	-13194
▁ਮੁਕਤਿ	-13195
▁ਰਾਹਾਂ	-13196
▁ਸਾਈਬਰ	-13197
▁ਅਸਰਦਾਰ	-13198
▁ਜੁਆਇੰਟ	-13199
▁ਤਕਲੀਫ਼	-13200
▁ਮਾਰਸ਼ਲ	-13201
▁ਸੰਸਾਰੀ	-13202
▁ਪੇਸ਼ਾਵਰ	-13203
▁ਵਿੱਚਕਾਰ	-13204
▁ਸੁਪਰਵਾਈ	-13205
▁ਚਿੱਤਰਕਾਰ	-13206
ਆਦਾ	-13207
▁ਈਦ	-13208
ਬੰਧਨ	-13209
ਵੀਅਤ	-13210
ੂਆਣਾ	-13211
▁app	-13212
▁ਉਤਮ	-13213
▁ਗੋਆ	-13214
▁ਬਰੂ	-13215
▁ਸਿਸ	-13216
ਜ਼ਾਦੀ	-13217
▁ਮਿੱਥ	-13218
▁ਸੁਹਜ	-13219
▁ਸਾਇਕਲ	-13220
▁ਚਰਿੱਤਰ	-13221
▁ਸ਼ੋਸ਼ਲ	-13222
▁ਹੜ੍ਹਾਂ	-13223
▁ਦਾਰਸ਼ਨਿਕ	-13224
ਹੁਸ਼ਿਆਰਪੁਰ	-13225
▁ਸੈਮੀਫਾਈਨਲ	-13226
ਆਈਏ	-13227
ਖੰਡੀ	-13228
ਜ਼ੇਬ	-13229
ਰਮਾਨ	-13230
ੁਰਾਦ	-13231
▁ਤਲਬ	-13232
▁ਮੂਨ	-13233
▁ਟਾਸਕ	-13234
▁ਫੈਲਣ	-13235
rosoft	-13236
▁ਤਾਰੀਫ	-13237
▁ਹੁੰਦੈ	-13238
▁ਅਸਤੀਫੇ	-13239
▁ਉਂਗਲਾਂ	-13240
▁ਥਾਂਵਾਂ	-13241
▁ਨਿਰੰਜਨ	-13242
▁ਵਾਰਸਾਂ	-13243
▁ਗੁਰਮੁੱਖ	-13244
▁ਸਟੇਸ਼ਨਾਂ	-13245
ਭਉ	-13246
ਕੰਮ	-13247
ਡੀਨ	-13248
ਤਿਲ	-13249
ਦਰਦ	-13250
ਭਾਂ	-13251
▁()	-13252
ਹਨਾਂ	-13253
▁ਕਹੁ	-13254
▁ਕੈਨ	-13255
▁ਗਣੇ	-13256
▁ਗੌਂ	-13257
▁ਰਸ਼	-13258
ੰਦੀਆਂ	-13259
▁ਅੰਬਰ	-13260
▁ਰਕਾਬ	-13261
▁ਲਾਇਕ	-13262
▁ਕਰਨਾਂ	-13263
▁ਬਕਾਲਾ	-13264
▁ਖੁਲਾਸੇ	-13265
▁ਸੁਣੀਆਂ	-13266
▁ਟੈਕਨੀਕਲ	-13267
▁ਸਰਦੂਲਗੜ੍ਹ	-13268
de	-13269
ਨਾਗ	-13270
ਰੋਨ	-13271
ject	-13272
raph	-13273
ਗਾਗਾ	-13274
ਸਵਰਨ	-13275
▁ਕੀਟ	-13276
▁ਝੁੱ	-13277
▁ਸਕਾ	-13278
▁ਸਚਿ	-13279
▁ਕਸ਼ਟ	-13280
▁ਦੱਬੇ	-13281
▁ਪੂਨਮ	-13282
▁ਪੌਂਡ	-13283
▁ਮੀਰੀ	-13284
▁ਸਾਹੀ	-13285
▁ਹੋਕਾ	-13286
ਬ੍ਰਿਟੀ	-13287
▁ਸਿਗਰਟ	-13288
▁ਸੰਭਾਵ	-13289
▁ਖਰੀਦਿਆ	-13290
▁ਪ੍ਰਾਂਤ	-13291
▁ਭੇਦਭਾਵ	-13292
▁ਸੈਂਟਰਾਂ	-13293
▁ਹੈਕਟੇਅਰ	-13294
੧੯	-13295
ਇਲਾ	-13296
ਦੇੜ	-13297
ਫ਼ਟ	-13298
▁KA	-13299
▁en	-13300
ਮੋਗਾ	-13301
▁10.	-13302
▁ਲਿਬ	-13303
▁ਹੰਭ	-13304
ਚਾਰੀਆ	-13305
ਪੇੰਦੇ	-13306
▁ਖ਼ੈਰ	-13307
▁ਪਰਉਪ	-13308
▁ਬਲਿਊ	-13309
▁ਲਾਈਫ	-13310
▁ਬੈਠਦੇ	-13311
▁ਨਵੀਨਤਮ	-13312
ਪੇੰਦੇਕ੍ਸ	-13313
▁ਆਪਰੇਸ਼ਨ	-13314
▁ਕਿਲੋਗ੍ਰਾਮ	-13315
89	-13316
ਨਾਉਣ	-13317
ਨਿਕਾ	-13318
▁ਕਾਜ	-13319
▁ਮਰੈ	-13320
▁ਸਖੀ	-13321
▁ਸੰਧ	-13322
▁ਜੈੱਟ	-13323
▁ਤੰਬੂ	-13324
▁ਘੁੱਗੀ	-13325
▁ਬਗਾਵਤ	-13326
▁ਸਿਰਮੌਰ	-13327
▁ਚਿੱਠੀਆਂ	-13328
▁ਦੇਵਾਂਗਾ	-13329
▁ਮਿਸਾਲਾਂ	-13330
▁ਲੱਗਦੀਆਂ	-13331
▁ਪ੍ਰੀਮੀਅਰ	-13332
EET	-13333
ery	-13334
ਬੱਸ	-13335
ਮੁੜ	-13336
ਹਲਾ	-13337
ਕੁਸ਼	-13338
ਸੰਧੂ	-13339
▁12,	-13340
▁ਐਨੇ	-13341
▁ਡੈਸ	-13342
▁ਚੁਣਨ	-13343
▁ਬੈਲਟ	-13344
▁ਮੰਦੀ	-13345
▁ਲੜਦੇ	-13346
▁ਸੁਰਾ	-13347
ਪਰਮਜੀਤ	-13348
ਮੀਨੀਅਮ	-13349
ਸਾਈਟਾਂ	-13350
▁ਦਿੱਕਤ	-13351
▁ਦੇਂਦੀ	-13352
▁ਪੋਸ਼ਣ	-13353
▁ਬਰਾਂਚ	-13354
▁ਬੱਧਨੀ	-13355
▁ਰਵਨੀਤ	-13356
▁ਉਡਾਣਾਂ	-13357
▁ਝਾਰਖੰਡ	-13358
▁ਤੀਰਥਾਂ	-13359
▁ਮਦਦਗਾਰ	-13360
▁ਰਾਮਦੇਵ	-13361
▁ਇਕੱਠੀਆਂ	-13362
▁ਨਿਵਾਜਿਆ	-13363
▁ਨਿਵੇਕਲੀ	-13364
▁ਸਤਿਕਾਰਯੋਗ	-13365
)–	-13366
ox	-13367
ਐਡ	-13368
ੰਜ	-13369
ਇੰਸ	-13370
ਝਾਂ	-13371
▁ਜਥ	-13372
▁ਵਕ	-13373
ਵਪਾਰ	-13374
▁700	-13375
▁ਮਿਠ	-13376
ਹਿੰਦਾ	-13377
▁ਅਮੋਲ	-13378
▁ਚੱਕੀ	-13379
▁ਨੇਵੀ	-13380
▁ਬਾਲਕ	-13381
▁ਹਰਿਕ	-13382
▁ਕੋਟਲਾ	-13383
▁ਜਾਣਦੀ	-13384
▁ਦੂਰੋਂ	-13385
▁ਪੰਧੇਰ	-13386
▁ਰਵਾਇਤ	-13387
▁ਸਤਵੰਤ	-13388
▁ਫ਼ਰਾਂਸ	-13389
▁ਮਹਿਰਾਜ	-13390
▁ਬਾਲੀਵੁਡ	-13391
▁ਮਹਾਰਾਜੇ	-13392
-(	-13393
ਕੌਮ	-13394
ੱਠੇ	-13395
▁ਭਏ	-13396
ਪਾਕਿ	-13397
ਪ੍ਰਿ	-13398
ੁੰਮਣ	-13399
▁ਗਲ਼	-13400
ਰਾਈਆਂ	-13401
▁ਗ਼ਦਰ	-13402
▁ਨਵਾਬ	-13403
▁ਨਹੁੰ	-13404
▁ਮਰਿਆ	-13405
▁ਚੱਲਣਾ	-13406
▁ਸਟੋਰੇ	-13407
punjabi	-13408
▁ਆਦਮੀਆਂ	-13409
▁ਨਿਯਮਿਤ	-13410
▁ਮੁਲਤਵੀ	-13411
▁ਵਿਚਾਰੀ	-13412
▁ਗੌਰਮਿੰਟ	-13413
▁ਜਾਵਾਂਗੇ	-13414
▁ਬੇਮਿਸਾਲ	-13415
▁ਨਿਭਾਉਂਦੇ	-13416
▁ਵਚਨਬੱਧਤਾ	-13417
▁ਸਿਫ਼ਾਰਸ਼	-13418
ੁਨ	-13419
/11/	-13420
ਚਕਾਂ	-13421
▁ਅਫੀ	-13422
▁ਭਾਇ	-13423
▁ਰਚਾ	-13424
▁ਹੋਊ	-13425
▁5000	-13426
▁ਨਾਮਾ	-13427
▁ਰਕਬਾ	-13428
ਗੁਰਦਾਸ	-13429
ਨਾਮਿਆਂ	-13430
▁ਬੋਲਦੀ	-13431
▁ਤਜਿੰਦਰ	-13432
▁ਕੋਸਿ਼ਸ਼	-13433
▁ਪਰਿਵਾਰਿਕ	-13434
▁ਮੁਸੀਬਤਾਂ	-13435
▁ਉਪਭੋਗਤਾਵਾਂ	-13436
ism	-13437
▁79	-13438
▁ਧੰ	-13439
ਛਪਾਲ	-13440
▁ਦਬਦ	-13441
ਸਕੱਤਰ	-13442
ੱਲਿਆਂ	-13443
▁here	-13444
▁ਯੋਧੇ	-13445
▁ਲਛਮਣ	-13446
▁ਅਬਦੁਲ	-13447
▁ਅਸਾਨੀ	-13448
▁ਪਰਧਾਨ	-13449
▁ਪੁਖਤਾ	-13450
▁ਮਾਲਕੀ	-13451
▁ਰੰਗਿਆ	-13452
ka	-13453
ਸੌ	-13454
ਖਦੇ	-13455
ਟੇਕ	-13456
ੋਰਿ	-13457
unny	-13458
ਟਾਲਾ	-13459
▁ਕਹੈ	-13460
▁ਪੌਲ	-13461
▁ਮੇਰ	-13462
ਅਕਾਲੀ	-13463
ਛਾਵਾਂ	-13464
ਜ਼ਰਵੇ	-13465
ਸ਼ੀਅਨ	-13466
▁ਏਦਾਂ	-13467
▁ਪੁਣੇ	-13468
▁ਉਪਰੋਂ	-13469
▁ਕਮਾਇਆ	-13470
▁ਜਗਰੂਪ	-13471
▁ਨੌਵੀਂ	-13472
▁ਲਾਟਰੀ	-13473
▁ਸਾਜਨਾ	-13474
▁ਬਚਾਉਣਾ	-13475
▁ਸਾਖੀਆਂ	-13476
▁ਕਵੀਸ਼ਰੀ	-13477
▁ਚਲਾਉਂਦੇ	-13478
▁ਨੈਤਿਕਤਾ	-13479
▁ਮਨਾਉਂਦੇ	-13480
▁ਮੰਦਭਾਗਾ	-13481
▁ਸਾਹਿਬਜ਼ਾਦਾ	-13482
ਬੇਕ	-13483
ਸਨਾ	-13484
੍ਰੋਹ	-13485
▁May	-13486
▁ਕਿਤ	-13487
▁ਮੰਡੇ	-13488
▁ਰਾਮੂ	-13489
▁ਕਹਿਕੇ	-13490
▁ਫਾਰਮੂ	-13491
▁ਭਰਮਾਰ	-13492
▁ਰਵੱਈਆ	-13493
▁ਰਾਬਤਾ	-13494
▁ਲੜੀਆਂ	-13495
▁ਸੰਪ੍ਰ	-13496
▁ਕਾਂਸਟੇ	-13497
▁ਅੰਬੇਦਕਰ	-13498
ki	-13499
ਵਈ	-13500
opy	-13501
▁06	-13502
▁ਖੈ	-13503
ਜੰਮੂ	-13504
ਫ਼ੋਨ	-13505
ਮੱਤੀ	-13506
ਰਾਸੀ	-13507
ਲੇਵਾ	-13508
▁ਪੱਥ	-13509
▁ਸਈਦ	-13510
ਚੇਵਾਲ	-13511
ਯੋਜਨਾ	-13512
▁ਖੋਜੀ	-13513
▁ਘਪਲੇ	-13514
▁ਮੱਧਮ	-13515
▁ਲੱਖਾ	-13516
▁ਸ਼ੌਂ	-13517
ਹਰਸਹਾਏ	-13518
▁ਜੀਵਨੀ	-13519
▁ਤੁਰਦੇ	-13520
▁ਦੇਸਾਂ	-13521
▁ਭਾਸ਼ਨ	-13522
ਾਰਟਮੈਂਟ	-13523
ਿੰਦਰਜੀਤ	-13524
▁ਗ਼ੁਲਾਮ	-13525
▁ਮੁਖਰਜੀ	-13526
▁ਸੁੰਦਰੀ	-13527
▁ਆਤਮਘਾਤੀ	-13528
ਇਮ	-13529
▁ch	-13530
▁ਜਬ	-13531
ਕੜਾਂ	-13532
ਸ਼੍ਰ	-13533
ੱਦਾਂ	-13534
▁ਦਮਨ	-13535
▁ਕਲੀਨ	-13536
▁ਪੌਦਾ	-13537
ਝਟਕਾਉਣ	-13538
ਸ਼ੋਭਿਤ	-13539
▁ਪੈਟਰਨ	-13540
▁ਵਰਦਾਨ	-13541
▁ਡਿਪਾਜ਼ਿਟ	-13542
▁ਮੁੱਲਾਂਪੁਰ	-13543
83	-13544
day	-13545
ਜਲਸ	-13546
ਲਿਆ	-13547
ਭਗਤੀ	-13548
ਸ਼ੀਨ	-13549
▁ਜੂਆ	-13550
▁ਫ਼ੇ	-13551
ਕਸਾਈਡ	-13552
ਵਿਹਾਰ	-13553
▁ਦੋਰਾ	-13554
▁ਬਾਈਕ	-13555
▁clits	-13556
▁ਸੁੱਟੇ	-13557
▁ਨਜ਼ਾਰਾ	-13558
▁ਪੱਤਿਆਂ	-13559
▁ਬਿਜ਼ਨਸ	-13560
▁ਸਕਾਲਰਸ਼ਿਪ	-13561
▁ਬੁੱਧੀਜੀਵੀਆਂ	-13562
ੌਦ	-13563
ਵਾਟ	-13564
ਸ਼ੀਏ	-13565
ਸੇਵੀ	-13566
▁ਗਰਲ	-13567
▁ਚੀਰ	-13568
▁ਜੁਲ	-13569
▁ਆਰਟਸ	-13570
▁ਦਾਰਾ	-13571
▁ਕਾਮਰਸ	-13572
▁ਨਿਕਾਸ	-13573
▁ਪੱਗਾਂ	-13574
▁ਘਰਵਾਲੀ	-13575
▁ਸੰਭਾਲੀ	-13576
▁ਹਾਂਗਕਾਂਗ	-13577
.4	-13578
-30	-13579
ਤਿਰ	-13580
ਫਾਈ	-13581
ੱਪਣ	-13582
▁ਕੜ	-13583
ਤੀਬਰ	-13584
▁ਟਮਾ	-13585
▁ਬਿਓ	-13586
▁ਭੇਤ	-13587
ਨਸਪਤੀ	-13588
▁ਡਾਕੂ	-13589
▁ਨਾਕੇ	-13590
▁ਪਤਲਾ	-13591
▁ਭੈੜੀ	-13592
rgasms	-13593
ਰੂਸ਼ਲਮ	-13594
▁ਉਪਕਰਣ	-13595
▁ਕਰਨਾਲ	-13596
▁ਨਿਰਵਿ	-13597
▁ਵਸੂਲੀ	-13598
▁ਕੁਸ਼ਲਤਾ	-13599
▁ਨਿਰੰਕਾਰ	-13600
▁ਜ਼ਹਿਰੀਲੇ	-13601
▁ਨਿਰਦੇਸ਼ਨ	-13602
ਫੋਰ	-13603
ੁਰਦ	-13604
▁ਢੋ	-13605
ਕੋਦਰ	-13606
ਿਆਲੇ	-13607
▁ਓਨੀ	-13608
▁ਮਤੀ	-13609
▁ਲੈਫ	-13610
ਮਿਸ਼ਨ	-13611
▁ਐਲਬਮ	-13612
▁ਡਿਸਪ	-13613
▁ਪਲੱਸ	-13614
▁Daily	-13615
▁ਕਮਜੋਰ	-13616
▁ਗੈਲਰੀ	-13617
▁ਜੈਪੁਰ	-13618
▁ਨਕਸ਼ਾ	-13619
▁ਫਾਈਬਰ	-13620
▁ਸਿਵਾਏ	-13621
ਚੇਅਰਮੈਨ	-13622
▁ਗੁਰਸੇਵਕ	-13623
ਪੈਰ	-13624
ਬਲਾ	-13625
▁74	-13626
ਦਿਹਾ	-13627
ਪੁੱਤ	-13628
▁ਕਹੋ	-13629
▁ਬੁਧ	-13630
▁ਬੇਗ	-13631
▁ਦੋਵੇ	-13632
▁ਮੋਹਿ	-13633
▁ਹੇਰਾ	-13634
▁ਨਮੂਨਾ	-13635
▁ਨਾਇਡੂ	-13636
▁ਨੀਵੀਂ	-13637
▁ਰਾਤਾਂ	-13638
▁ਸੁਣਾਏ	-13639
▁ਮਾਹਰਾਂ	-13640
▁ਸੁਖਵੀਰ	-13641
▁ਤਫ਼ਤੀਸ਼	-13642
▁ਕਾਪੀਰਾਈਟ	-13643
▁ਖਪਤਕਾਰਾਂ	-13644
▁ਪੰਨੀਵਾਲੀਆ	-13645
eg	-13646
ਏਲ	-13647
Red	-13648
ਜਾਰਾ	-13649
▁160	-13650
▁ਤਨਾ	-13651
▁ਚੇਲਾ	-13652
▁ਟਿਕੇ	-13653
▁ਤੋਤਾ	-13654
▁ਸਕੂਨ	-13655
▁ਜਪਾਨੀ	-13656
▁ਪਾਲਤੂ	-13657
▁ਪਿਕਸਲ	-13658
▁ਮਨਮੋਹ	-13659
▁ਵਿਹਲੇ	-13660
▁ਸਿਰਾਂ	-13661
▁ਅਸੂਲਾਂ	-13662
▁ਕਾਹਨੂੰ	-13663
▁ਧਰਮਵੀਰ	-13664
▁ਬਣਾਉਂਦੀ	-13665
---	-13666
ਚਿੰ	-13667
ਾਈਮ	-13668
ence	-13669
ਬੁੱਝ	-13670
▁ਚਾਉ	-13671
▁ਬੋਧ	-13672
ਕੀਰਾਂ	-13673
ਜਸਪਾਲ	-13674
▁ਖਾੜੀ	-13675
▁ਜੁਗਾ	-13676
▁ਪਰਸਨ	-13677
▁ਫੌਰੀ	-13678
▁ਬੇਹਤ	-13679
▁ਵਾਜਬ	-13680
▁ਸੀਸੀ	-13681
ਪ੍ਰਸਤੀ	-13682
ਹਰਿੰਦਰ	-13683
▁ਟਰੈਵਲ	-13684
▁ਬੀਚਾਰ	-13685
▁ਰਮਦਾਸ	-13686
▁ਸਤਿਨਾਮ	-13687
▁ਵਿਆਹੁਤਾ	-13688
▁ਰਿਟਰਨਿੰਗ	-13689
▁ਸਿਫਾਰਿਸ਼	-13690
▁Microsoft	-13691
▁ਬੁੱਧੀਜੀਵੀ	-13692
▁ਰਾਮਗੜ੍ਹੀਆ	-13693
ਮੀਆ	-13694
ੌਜੀ	-13695
▁br	-13696
sard	-13697
▁ਅੱਕ	-13698
ਮੁੱਕੇ	-13699
ਹੱਤਿਆ	-13700
੍ਹੀਆਂ	-13701
▁ਇਤਨੀ	-13702
▁ਕੁਚਲ	-13703
▁ਠੰਢੇ	-13704
▁ਕੱਢਣਾ	-13705
▁ਖਾਤਮੇ	-13706
▁ਚੁਕਿਆ	-13707
▁ਚੌਕਸੀ	-13708
▁ਛਿੜਕਾ	-13709
▁ਲੀਹਾਂ	-13710
▁ਸੁਗੰਧ	-13711
▁ਦਿਤੀਆਂ	-13712
▁ਨਿਰਲੇਪ	-13713
▁ਵਿਆਕਰਣ	-13714
▁ਵਿਧੀਆਂ	-13715
▁ਸੈਟਿੰਗ	-13716
ਅੰਗਰੇਜ਼ੀ	-13717
▁ਚੱਬੇਵਾਲ	-13718
▁ਪਰਮੇਸ਼ਰ	-13719
▁ਬਰਾਬਰਤਾ	-13720
▁ਵਾਲਮੀਕਿ	-13721
5]	-13722
ਸਾਖ	-13723
▁sub	-13724
▁ਡੱਟ	-13725
▁ਭਾਉ	-13726
▁ਬਿਜਨ	-13727
▁ਸਾੜੀ	-13728
▁ਆਰਜ਼ੀ	-13729
▁ਤਸਦੀਕ	-13730
▁ਨਹਿਰੀ	-13731
▁ਵਾਸਤਾ	-13732
▁ਪਰਿਸ਼ਦ	-13733
▁ਸੁਨੀਤਾ	-13734
▁punjabi	-13735
▁ਮੁਬਾਰਕਬਾਦ	-13736
tr	-13737
ਦਣ	-13738
ਯਤ	-13739
੧੨	-13740
▁ਖੰ	-13741
ਟੀਸੀ	-13742
▁ਅਸੰ	-13743
▁ਫਿਟ	-13744
▁ਮੈਥ	-13745
▁1998	-13746
▁ਡੀਸੀ	-13747
▁ਡੈਲੀ	-13748
▁ਤਾਇਆ	-13749
▁ਪਿਲਾ	-13750
▁ਮੌਨਸ	-13751
▁ਮੰਗਾ	-13752
ਇੰਦਵਾਲ	-13753
▁ਅਕਸ਼ੈ	-13754
▁ਅਰੁਣਾ	-13755
▁ਬੈਠਦਾ	-13756
▁ਮੈਥੋਂ	-13757
▁ਅਗਲੇਰੀ	-13758
▁ਇਸਲਾਮੀ	-13759
▁ਮਿਲਾਇਆ	-13760
▁ਹਵਾਵਾਂ	-13761
▁ਸ਼ੁਕਰਵਾਰ	-13762
▁ਹੈਰਾਨੀਜਨਕ	-13763
▁ਗੁਰੂਹਰਸਹਾਏ	-13764
nd	-13765
ਟਡ	-13766
ਕਮੇ	-13767
▁61	-13768
ਜਰਾਂ	-13769
▁ਮਗਨ	-13770
▁ਸਮੱ	-13771
ਵਾਲਤਾ	-13772
ਸ਼ੈਲੀ	-13773
▁ਉਦਾਰ	-13774
▁ਗਲਾਂ	-13775
▁ਘੰਟੀ	-13776
▁ਥਾਪੇ	-13777
▁ਬਿੰਦਰ	-13778
▁ਵਾਰੰਟ	-13779
ਸਾਇਟੀਆਂ	-13780
▁ਜਗਿਆਸੂ	-13781
▁ਟਾਇਮਜ਼	-13782
▁ਦੀਵਾਨਾ	-13783
▁ਸਰਦਾਰੀ	-13784
▁ਪੌਸ਼ਟਿਕ	-13785
▁ਪ੍ਰਿਤਪਾਲ	-13786
57	-13787
ਜ਼ਕ	-13788
ਨੇਡ	-13789
ੁੱਤ	-13790
ਰਮਾਂ	-13791
▁ਆਹਮ	-13792
▁ਇਕਾ	-13793
▁ਪੀਸ	-13794
▁ਯੁਗ	-13795
▁ਰਿੱ	-13796
ਗੀਰਾਂ	-13797
▁ਗਾਥਾ	-13798
▁ਚੇਨਈ	-13799
▁ਜਿਹੋ	-13800
▁ਜੋਗੇ	-13801
▁ਪੀਣਾ	-13802
▁ਪੱਖੇ	-13803
▁ਪੱਤਾ	-13804
▁ਮਰਨਾ	-13805
ਸੰਗਰੂਰ	-13806
▁ਕੈਰੋਂ	-13807
▁ਵਿਰਲੇ	-13808
▁ਕਾਲੀਆਂ	-13809
▁ਦੌਡ਼ਾਂ	-13810
▁ਪਉੜੀਆਂ	-13811
▁ਪਾਤਰਾਂ	-13812
▁ਅਤਿਵਾਦੀ	-13813
▁ਦਾਅਵਿਆਂ	-13814
▁ਜ਼ਖ਼ਮੀਆਂ	-13815
AM	-13816
ੋਚ	-13817
-03	-13818
ਟਾਨ	-13819
▁97	-13820
arat	-13821
▁ਘੁਲ	-13822
▁ਭੈਅ	-13823
nanak	-13824
▁ਬੱਗਾ	-13825
▁ਭੋਗਲ	-13826
▁ਵੱਧਣ	-13827
ਮੈਡੀਕਲ	-13828
ਲੀਜੈਂਸ	-13829
ਵਰਿੰਦਰ	-13830
▁ਚਾਹਾਂ	-13831
▁ਤੋਪਾਂ	-13832
▁ਨੌਵੇਂ	-13833
▁ਪ੍ਰਾਜ	-13834
▁ਰਛਪਾਲ	-13835
▁ਸੁਣਕੇ	-13836
▁ਗਾਰੰਟੀ	-13837
▁ਫ਼ਾਇਦੇ	-13838
▁ਲਕਸ਼ਮੀ	-13839
▁ਸੁਰਖਿਆ	-13840
##	-13841
eet	-13842
ett	-13843
▁CO	-13844
▁ਬਡ	-13845
ਐਸਐਸ	-13846
ਸਤਿਕ	-13847
▁ਉੜੀ	-13848
▁ਖੜਕ	-13849
▁ਗੱਜ	-13850
▁ਭੁਗ	-13851
▁ਇਨਕਮ	-13852
▁ਗੜਬੜ	-13853
▁ਜੁਲਮ	-13854
▁ਨਾਨੀ	-13855
▁ਬਣਾਉ	-13856
▁ਮਸਤੀ	-13857
▁ਸਾਕੇ	-13858
▁ਸੁਨਣ	-13859
▁ਸੁਰੀ	-13860
▁ਇਲਾਜ਼	-13861
▁ਥਕਾਵਟ	-13862
▁ਬਦਲਣਾ	-13863
▁ਸਾਹਨੀ	-13864
▁ਹਮਦਰਦ	-13865
▁ਗੁਲਾਟੀ	-13866
▁ਵਿਚਰਦੇ	-13867
▁ਸਿਤਾਰੇ	-13868
▁ਅਹਿਮਦਾਬਾਦ	-13869
▁ਪਰੰਪਰਾਵਾਂ	-13870
ਊਾ	-13871
ਆਊਟ	-13872
ੋਕਰ	-13873
▁ਝਿ	-13874
ਜ਼ੀਆ	-13875
ਟਰਜ਼	-13876
▁13,	-13877
▁ਦੇਇ	-13878
▁ਰਹੈ	-13879
▁ਵਡਮ	-13880
ਬਿਕਨੀ	-13881
▁news	-13882
▁ਗੇੜਾ	-13883
▁ਬਚਾਈ	-13884
▁ਬੈਸਟ	-13885
▁ਸੜਕੀ	-13886
▁ਕਰੀਨਾ	-13887
▁ਛੱਡਦਾ	-13888
▁ਫੈਲਿਆ	-13889
▁ਸਰਤਾਜ	-13890
▁ਹੌਸਲੇ	-13891
▁ਆਦਮਪੁਰ	-13892
▁ਸ਼ਖਸ਼ੀ	-13893
▁ਬਿਰਾਜਮਾਨ	-13894
੧੦	-13895
ild	-13896
rit	-13897
ਪਾਠ	-13898
ਸਵਾਰ	-13899
▁14,	-13900
▁ਜੌਨ	-13901
▁1992	-13902
▁ਇੱਧਰ	-13903
▁ਗੋਰਖ	-13904
▁ਯੂਨਿ	-13905
▁ਖੇਡਣਾ	-13906
▁ਤੋੜਿਆ	-13907
▁ਬਰੇਟਾ	-13908
▁ਭੇਡਾਂ	-13909
▁ਭੰਗੜੇ	-13910
▁ਰਸਾਲੇ	-13911
ਸੁੰਦਰਤਾ	-13912
▁ਅਤਿਅੰਤ	-13913
▁ਜੂਨੀਆਂ	-13914
▁ਬੇਟੀਆਂ	-13915
▁ਯੂਨਾਈਟਿਡ	-13916
▁ਇਲੈਕਟ੍ਰਿਕ	-13917
ਧੜ	-13918
200	-13919
਼ਾਂ	-13920
▁॥:	-13921
ight	-13922
rrrr	-13923
▁ਚਮਚ	-13924
▁ਬਲਦ	-13925
▁ਰਚੇ	-13926
ਡਾਕਟਰ	-13927
▁ਕਬਜੇ	-13928
▁ਕਲ੍ਹ	-13929
▁ਕਾਮਨ	-13930
▁ਕਾਰਾ	-13931
▁ਕੋਠੇ	-13932
▁ਪੂਰਣ	-13933
▁ਲਾਠੀ	-13934
▁ਸਮਾਇ	-13935
ਅਮਰੀਕੀ	-13936
▁ਪ੍ਰਾਣ	-13937
▁ਬ੍ਰਿਜ	-13938
▁ਲਸ਼ਕਰ	-13939
▁ਸਵੀਡਨ	-13940
/11/18,	-13941
▁ਨਮੋਸ਼ੀ	-13942
▁ਕ੍ਰਿਸ਼ਨਾ	-13943
▁ਪ੍ਰੋਜੈਕਟਾਂ	-13944
ics	-13945
ਦੱਸ	-13946
ਬਾਕੀ	-13947
ਿਆਲੀ	-13948
▁ਕਟਾ	-13949
▁ਡਾਰ	-13950
▁ਤਰਫ	-13951
▁ਪਤੇ	-13952
ਨਰੇਸ਼	-13953
੍ਰਿਤਾ	-13954
▁1973	-13955
▁ਕੋਲਾ	-13956
▁ਪੀਲੇ	-13957
▁ਵਿਹੂ	-13958
▁ਸੋਹੀ	-13959
▁ਲੱਗਭਗ	-13960
▁ਸ਼ੰਕਾ	-13961
▁ਪੁੱਤਾਂ	-13962
▁ਯੁਵਰਾਜ	-13963
▁ਅਸ਼ੀਰਵਾਦ	-13964
▁ਖੂਬਸੂਰਤੀ	-13965
▁ਗੈਰਕਾਨੂੰਨੀ	-13966
mm	-13967
ਅਜ	-13968
੧੩	-13969
ਰੱਬ	-13970
ੜੀਏ	-13971
▁ਤਉ	-13972
▁ਮਧ	-13973
lect	-13974
▁ਕਾਠ	-13975
▁ਜ਼ੇ	-13976
▁ਪੈਮ	-13977
▁ਫੀਡ	-13978
▁ਵੱਡ	-13979
ਮੇਸ਼ਰ	-13980
▁ਅਫੀਮ	-13981
▁ਇਕਲੌ	-13982
▁ਕੈਮੀ	-13983
▁ਦਿਓਲ	-13984
▁ਪਾਵੈ	-13985
▁ਪੱਪੂ	-13986
▁ਬੀਸੀ	-13987
▁ਮਾਹੀ	-13988
▁ਅਧਿਆਇ	-13989
▁ਉਤਸੁਕ	-13990
▁ਖਾਸਕਰ	-13991
▁ਟਿਕਾਅ	-13992
▁ਤਕਸੀਮ	-13993
▁ਵਰਤੀਆਂ	-13994
ਕੁਲਵਿੰਦਰ	-13995
▁ਉਦਯੋਗਾਂ	-13996
▁ਬੇਰਹਿਮੀ	-13997
▁ਮੰਦਭਾਗੀ	-13998
▁ਸ਼ਨਾਖ਼ਤ	-13999
▁ਗੋਇੰਦਵਾਲ	-14000
▁ਘਟਨਾਕ੍ਰਮ	-14001
ੈਮ	-14002
ੱਈ	-14003
ala	-14004
ਅਜਿ	-14005
ਦਸਮ	-14006
ਦੂਦ	-14007
ਾਨਿ	-14008
olog	-14009
▁Aug	-14010
▁ਇਥੋ	-14011
▁ਜਮੀ	-14012
▁ਜ਼ਰ	-14013
▁ਫਸਟ	-14014
▁ਬਗੀ	-14015
▁ਰਚਣ	-14016
ਕਾਲਜਕ	-14017
▁ਆਵਾਜ	-14018
▁ਨੀਅਤ	-14019
▁ਬੱਬੀ	-14020
▁ਰਕਬੇ	-14021
▁ਦਬਾਉਣ	-14022
▁ਬਣੇਗੀ	-14023
▁ਲਹਿਰੀ	-14024
▁Google	-14025
▁ਗਾਉਂਦੇ	-14026
▁ਜਿ਼ਆਦਾ	-14027
▁ਵਿਖਾਵਾ	-14028
▁ਮਜ਼ੇਦਾਰ	-14029
▁ਕਾਰਜਸ਼ੀਲ	-14030
▁ਗੇਂਦਬਾਜ਼	-14031
hu	-14032
ਥਰੇ	-14033
ਵਣੁ	-14034
ਟੀਆਈ	-14035
ਵਾਂਸ	-14036
▁can	-14037
▁ਬੱਜ	-14038
▁ਈਸ਼ਰ	-14039
▁ਦਾਤਿ	-14040
ਫੋਲਾਈਨ	-14041
▁ਡਬਲਯੂ	-14042
▁ਰੁੱਝੇ	-14043
▁ਕੋਚਿੰਗ	-14044
▁ਨਹਿਰਾਂ	-14045
▁ਉਦਘਾਟਨੀ	-14046
▁ਯਰੂਸ਼ਲਮ	-14047
ਗੁਰਦਾਸਪੁਰ	-14048
▁ਲਹਿਰਾਗਾਗਾ	-14049
▁ਭਿੰਡਰਾਂਵਾਲਿਆਂ	-14050
ows	-14051
ਟੀਵੀ	-14052
▁man	-14053
▁ਬਚੀ	-14054
ਸੁਥਰਾ	-14055
▁ਕੈਂਟ	-14056
▁ਗੋਗੀ	-14057
▁ਜੂਨੀ	-14058
▁ਮਾਸੀ	-14059
▁ਮੈਡੀ	-14060
▁ਰੁਕੇ	-14061
▁ਸਟ੍ਰ	-14062
▁ਸਰਸਾ	-14063
ਜ਼ੇਸ਼ਨ	-14064
▁ਅਮਿਤਾ	-14065
▁ਦਰੁਸਤ	-14066
▁ਨਕੋਦਰ	-14067
▁ਟਰੱਕਾਂ	-14068
▁ਸਾਂਪਲਾ	-14069
▁ਸੁਣਾਉਣ	-14070
ਵਾਹਿਗੁਰੂ	-14071
▁ਸੁਧਾਰਾਂ	-14072
▁ਦਾਅਵੇਦਾਰ	-14073
▁ਇੰਨਫੋਲਾਈਨ	-14074
59	-14075
cl	-14076
ਸਹ	-14077
ife	-14078
ਪੇਖ	-14079
▁ਮਣ	-14080
ease	-14081
ਹਿਮਾ	-14082
▁Raam	-14083
▁ਅਮਾਨ	-14084
▁ਈਰਖਾ	-14085
▁ਕਬਜ਼	-14086
▁ਕੇਸਰ	-14087
▁ਪਦਵੀ	-14088
ograph	-14089
▁ਉਂਗਲੀ	-14090
▁ਕੱਢਦੇ	-14091
▁ਦੇਵਾਂ	-14092
▁ਮਾਲੇਰ	-14093
▁ਸਮਿਤੀ	-14094
▁ਦਿਆਂਗਾ	-14095
▁ਯੂਨੀਕੋਡ	-14096
aav	-14097
ਕਦਾ	-14098
ਡ਼ੀ	-14099
ਬਿਰ	-14100
ਹੇਜ	-14101
▁(7	-14102
▁NE	-14103
ਚੈਨੀ	-14104
ਨਾਟਕ	-14105
▁Oct	-14106
▁ਖੇਮ	-14107
▁ਜਨਕ	-14108
▁1997	-14109
▁ਕੇਸਾ	-14110
▁ਖਾਣੀ	-14111
▁ਗੋਲੇ	-14112
▁ਤੂੜੀ	-14113
▁ਹਰਾਮ	-14114
▁ਅਪਾਹਜ	-14115
▁ਕਾਰਗਰ	-14116
▁ਮਾਈਕਲ	-14117
ਪ੍ਰਕਾਸ਼	-14118
▁ਗ਼ਰੀਬੀ	-14119
▁ਜਹਾਂਗੀਰ	-14120
▁ਇਲੈਕਟ੍ਰਾਨਿਕ	-14121
ੱਫ	-14122
ਧਨਾ	-14123
ਮੰਚ	-14124
▁ਆਡ	-14125
▁ਅਦਰ	-14126
▁ਬੀਚ	-14127
ਚਰਨਾਂ	-14128
ਪਿਛਲਾ	-14129
▁ਕੁਹਾ	-14130
▁ਕੈਮਰ	-14131
▁ਨਾਵੈ	-14132
▁ਨੁਕਸ	-14133
▁ਪ੍ਰੌ	-14134
▁ਯਾਤਰ	-14135
▁ਰਾਜ਼	-14136
▁ਲਕੀਰ	-14137
ਾਰਥੀਆਂ	-14138
▁ਕੇਸਰੀ	-14139
▁ਲੰਗਾਹ	-14140
▁ਸਮਝਦੀ	-14141
▁ਹਟਾਇਆ	-14142
▁ਹਰਨੇਕ	-14143
▁ਅਣਹੋਂਦ	-14144
▁ਫਾਈਲਾਂ	-14145
▁ਨਿਰਪੱਖਤਾ	-14146
▁ਪ੍ਰਕਿਰਤੀ	-14147
▁ਵਿਸ਼ੇਸ਼ਣ	-14148
39	-14149
ਉਰ	-14150
▁He	-14151
▁ਲਭ	-14152
irst	-14153
ober	-14154
▁ਝੰਡ	-14155
▁ਦਰਿ	-14156
▁ਮੱਠ	-14157
▁ਲੈਅ	-14158
ਖ਼ਾਸਤ	-14159
ਫੈਸਟੋ	-14160
▁ਇਖਲਾ	-14161
▁ਜਰਖੜ	-14162
▁ਪਏਗਾ	-14163
▁ਕਾਨ੍ਹ	-14164
▁ਗੜ੍ਹੀ	-14165
▁ਡੋਗਰਾ	-14166
▁ਉੱਚੀਆਂ	-14167
▁ਐਕਸੀਅਨ	-14168
▁ਢੁਕਵਾਂ	-14169
▁ਫਲਸਰੂਪ	-14170
▁ਸੁਖਦੀਪ	-14171
▁ਆਕਰਸ਼ਿਤ	-14172
▁ਜੁੱਤੀਆਂ	-14173
▁ਟ੍ਰਿਬਿਊਨ	-14174
▁ਸਹਿਕਾਰਤਾ	-14175
ਸ੍ਪੇੰਦੇਕ੍ਸ	-14176
▁ਗੁੰਡਾਗਰਦੀ	-14177
▁ਠੇਕੇਦਾਰਾਂ	-14178
ਨਿਨ	-14179
ਬਤੀ	-14180
▁ਝੁਲ	-14181
▁ਦ੍ਰ	-14182
▁ਲਿਓ	-14183
▁ਵਹੁ	-14184
ਸ਼ੇਰੀ	-14185
▁ਕੋਛੜ	-14186
▁ਘੋੜੀ	-14187
▁ਮਾਹਲ	-14188
▁ਵਿਘਨ	-14189
▁ਜੋੜਦਾ	-14190
▁ਟੇਕਿਆ	-14191
▁ਫੈਨਜ਼	-14192
▁ਸਮੂਚੀ	-14193
▁ਹਾਜਿਰ	-14194
▁ਅਸਿੱਧੇ	-14195
▁ਗੁਰੂਘਰ	-14196
▁ਨਿਰਯਾਤ	-14197
▁ਮਿਰਜ਼ਾ	-14198
▁ਵਿੱਚਲੇ	-14199
▁ਸੈਂਕੜਾ	-14200
▁ਹਾਰਦਿਕ	-14201
▁ਖਰੀਦਦਾਰੀ	-14202
ਸਫ਼	-14203
▁Sp	-14204
▁ਛਲ	-14205
▁ਹਊ	-14206
ਇੱਥੇ	-14207
ਧਿਆਨ	-14208
ਰੇਖਾ	-14209
ਹਿਆਂ	-14210
▁ਅਦਬ	-14211
▁ਦਵਾ	-14212
ੜਕੀਆਂ	-14213
▁ਦੀਪੀ	-14214
▁ਪਹਿਰ	-14215
▁ਪੌੜੀ	-14216
▁ਪੰਦਰ	-14217
▁ਬਰਤਨ	-14218
▁ਬਿਧਿ	-14219
▁ਮਿਸਤ	-14220
▁ਮੁਖਿ	-14221
▁ਸਦਮਾ	-14222
▁ਹਾਜੀ	-14223
ਕਾਨੂੰਨ	-14224
▁ਚੀਜਾਂ	-14225
▁ਜੋੜਾਂ	-14226
▁ਦਰਸਾਏ	-14227
▁ਮੁਰਦਾ	-14228
▁ਲਾਂਭੇ	-14229
▁ਵਰਿਆਮ	-14230
▁ਸ਼ਸ਼ੀ	-14231
▁ਪੀਪਲਜ਼	-14232
▁ਬਾਕੀਆਂ	-14233
▁ਸਥਾਨਿਕ	-14234
▁ਸੰਗੀਤਾ	-14235
▁ਸੰਤੋਸ਼	-14236
▁ਮਾਇਆਵਤੀ	-14237
▁ਵੇਰਵਿਆਂ	-14238
▁ਅਰਜਨਟੀਨਾ	-14239
▁ਬਿਆਨਬਾਜ਼ੀ	-14240
▁ਰਜਿਸਟ੍ਰੇਸ਼ਨ	-14241
▁180	-14242
▁our	-14243
▁ਬਜਰ	-14244
▁ਵੈਦ	-14245
ਵੇਂਗਾ	-14246
▁ਖਿੜੇ	-14247
▁ਚੁਰਾ	-14248
▁ਤਸਕਰ	-14249
▁ਪੋ੍ਰ	-14250
▁ਹੱਕੀ	-14251
▁ਅਖਾੜੇ	-14252
▁ਕਿੰਤੂ	-14253
▁ਖਦਸ਼ਾ	-14254
▁ਗੁਰਮਤ	-14255
▁ਤੁਲਸੀ	-14256
▁ਨਿਬੰਧ	-14257
▁ਪਵਿਤਰ	-14258
▁ਬਾਤਾਂ	-14259
▁ਸਮਾਰਕ	-14260
ੈਕਟਰੀਆਂ	-14261
▁ਕਾਨਪੁਰ	-14262
▁ਜਿਉਂਦਾ	-14263
▁ਯੋਧਿਆਂ	-14264
▁ਕ੍ਰੈਡਿਟ	-14265
▁ਸੰਪਾਦਕੀ	-14266
ਉਤੀ	-14267
ance	-14268
ਹਾਰੀ	-14269
▁ਟਵਿ	-14270
▁ਤਿਓ	-14271
▁ਨਦਰਿ	-14272
▁ਬਦਬੂ	-14273
osplay	-14274
▁ਉੱਠਿਆ	-14275
▁ਬਹੁਜਨ	-14276
▁ਮਾਣਦੇ	-14277
▁ਸੰਜੋਗ	-14278
ਲਿਬ੍ਰਿਟੀ	-14279
▁ਅਭਿਨੇਤਾ	-14280
▁ਅੰਮ੍ਰਿਤੁ	-14281
▁ਦੁਸ਼ਮਣਾਂ	-14282
./	-14283
ਫਨ	-14284
ੋਬ	-14285
[3]	-14286
ਡ਼ੇ	-14287
ਵਿਅ	-14288
ੋਰਾ	-14289
▁ਊਚ	-14290
▁ਨਲ	-14291
ਸਤ੍ਰ	-14292
ਿਸ਼ੂ	-14293
▁ਚਮਨ	-14294
▁ਲੋਚ	-14295
ਰੋਮਣੀ	-14296
ਲੋਕਾਂ	-14297
▁ਅਫਰੀ	-14298
▁ਚੌੜਾ	-14299
▁ਦਸਤੇ	-14300
▁ਫ਼ਲਸ	-14301
▁ਵਸਦਾ	-14302
▁ਸ਼ੋਕ	-14303
▁ਸੰਭਲ	-14304
▁ਕਰਾਚੀ	-14305
▁ਨਿਰਭੈ	-14306
▁ਉਤਾਰਿਆ	-14307
▁ਕੁਦਰਤਿ	-14308
▁ਸੋਵੀਅਤ	-14309
▁ਤ੍ਰਾਸਦੀ	-14310
▁ਫ਼ੌਜੀਆਂ	-14311
••	-14312
ਕੀਂ	-14313
ਯਾਰ	-14314
ਵੇਦ	-14315
ੱਕਤ	-14316
ੈਸਟੀ	-14317
▁ਜਰਾ	-14318
▁ਹੁਨ	-14319
ਪੂਰਬੀ	-14320
ੂਲਪੁਰ	-14321
▁ਅੰਡੇ	-14322
▁ਚਾਵਲ	-14323
▁ਪੇਕੇ	-14324
▁ਫਲਾਈ	-14325
▁ਸਹਜਿ	-14326
▁style	-14327
▁ਗਰਾਂਟ	-14328
▁ਡੇਰਾਬ	-14329
▁ਬ੍ਰੇਕ	-14330
▁ਭਰਜਾਈ	-14331
▁ਮੁਢਲੇ	-14332
▁ਵਤੀਰਾ	-14333
Orgasms	-14334
▁ਸ਼ੈਤਾਨ	-14335
▁ਹੌਂਸਲਾ	-14336
▁ਅਸਤੀਫ਼ੇ	-14337
▁ਜ਼ਰੂਰਤਾਂ	-14338
ਵੇਅ	-14339
ਸ਼ਿ	-14340
ator	-14341
ਬਾਣਾ	-14342
ਮਾਉਣ	-14343
ਸਮੈਨ	-14344
▁Jap	-14345
▁ਖੰਘ	-14346
▁ਨਾਦ	-14347
▁ਵਖਾ	-14348
Girls	-14349
ਹਿੰਦੂ	-14350
▁ਆਚਰਣ	-14351
▁ਕਲਿਕ	-14352
▁ਜਨੇਊ	-14353
▁ਪੰਚਮ	-14354
ਬਰਨਾਲਾ	-14355
▁ਕ੍ਰਿਪਾਨ	-14356
▁ਧਮਾਕਿਆਂ	-14357
||	-14358
ੳੂ	-14359
ਖ਼ੀ	-14360
ੈਂਚ	-14361
ੈਸੀ	-14362
▁ਕਵ	-14363
▁ਚਕ	-14364
ਕਾਸਟ	-14365
ੌਕਿਕ	-14366
ੜ੍ਹਤ	-14367
▁ਛਤਰ	-14368
▁ਬਦਨ	-14369
▁ਸਰਸ	-14370
▁ਸੂਈ	-14371
ਕਰਮਾਂ	-14372
ਖਾਲਸਾ	-14373
▁ਆਲਮੀ	-14374
▁ਕਰਜੇ	-14375
▁ਕੌੜਾ	-14376
▁ਦਹੀਂ	-14377
▁ਧਨੋਆ	-14378
▁ਨਿਮਨ	-14379
▁ਪੈਣੀ	-14380
▁ਫਾਹਾ	-14381
▁ਬੋਧੀ	-14382
▁ਸਾਈਂ	-14383
▁ਸੱਗੂ	-14384
▁ਗਣੇਸ਼	-14385
▁ਗਲਬਾਤ	-14386
▁ਜਥਿਆਂ	-14387
▁ਪਹਿਲਕ	-14388
▁ਬੜੀਆਂ	-14389
▁ਸੇਫਟੀ	-14390
ਵਿਗਿਆਨਕ	-14391
▁ਦਿਮਾਗੀ	-14392
▁ਧਰਮਰਾਜ	-14393
▁ਹੰਗਾਮਾ	-14394
AT	-14395
ਊਲ	-14396
ਚਿਆ	-14397
ਲੀਏ	-14398
੍ਹਣ	-14399
ਸ਼ਕਾ	-14400
ਿੰਘਮ	-14401
▁ਇਕਿ	-14402
▁ਮੰਝ	-14403
ਵਿਆਪਕ	-14404
ਵਿਸ਼ਵ	-14405
▁ਅਣਦੇ	-14406
▁ਜੁਡੀ	-14407
▁ਭਰਦਾ	-14408
▁ਸ਼ਾਸ	-14409
ਕਾਰਟੂਨ	-14410
ਗੁਰਮੁਖ	-14411
▁ਇੰਸਾਂ	-14412
▁ਕਿੱਸੇ	-14413
▁ਖਰੀਦੀ	-14414
▁ਗੇਮਜ਼	-14415
▁Latest	-14416
▁ਗਰਾਊਂਡ	-14417
▁ਲਵਾਂਗੇ	-14418
▁ਕਿਸ਼ਤਾਂ	-14419
▁ਜਨਸੰਖਿਆ	-14420
▁ਸੁਲਝਾਉਣ	-14421
▁ਔਰੰਗਜ਼ੇਬ	-14422
▁ਪ੍ਰਾਜੈਕਟਾਂ	-14423
▁ਿੲ	-14424
ਤਾਲਾ	-14425
ਿੰਡੇ	-14426
▁ਕੋਣ	-14427
▁ਵੇਂ	-14428
ਪ੍ਰਸਤ	-14429
▁ਉਠਾਈ	-14430
▁ਘਿਰੇ	-14431
▁ਛਾਪਣ	-14432
▁ਟੋਪੀ	-14433
▁ਨੋਬਲ	-14434
▁ਬੀਜਣ	-14435
▁ਸੋਮਾ	-14436
▁ਹਲਦੀ	-14437
▁ਚਾਹਿਆ	-14438
▁ਡਿਜ਼ੀ	-14439
ਰੁਪਿੰਦਰ	-14440
▁ਕਿਸਾਨਾ	-14441
▁ਡਿਸਪਲੇ	-14442
▁ਤਜ਼ਰਬੇ	-14443
▁ਪਰਦਾਫਾ	-14444
▁ਰਾਮਪਾਲ	-14445
▁ਖੜ੍ਹੀਆਂ	-14446
▁ਜਾਨਲੇਵਾ	-14447
▁ਦੁਸਹਿਰੇ	-14448
▁ਸਖਸ਼ੀਅਤ	-14449
▁ਇੰਪਲਾਈਜ਼	-14450
bl	-14451
ਹਉ	-14452
une	-14453
ਦਿਲੀ	-14454
ਹੇਜ਼	-14455
ੈਂਡਮ	-14456
▁ਅਨੂ	-14457
▁ਜੀਨ	-14458
▁ਬਿਖ	-14459
▁ਸੇਨ	-14460
ਵਮੈਂਟ	-14461
▁ਗਤਕਾ	-14462
▁ਮਾਮੇ	-14463
▁ਵਿਣੁ	-14464
▁ਵੈਲੀ	-14465
ਲੰਘਾਉਣ	-14466
▁ਐਕਸਚੇ	-14467
▁ਖਾਤਮਾ	-14468
▁ਗੱਲੋਂ	-14469
▁ਜਿੰਦੇ	-14470
▁ਬੇਹਤਰ	-14471
▁ਲੋਕੀਂ	-14472
▁ਸੁੱਚੇ	-14473
▁ਅਗਲੀਆਂ	-14474
▁ਅਬਦਾਲੀ	-14475
▁ਜਨਮਦਿਨ	-14476
▁ਡਿਫੈਂਸ	-14477
▁ਤਾਰੀਫ਼	-14478
▁ਬੇਚੈਨੀ	-14479
▁ਮਾਈਕਰੋ	-14480
▁ਸਥਾਪਤੀ	-14481
▁ਇਜ਼ਰਾਈਲ	-14482
▁ਅਮ੍ਰਿਤਸਰ	-14483
▁ਅੱਜਕੱਲ੍ਹ	-14484
ਫੂ	-14485
ਸਰੇ	-14486
ਸਿਵ	-14487
ਜ਼ਰਤ	-14488
▁Vis	-14489
▁ਅਖੇ	-14490
▁ਗੱਡ	-14491
▁ਨਬੀ	-14492
▁ਵਫਾ	-14493
ਦੁਨੀਆ	-14494
▁more	-14495
▁ਟਾਇਰ	-14496
▁ਤੁਰੀ	-14497
▁ਪੱਤੀ	-14498
▁ਰੰਗਿ	-14499
▁ਸਮਾਧ	-14500
ਅਧਿਕਾਰ	-14501
▁ਜੁਝਾਰ	-14502
▁ਟਾਕਰੇ	-14503
ਕਪੂਰਥਲਾ	-14504
▁ਚੇਲਿਆਂ	-14505
▁ਜਾਪਾਨੀ	-14506
▁ਪ੍ਰਕਰਣ	-14507
▁ਸ਼ਨਾਖਤ	-14508
▁ਚਿਹਰਿਆਂ	-14509
▁ਪੇਂਟਿੰਗ	-14510
▁ਸੀਚੇਵਾਲ	-14511
▁ਸਤਿਗੁਰਾਂ	-14512
wa	-14513
੯੯	-14514
ਖੇੜਾ	-14515
ਲੋਰੀ	-14516
▁3:2	-14517
▁ਗੰਨ	-14518
▁ਛੱਪ	-14519
▁ਜੀਪ	-14520
▁ਜੰਤ	-14521
▁ਪਹੰ	-14522
ਦੇਸ਼ਾ	-14523
ਬਲਦੇਵ	-14524
▁ਅਨੁਭ	-14525
▁ਉਤਰੇ	-14526
▁ਕਰਮਾ	-14527
▁ਖੁੰਝ	-14528
▁ਤੇਗ਼	-14529
▁ਨਿਗਲ	-14530
▁ਅਤੁੱਟ	-14531
▁ਘਿਰਾਓ	-14532
▁ਧੜਿਆਂ	-14533
▁ਬਿੰਦੀ	-14534
▁ਮਾਸਕੋ	-14535
▁ਲੋਹੀਆ	-14536
▁ਸਿਆਟਲ	-14537
▁ਇਨ੍ਹੀਂ	-14538
▁ਉਤਪਾਦਕ	-14539
▁ਗ੍ਰਾਂਟ	-14540
▁ਚਲਾਉਣਾ	-14541
▁ਪਟਿਆਲੇ	-14542
▁ਸਟੂਡੀਓ	-14543
▁ਅਪਰਾਧਾਂ	-14544
▁ਪਸੰਦੀਦਾ	-14545
▁ਬ੍ਰਿਗੇਡ	-14546
▁ਗੁਰਸਿੱਖਾਂ	-14547
▁ਡਿਪਾਰਟਮੈਂਟ	-14548
ਪਲੀ	-14549
ਲਿੰ	-14550
ਵੇਬ	-14551
ੁਆਰ	-14552
▁ਓਏ	-14553
ਜ਼ੂਲ	-14554
ੁੱਤੀ	-14555
▁ਡਿਕ	-14556
▁ਮੌਜ	-14557
ਨੀਕਰਨ	-14558
▁ਗਰਦਨ	-14559
▁ਭੈਣੀ	-14560
▁ਸਲਾਟ	-14561
▁ਖਰਚਿਆਂ	-14562
▁ਖ਼ਿਤਾਬ	-14563
▁ਬਖ਼ਸ਼ੀ	-14564
▁ਰਿਕਸ਼ਾ	-14565
▁ਸੰਰਚਨਾ	-14566
▁ਨਿੱਕੀਆਂ	-14567
▁ਪਰਵਿੰਦਰ	-14568
▁ਗੇਂਦਬਾਜ਼ੀ	-14569
▁ਪਿੰ੍ਰਸੀਪਲ	-14570
▁ਪ੍ਰਸ਼ੰਸਕਾਂ	-14571
▁ਰਾਸ਼ਟਰਮੰਡਲ	-14572
63	-14573
ਗਸ	-14574
1-2	-14575
ਵੁੱਡ	-14576
ਸੁੱਚ	-14577
▁15,	-14578
▁16,	-14579
▁1995	-14580
▁ਕੈਸਿ	-14581
▁ਪਾਲਾ	-14582
▁ਪਿੰਗ	-14583
▁ਸੁਰਖ	-14584
▁ਆਲੋਚਕ	-14585
▁ਜਿਤਨਾ	-14586
▁ਟਮਾਟਰ	-14587
▁ਦਰਸਾਈ	-14588
▁ਨੇੜਤਾ	-14589
▁ਬਹਾਲੀ	-14590
▁ਬੱਤਰਾ	-14591
▁ਸੰਗਤਾ	-14592
ਵਟਾਂਦਰਾ	-14593
▁ਨੋਜਵਾਨ	-14594
▁ਰੱਖਣਗੇ	-14595
▁ਸੁਖਰਾਜ	-14596
▁ਸਰਹੱਦਾਂ	-14597
▁ਸ਼ਾਪਿੰਗ	-14598
▁ਸਿਟੀਜ਼ਨ	-14599
▁ਸੰਤੁਸ਼ਟੀ	-14600
▁ਸਿੱਖਿਆਵਾਂ	-14601
ਅਣ	-14602
ver	-14603
ਪੈਡ	-14604
▁01	-14605
ਸਮਾਜ	-14606
ਹਾਊਸ	-14607
▁ਓਸੇ	-14608
▁ਕਹੂੰ	-14609
▁ਕੁਆਂ	-14610
▁ਵੱਸਣ	-14611
▁ਸਲੂਕ	-14612
▁ਘਰਾਣੇ	-14613
▁ਤਗ਼ਮਾ	-14614
▁ਪਿਆਜ਼	-14615
▁ਬਦਲਦਾ	-14616
▁ਸਮਾਧੀ	-14617
▁ਅਥਾਰਿਟੀ	-14618
▁ਅਭਿਸ਼ੇਕ	-14619
▁ਯਹੂਦੀਆਂ	-14620
ਡਰਾਂ	-14621
▁ਉੱਸ	-14622
▁ਟਾਰ	-14623
▁ਢੀਂ	-14624
▁ਮਦਰ	-14625
ਜੇਹੜਾ	-14626
ਤਰਸੇਮ	-14627
▁have	-14628
▁ਅਗਨਿ	-14629
▁ਅਜੈਬ	-14630
▁ਸਦੀਕ	-14631
▁ਸਪੁਰ	-14632
▁ਸਸਤੀ	-14633
▁ਸ਼ਾਲ	-14634
▁ਹਲਕੀ	-14635
▁ਆਦਤਾਂ	-14636
▁ਜ਼ੋਰਾ	-14637
▁ਜਾਗਰਣ	-14638
▁ਦਾਖਿਲ	-14639
▁ਮਾਰਦੀ	-14640
▁ਵਤੀਰੇ	-14641
▁ਸਮਾਉਣ	-14642
▁ਸੰਵਾਰ	-14643
ਸ਼ਟੀਕਰਨ	-14644
▁ਬੰਗਲੌਰ	-14645
▁ਹਾਈਵੇਅ	-14646
▁ਇਨਸਾਨਾਂ	-14647
▁ਜੁਰਮਾਨੇ	-14648
▁ਮੁਲਤਾਨੀ	-14649
▁ਸਥਿਤੀਆਂ	-14650
▁ਪਹਿਰੇਦਾਰ	-14651
▁ਸੰਸਕਾਰਾਂ	-14652
,‘	-14653
9).	-14654
ਗਾਮ	-14655
ਫੈਡ	-14656
▁ਐਬ	-14657
jatt	-14658
ਬੀਤੀ	-14659
▁ਅਵੇ	-14660
ਜਿੱਥੇ	-14661
ੋਗਰਾਮ	-14662
▁will	-14663
▁ਕੜਾਹ	-14664
▁ਫੈਲੀ	-14665
▁ਮੈਰਾ	-14666
▁ਮੋਢੀ	-14667
▁ਰਾਵਲ	-14668
▁ਲਟਕਾ	-14669
▁ਵੜੈਚ	-14670
▁ਛੱਡਕੇ	-14671
▁ਟ੍ਰੇਨ	-14672
▁ਦੋਹਰਾ	-14673
▁ਨਰਸਰੀ	-14674
▁ਪੀਂਦਾ	-14675
▁ਬਜੁਰਗ	-14676
▁ਸੈਨੇਟ	-14677
▁ਘੁੰਮਦੇ	-14678
▁ਦਰਵਾਜੇ	-14679
▁ਦਿਖਾਵੇ	-14680
▁ਸਾਰਥਿਕ	-14681
ਸੁਖਵਿੰਦਰ	-14682
▁ਜਥੇਬੰਦਕ	-14683
▁ਮੀਟ੍ਰਿਕ	-14684
▁ਹੁਕਮਨਾਮੇ	-14685
XX	-14686
»»	-14687
ਇਨਾ	-14688
ਗੇਜ	-14689
▁81	-14690
▁ਬਠ	-14691
abel	-14692
ound	-14693
ਡੋਰੀ	-14694
ਫਿਆਂ	-14695
ਮੁਨਾ	-14696
ਰਾਜੀ	-14697
ਸੀਜ਼	-14698
▁ਬੂਟ	-14699
▁ਲੋਨ	-14700
▁ਭੱਤਾ	-14701
▁ਦਬਦਬਾ	-14702
▁ਦੁਸ਼ਟ	-14703
▁ਫ਼ਾਰਸੀ	-14704
▁ਬੁਲਾਉਣ	-14705
▁ਵਿਆਕਤੀ	-14706
▁ਐਪਲੀਕੇਸ਼	-14707
▁ਕਾਂਸਟੇਬਲ	-14708
▁ਕੁਰੀਤੀਆਂ	-14709
▁ਡਰਾਈਵਿੰਗ	-14710
▁ਮਾਲੇਰਕੋਟਲਾ	-14711
................	-14712
▁ab	-14713
▁ਮਛ	-14714
/201	-14715
otal	-14716
ਨੀਚਰ	-14717
ਪੰਥੀ	-14718
ਸ਼ਨਾ	-14719
ਸ਼ਿਕ	-14720
▁New	-14721
▁ਉਗਾ	-14722
ਰਲੈਂਡ	-14723
▁ਚਹੁੰ	-14724
▁ਠੰਡਲ	-14725
▁ਪਲੱਗ	-14726
▁ਪੁੰਜ	-14727
▁ਰਤਨਾ	-14728
▁ਸੈਂਡ	-14729
੍ਰਿਸ਼ਨ	-14730
▁ਦੁੱਖੀ	-14731
▁ਮਾਫ਼ੀ	-14732
▁ਯਕੀਨਨ	-14733
▁ਸੰਘਣੀ	-14734
▁ਹੁਕਮੁ	-14735
▁ਘੁਸਪੈਠ	-14736
▁ਤਮਾਸ਼ਾ	-14737
▁ਤੀਬਰਤਾ	-14738
ਅੰਤਰਜਾਤੀ	-14739
▁ਹਾਨੀਕਾਰਕ	-14740
ਾਮ	-14741
ਕੂਬ	-14742
ਦਾਇ	-14743
ਭਰੀ	-14744
ਮੇਜ	-14745
▁ਗਜ	-14746
ੱਸਵੀ	-14747
▁ਘਟਿ	-14748
kalee	-14749
ਸ਼ਹੀਦ	-14750
▁ਅਧਿਕ	-14751
▁ਅਭਿਨ	-14752
▁ਚੰਨਣ	-14753
▁ਜ਼ੈਲ	-14754
▁ਭੂਰੀ	-14755
▁ਕਾਬਲੀ	-14756
▁ਕਾਬੁਲ	-14757
▁ਨਾਗਰਾ	-14758
▁ਨਾਜ਼ਰ	-14759
▁ਨਿਧਾਨ	-14760
▁ਅਲੋਚਨਾ	-14761
▁ਕਥਾਵਾਂ	-14762
▁ਦੁਸਾਂਝ	-14763
▁ਪ੍ਰਮੁਖ	-14764
▁ਬਰਖਾਸਤ	-14765
▁ਮੁਜ਼ਾਹਰੇ	-14766
az	-14767
ਚਰਜ	-14768
ਜਪੁ	-14769
ਚੰਦਰ	-14770
ਧਾਰਕ	-14771
▁ਗੱਪ	-14772
▁ਜਟਾ	-14773
▁ਬੋਸ	-14774
ਦਾਖਲਾ	-14775
ਭਾਵੇਂ	-14776
ਿਆਰਥੀ	-14777
▁ਅਜ਼ੀ	-14778
▁ਖਾਧੀ	-14779
▁ਪੀਸੀ	-14780
▁ਮਿਲਕ	-14781
▁ਵੰਸ਼	-14782
▁ਸੌਖੀ	-14783
▁ਅੱਖੀਂ	-14784
▁ਕਾਜ਼ੀ	-14785
▁ਚੇਤੰਨ	-14786
▁ਜਖ਼ਮੀ	-14787
▁ਪੀੜਤਾ	-14788
▁ਮਹਿਰਾ	-14789
▁ਸਕੀਆਂ	-14790
▁ਸਟੇਟਸ	-14791
▁ਸੂਰਮੇ	-14792
▁ਸੰਨਿਆ	-14793
▁ਹਰੀਕੇ	-14794
▁ਜ਼ੋਰਾਂ	-14795
▁ਪਿਸ਼ਾਬ	-14796
▁ਸੰਗਰਾਮ	-14797
▁ਹੋਟਲਾਂ	-14798
▁ਮਕਸੂਦਾਂ	-14799
▁ਮੁਖਤਿਆਰ	-14800
▁ਮੰਡੀਕਰਨ	-14801
▁ਬਿਕਰਮਜੀਤ	-14802
▁Raamkalee	-14803
▁ਕਾਰਜਕਾਰਨੀ	-14804
UMA	-14805
▁ਵੂ	-14806
ਆਈਟੀ	-14807
ਪਾਰਾ	-14808
ਸਮੂਹ	-14809
ਸ਼ਤਾ	-14810
▁ਏਕੋ	-14811
▁ਗੋਂ	-14812
▁ਛਬੀ	-14813
▁ਤੱਟ	-14814
▁ਭੜਕ	-14815
▁ਲਗਣ	-14816
▁ਹਲਾ	-14817
ਰਾਜਨੀ	-14818
ਸ਼ੀਅਰ	-14819
▁ਅੰਕਲ	-14820
▁ਖੂਨੀ	-14821
▁ਠਾਣੇ	-14822
▁ਸਰਕਟ	-14823
▁ਸਾਦਾ	-14824
▁ਅਸਟੇਟ	-14825
▁ਗਣਰਾਜ	-14826
▁ਫ਼ੀਸਦ	-14827
▁ਲਵੇਗੀ	-14828
▁ਸੁੱਤਾ	-14829
▁ਬੈਨਰਜੀ	-14830
▁ਪਹੁੰਚਦੇ	-14831
▁ਮੈਲਬੌਰਨ	-14832
▁ਨਾਕਾਬੰਦੀ	-14833
▁ਐਕਸਪ੍ਰੈੱਸ	-14834
▁ਪ੍ਰੀਖਿਆਵਾਂ	-14835
੧੬	-14836
ati	-14837
ੁਨਾ	-14838
ੋਸ਼	-14839
▁07	-14840
▁ਘਬ	-14841
▁ਬੜ	-14842
ਚਰਚਾ	-14843
ਮਾਨਾ	-14844
ੋਰੀਆ	-14845
▁ਪਪੀ	-14846
▁ਲੀਹ	-14847
▁1960	-14848
▁ਉਕਸਾ	-14849
▁ਜਾਰਜ	-14850
▁ਨੰਦਾ	-14851
▁ਪੀਐਮ	-14852
▁ਮਿਆਂ	-14853
▁ਸਾਬੀ	-14854
▁ਸੋਚੇ	-14855
▁ਅਣਗੌਲ	-14856
▁ਚੂੰਕਿ	-14857
▁ਦਾਲਾਂ	-14858
▁ਦਿਵਾਈ	-14859
▁ਸਮਾਜੀ	-14860
ਰੇਸ਼ਨਾਂ	-14861
▁ਨਿਤਨੇਮ	-14862
▁ਮਨਜੂਰੀ	-14863
▁ਅਵਿਨਾਸ਼	-14864
▁ਦੁਸ਼ਮਣੀ	-14865
▁ਪ੍ਰਸਾਸ਼ਨ	-14866
▁ਮੁਟਿਆਰਾਂ	-14867
▁ਸ਼੍ਰੀਲੰਕਾ	-14868
ਗੁਲ	-14869
▁82	-14870
ਖਾਰੀ	-14871
ਹਲਕਾ	-14872
▁130	-14873
▁ਗਦਰ	-14874
▁ਪਲੀ	-14875
ality	-14876
ature	-14877
ਸਾਂਸੀ	-14878
ੋਲੀਅਮ	-14879
▁ਨੀਰਜ	-14880
▁ਪਰਮੇ	-14881
▁ਬੌਬੀ	-14882
▁ਮਿਠਾ	-14883
▁ਸਕਾਟ	-14884
▁ਸਪਰੇ	-14885
▁ਅਮੋਲਕ	-14886
▁ਐਕਟਿਵ	-14887
▁ਛੱਡਦੇ	-14888
▁ਨਿੱਕਾ	-14889
▁ਸਾਜ਼ੋ	-14890
▁August	-14891
▁ਸੰਗਠਿਤ	-14892
▁ਕਰਮਕਾਂਡ	-14893
▁ਗਊਸ਼ਾਲਾ	-14894
▁ਢੱਡਰੀਆਂ	-14895
▁ਦਰੱਖਤਾਂ	-14896
▁2014-02-2	-14897
▁ਇੰਟੈਲੀਜੈਂਸ	-14898
ਇਜ਼	-14899
▁ਘੇ	-14900
▁ਭਈ	-14901
▁ਅਤਰ	-14902
▁ਗਰੀ	-14903
▁ਰੌਣ	-14904
▁ਸੋਰ	-14905
▁ਕਾਹਲ	-14906
▁ਖੋਲਣ	-14907
▁ਜਨੂੰ	-14908
▁ਦੰਗੇ	-14909
▁ਭੀਖੀ	-14910
▁ਵੇਖਾ	-14911
▁ਸਰਵਸ	-14912
▁ਸੋਲਰ	-14913
▁ਸੰਘੇ	-14914
▁ਹੇਤੁ	-14915
▁ਯਾਰਾਂ	-14916
▁ਵਟਸਐਪ	-14917
▁ਕੋਵਿੰਦ	-14918
▁ਲਾਮਬੰਦ	-14919
▁ਲੰਮੀਆਂ	-14920
▁ਸੁਚੱਜੀ	-14921
riptease	-14922
▁ਰੱਖਦੀਆਂ	-14923
▁ਮੈਨੀਫੈਸਟੋ	-14924
▁ਕਾਰੋਬਾਰੀਆਂ	-14925
61	-14926
HI	-14927
nt	-14928
▁ا	-14929
ਚੱਕ	-14930
ਵਜ਼	-14931
▁03	-14932
ਖ਼ਾਰ	-14933
▁720	-14934
▁ਕਬੂ	-14935
▁ਪਸ਼	-14936
▁ਟੈਂਕ	-14937
▁ਨੋਡਲ	-14938
▁ਭੋਰਾ	-14939
▁ਵਹਾਅ	-14940
ਗੁਰਦੀਪ	-14941
▁ਅਨੀਤਾ	-14942
▁ਅਸਥਾਈ	-14943
▁ਗੁਆਂਢ	-14944
▁ਗੌਂਡਰ	-14945
▁ਡਿੱਗੀ	-14946
▁ਦੋਸਤੋ	-14947
▁ਮਨ੍ਹਾ	-14948
▁ਲਖਬੀਰ	-14949
▁ਲੱਭਣਾ	-14950
▁ਬਾਈਪਾਸ	-14951
▁ਲੱਛਣਾਂ	-14952
▁ਡਿਜ਼ੀਟਲ	-14953
▁ਨਿਰਵਿਘਨ	-14954
▁ਪੁਰਤਗਾਲ	-14955
▁ਮਹਾਂਪੁਰ	-14956
▁ਰਵਾਇਤਾਂ	-14957
▁ਸ਼ਰੋਮਣੀ	-14958
▁ਐਂਬੂਲੈਂਸ	-14959
▁ਸੈਨੀਟੇਸ਼ਨ	-14960
:0	-14961
੧੫	-14962
ਜੋਧ	-14963
ਲੋਹ	-14964
ਿਨੀ	-14965
ੱਪਾ	-14966
edia	-14967
ਨੀਅਨ	-14968
ਮੇਂਟ	-14969
ੌਰੀਆ	-14970
▁ਝਗੜ	-14971
▁ਬੱਦ	-14972
▁ਰਿਫ	-14973
▁ਇਹਦੀ	-14974
▁ਕ੍ਰੀ	-14975
▁ਧੁਨੀ	-14976
▁ਬੀਅਰ	-14977
▁ਬੀਤਣ	-14978
▁ਹੇਅਰ	-14979
▁ਗਹਿਰੇ	-14980
▁ਗਿਣਿਆ	-14981
▁ਜਗਾਉਣ	-14982
▁ਤਹਿਰੀ	-14983
▁ਸਤਬੀਰ	-14984
▁ਸਮੂਚੇ	-14985
▁ਸੁਖਾਂ	-14986
▁ਸੁਥਰਾ	-14987
▁ਸੁਹਾਗ	-14988
▁ਖੁਲ੍ਹੇ	-14989
▁ਛਿੜਕਾਅ	-14990
▁ਪ੍ਰਿਥੀ	-14991
▁ਬਿਲੀਅਨ	-14992
▁ਸਭਿਅਤਾ	-14993
▁ਪ੍ਰਿਅੰਕਾ	-14994
▁ਦਹਿਸ਼ਤਗਰਦਾਂ	-14995
ਕਥਾ	-14996
ਹਰਤ	-14997
ਹੰਗ	-14998
Cums	-14999
ਬੇਟੀ	-15000
ੋਰੇਟ	-15001
▁ਰਸਤ	-15002
▁ਲਵਾ	-15003
▁ਅੱਡੀ	-15004
▁ਉਠਿਆ	-15005
▁ਉੱਠੇ	-15006
▁ਕੂੜੁ	-15007
▁ਕੋਟਿ	-15008
▁ਜੇਹਾ	-15009
▁ਜੱਥਾ	-15010
▁ਦਾਗ਼	-15011
▁ਰੂੜੀ	-15012
▁ਸਾਦੇ	-15013
▁ਸੰਮਨ	-15014
ateurs	-15015
▁ਜਾਣਨਾ	-15016
▁ਫਿਲਟਰ	-15017
▁ਬੁੱਕਲ	-15018
▁ਮੁਕੰਦ	-15019
▁ਮੰਗਵਾ	-15020
▁ਸਪਾਟਾ	-15021
ational	-15022
▁ਅਧਿਕਾਰਕ	-15023
▁ਇਕੱਠਿਆਂ	-15024
▁ਉਪਰਾਲਿਆਂ	-15025
▁ਪਰਦਾਫਾਸ਼	-15026
▁ਪ੍ਰਮਾਣਿਤ	-15027
▁ਪ੍ਰੇਸ਼ਾਨੀਆਂ	-15028
rad	-15029
੍ਫ਼	-15030
▁ਇੱਜ	-15031
▁ਜੀਹ	-15032
▁ਫੇਸ	-15033
ਲੈਟਿਨ	-15034
▁ਖੋਹਣ	-15035
▁ਜਵਾਈ	-15036
▁ਬਿਜਲ	-15037
▁ਮਿਉਂ	-15038
▁ਲੁਕਾ	-15039
▁ਅਜੇਹੀ	-15040
▁ਚਲਾਣੇ	-15041
▁ਪੀਰਾਂ	-15042
▁ਫੀਸਾਂ	-15043
▁ਰਵੱਈਏ	-15044
▁ਪ੍ਰੀਤਿ	-15045
▁ਮਿਟਾਉਣ	-15046
▁ਸਿਰਜਨਾ	-15047
▁ਡਿਗਰੀਆਂ	-15048
▁ਮਜਦੂਰਾਂ	-15049
▁ਵਿਦਾਇਗੀ	-15050
▁ਸਾਵਧਾਨੀ	-15051
▁ਚਾਰਜਸ਼ੀਟ	-15052
▁ਯਾਦਵਿੰਦਰ	-15053
Er	-15054
ਯਨ	-15055
ਚੱਲ	-15056
ੂਕੀ	-15057
▁ਉੁ	-15058
▁ਏਲ	-15059
ਿਸਕੋ	-15060
▁(6)	-15061
▁ਜਾਹ	-15062
▁ਮਿਕ	-15063
▁ਰੋਬ	-15064
right	-15065
▁ਅਰਥੀ	-15066
▁ਛੱਪੜ	-15067
▁ਜਾਮਾ	-15068
▁ਜੀਵਾ	-15069
▁ਧੰਨਾ	-15070
▁ਵਿਜ਼	-15071
▁ਸੋਹਨ	-15072
▁ਹੈਲਪ	-15073
▁ਕੁਰਾਨ	-15074
▁ਚੌਂਕੀ	-15075
▁ਭਾਗਵਤ	-15076
▁ਮੁਜਰਮ	-15077
▁ਕਾਰਕੁੰ	-15078
▁ਦਰਖਾਸਤ	-15079
▁ਨਾਰਾਇਣ	-15080
▁ਸਿਰੋਪਾ	-15081
▁ਸੂਰਬੀਰ	-15082
▁ਨਿਵੇਕਲਾ	-15083
▁ਵਾਲੀਬਾਲ	-15084
▁ਸਰਵਿਸਿਜ਼	-15085
.-	-15086
Sp	-15087
sc	-15088
ਭੈਣ	-15089
▁la	-15090
ਮਿਲਾ	-15091
▁ਖਾਧ	-15092
▁ਛਿੜ	-15093
▁ਨੰਨ	-15094
▁ਰਖੀ	-15095
▁ਕਿਧਰ	-15096
▁ਗਊਆਂ	-15097
▁ਬਿੰਬ	-15098
▁ਰਚਿਤ	-15099
▁ਰੋਮਨ	-15100
▁ਰੋਮੀ	-15101
▁ਲੰਘੀ	-15102
ਿੰਦਿਆਂ	-15103
▁ਕਿੱਸਾ	-15104
▁ਦਿੜ੍ਹ	-15105
▁ਨਾਟਕੀ	-15106
▁ਬੂਥਾਂ	-15107
▁ਮੌਲਿਕ	-15108
▁ਅੱਠਵੀਂ	-15109
▁ਮਹੀਨਾਵਾਰ	-15110
▁ਫੋਟੋਗ੍ਰਾਫੀ	-15111
▁ਸੁਰਿੰਦਰਪਾਲ	-15112
37	-15113
act	-15114
ਗਰੋ	-15115
ਰਟੀ	-15116
▁Jan	-15117
▁ਸਿਫ	-15118
ecial	-15119
ਅਮਰੀਕ	-15120
ਕੁਦਰਤ	-15121
ਟਰੀਨਾ	-15122
ਿਸ਼ਤੇ	-15123
▁ਇਤਨੇ	-15124
▁ਐਂਡਰ	-15125
▁ਗਿਰੀ	-15126
▁ਗੈਰੀ	-15127
▁ਮੈਨੂ	-15128
▁ਸਮਾਈ	-15129
▁Total	-15130
▁ਈਵੈਂਟ	-15131
▁ਡਬਲਿਊ	-15132
▁ਭਰਮਾਂ	-15133
▁ਰੱਖਕੇ	-15134
▁ਸਾਂਭਣ	-15135
▁ਹਿਸਾਰ	-15136
▁ਗੁਲਸ਼ਨ	-15137
▁ਪੰਡੋਰੀ	-15138
▁ਸੈਕਿੰਡ	-15139
▁orgasms	-15140
▁ਸੰਜੀਦਗੀ	-15141
▁ਐਕਸੀਡੈਂਟ	-15142
▁ਕੀਟਨਾਸ਼ਕ	-15143
▁ਖ਼ਾਲਿਸਤਾਨ	-15144
▁ਫ਼ਰਾਂਸੀਸੀ	-15145
82	-15146
PC	-15147
uy	-15148
ਪਸੀ	-15149
▁1॥	-15150
hant	-15151
ਜ਼ਲੀ	-15152
ਭੁੱਲ	-15153
ਮੋਸ਼	-15154
ਵਲਾਂ	-15155
▁Unl	-15156
▁ਨੀਮ	-15157
▁ਭੁਖ	-15158
▁ਪਗੜੀ	-15159
▁ਬੂਹੇ	-15160
▁ਬੇਰੀ	-15161
▁ਭੇਜੋ	-15162
▁ਸ਼ਮੀ	-15163
▁ਸੁਨਿ	-15164
▁ਉਤਪਤੀ	-15165
▁ਵੱਧਦਾ	-15166
▁ਪੜ੍ਹਾਓ	-15167
▁ਭੇਜੀਆਂ	-15168
▁ਸਥਿਰਤਾ	-15169
▁ਸਰਵਪੱਖੀ	-15170
ਅੰਮਿ੍ਤਪਾਲ	-15171
▁ਸੇਵਾਦਾਰਾਂ	-15172
▁ਪ੍ਰਤੀਨਿਧਤਾ	-15173
1।	-15174
?’	-15175
ਅਬ	-15176
ਂਦੀ	-15177
ਸਿਧ	-15178
phot	-15179
ਜਾਣੇ	-15180
ਤੇਰਾ	-15181
▁ਅਸਤ	-15182
▁ਇੱਸ	-15183
▁ਛਕਣ	-15184
ਸਾਂਝੀ	-15185
▁ਅਟੈਕ	-15186
▁ਕਮਿਉ	-15187
▁ਗਿਆਂ	-15188
▁ਥਾਪਰ	-15189
▁ਪਰਚੀ	-15190
▁ਪੀੜਾ	-15191
ਦੀਵਾਲਾ	-15192
▁ਝੰਜੋੜ	-15193
▁ਦੁਰਲਭ	-15194
▁ਪੁਰਬਾ	-15195
▁ਬਣਿਆਂ	-15196
▁ਬੇਕਾਰ	-15197
▁ਭੂਸ਼ਣ	-15198
▁ਰੂਹਾਂ	-15199
▁ਸ਼ੀਲਾ	-15200
▁ਸੰਵੇਦ	-15201
Punjabi	-15202
▁ਬੰਗਾਲੀ	-15203
▁ਮਰਦਾਨਾ	-15204
▁ਵਿਨਾਸ਼	-15205
▁ਸਨਮੁੱਖ	-15206
▁ਸਾਧਾਰਣ	-15207
▁ਅਰਵਿੰਦਰ	-15208
▁ਬਹੁਤਿਆਂ	-15209
▁ਲਹਿਰਾਉਣ	-15210
▁ਉੱਤਰਾਖੰਡ	-15211
ਣੋ	-15212
ਮਹਾ	-15213
▁ਖਟ	-15214
ਆਜ਼ਮ	-15215
▁(10	-15216
▁ਖਾਇ	-15217
▁ਟੇਪ	-15218
▁ਧਰਨ	-15219
▁ਧੜਕ	-15220
▁ਨਵਾ	-15221
▁ਵਿਜ	-15222
ਸ਼ੋਤਮ	-15223
▁ਇੰਜਨ	-15224
▁ਏਰੀਏ	-15225
▁ਖਾਹਿ	-15226
▁ਗਵਾਂ	-15227
▁ਜੱਦੋ	-15228
▁ਰਾਮਾ	-15229
ਜੀਪੀਸੀ	-15230
▁ਸਿਲਾਈ	-15231
▁ਫ਼ਿਲਮੀ	-15232
▁ਬਨਸਪਤੀ	-15233
▁ਬਿਹਤਰੀ	-15234
▁October	-15235
▁ਨਾਟਕਕਾਰ	-15236
▁ਬਖ਼ਸ਼ਿਆ	-15237
▁ਬਟਾਲੀਅਨ	-15238
▁ਹੁਸ਼ਿਆਰ	-15239
▁ਅੰਮ੍ਰਿਤਾ	-15240
Striptease	-15241
▁ਅਰਥਵਿਵਸਥਾ	-15242
▁ਜ਼ਿੰਮੇਵਾਰੀਆਂ	-15243
ੌਡ	-15244
ਸਿਖ	-15245
-200	-15246
ency	-15247
ਟਾਵਾ	-15248
ਿਜ਼ਮ	-15249
▁has	-15250
▁ਉਦੈ	-15251
▁ਮਾਫ	-15252
▁ਰਸੂ	-15253
▁ਲਘੂ	-15254
▁Sikh	-15255
▁ਕਰੰਟ	-15256
▁ਗਿਆਰ	-15257
▁ਗੁਫਾ	-15258
▁ਜ਼ੀਰ	-15259
▁ਜਿਨਾ	-15260
▁ਝਾੜੂ	-15261
▁ਦੂਜੈ	-15262
▁ਰਜਨੀ	-15263
▁ਸਵਿਟ	-15264
▁ਸ਼ਖਸ	-15265
▁ਭੁੱਕੀ	-15266
▁ਸਾਲਾਹ	-15267
▁ਹਰੀਆਂ	-15268
▁ਅਮਿਤਾਭ	-15269
▁ਕੁੱਖੋਂ	-15270
▁ਪਾਸਿਆਂ	-15271
▁ਪ੍ਰਭਜੋਤ	-15272
▁ਸਰਪੰਚਾਂ	-15273
▁ਰਾਜਾਸਾਂਸੀ	-15274
ਅੰਤਰਰਾਸ਼ਟਰੀ	-15275
hot	-15276
▁--	-15277
ਖੰਡੇ	-15278
ਚਾਰਕ	-15279
ੂਪੁਰ	-15280
▁ਚੁਨ	-15281
▁ਜਾਊ	-15282
▁ਸਿਘ	-15283
▁ਉੱਠਣ	-15284
▁ਖਾਨਾ	-15285
▁ਘੁਲਾ	-15286
▁ਸਾਜਨ	-15287
▁ਸੱਟੇ	-15288
▁ਕੀਤੀਆ	-15289
▁ਕੱਟਿਆ	-15290
▁ਸਜਾਵਟ	-15291
ਜ਼ਰਲੈਂਡ	-15292
▁ਕਰਮੀਆਂ	-15293
▁ਢੁਕਵੇਂ	-15294
▁ਮਿਲਾਉਣ	-15295
▁ਮੁੱਢਲਾ	-15296
▁ਸਰਮਾਇਆ	-15297
ਕਾਮਨਾਵਾਂ	-15298
▁ਅਪਰਾਧੀਆਂ	-15299
▁ਸੂਚਨਾਵਾਂ	-15300
SS	-15301
ੱਵ	-15302
▁ਐਟ	-15303
.201	-15304
ਕਾਂਤ	-15305
ਰਾਂਤ	-15306
▁ਚਰਣ	-15307
ਆਰਿਫ਼	-15308
▁ਬਿੱਗ	-15309
▁ਸੰਤਾ	-15310
▁ਡਿੱਗੇ	-15311
▁ਮੰਡਲੀ	-15312
▁ਰੂਬਰੂ	-15313
▁ਸਾਹਿਲ	-15314
abelled	-15315
▁......	-15316
▁ਜੋਰਦਾਰ	-15317
▁ਪ੍ਰੋਡਿਊ	-15318
▁ਸ਼ਹਾਦਤਾਂ	-15319
▁ਰਿਕਾਰਡਿੰਗ	-15320
▁ਹਰਿਕ੍ਰਿਸ਼ਨ	-15321
ੜਿ	-15322
ise	-15323
ਪਿੱ	-15324
ਲ੍ਹੇ	-15325
ੋਬਾਰ	-15326
ੲਿਅਾ	-15327
▁000	-15328
▁ਘਟਣ	-15329
▁ਫਰਜ	-15330
▁ਰੂਲ	-15331
nline	-15332
ਮਾਨਸਾ	-15333
▁ਕਿਆਸ	-15334
▁ਕੱਤਕ	-15335
▁ਜਰੀਏ	-15336
▁ਨਿੱਜ	-15337
▁ਮਾਮਾ	-15338
▁ਸੱਦੀ	-15339
▁Japuj	-15340
▁ਵੇਚਿਆ	-15341
▁ਅਮੀਰਾਂ	-15342
▁ਖ਼ਾਲਸੇ	-15343
▁ਗੋਰਿਆਂ	-15344
▁ਜਾਣੀਆਂ	-15345
▁ਫੈਂਸਲਾ	-15346
▁ਰੋਗੀਆਂ	-15347
▁ਵਧਾਉਣਾ	-15348
--------	-15349
▁ਪਹੁੰਚਦਾ	-15350
▁ਅਣਮਨੁੱਖੀ	-15351
▁ਕਾਰਕੁਨਾਂ	-15352
▁ਸ਼ਹੀਦੀਆਂ	-15353
▁ਮੈਂਬਰਸ਼ਿਪ	-15354
▁Unlabelled	-15355
ਰੂਮ	-15356
ੁਦਾ	-15357
▁08	-15358
।[3]	-15359
ਤਰਿਕ	-15360
ਪਲਾਂ	-15361
ਪੱਟੀ	-15362
ਰਾਇਡ	-15363
▁ਆਟੇ	-15364
▁ਪੀਏ	-15365
▁ਬੇਟ	-15366
▁ਲਿਟ	-15367
ocial	-15368
other	-15369
ਖੂੰਹਦ	-15370
ਜੀਵਾਂ	-15371
▁100%	-15372
▁ਜੋਰਾ	-15373
▁ਤਾਜਾ	-15374
▁ਬਹਾਰ	-15375
▁ਵਧਣਾ	-15376
▁ਸਫੈਦ	-15377
▁ਏਜੰਡਾ	-15378
▁ਓਂਕਾਰ	-15379
▁ਬਖਸ਼ੇ	-15380
▁ਮੰਤ੍ਰ	-15381
▁ਸੁੱਕੇ	-15382
▁ਆਕਰਸ਼ਕ	-15383
▁ਕਸਬਿਆਂ	-15384
▁ਦੱਸਿਆਂ	-15385
▁ਮਿਸਤਰੀ	-15386
▁ਵਰਕਰਜ਼	-15387
▁Japujee	-15388
▁ਡਿਸਪੈਂਸ	-15389
▁ਨਿਸ਼ਕਾਮ	-15390
▁ਆਸ਼ੀਰਵਾਦ	-15391
▁ਸਾਰਾਗੜ੍ਹੀ	-15392
▁ਪ੍ਰਤੀਯੋਗਤਾ	-15393
▁ਸਾਂਝੀਵਾਲਤਾ	-15394
ਥਿਕ	-15395
▁੪੬	-15396
ings	-15397
ਲਿਖੇ	-15398
ਵਿਟੀ	-15399
▁ਅਕੀ	-15400
▁ਆਗੈ	-15401
ਪ੍ਰਤੀ	-15402
ੋਲਿਆਂ	-15403
▁http	-15404
▁ਕਲੰਕ	-15405
▁ਜਿਨੀ	-15406
▁ਡਿਸਕ	-15407
▁ਨੌਜ਼	-15408
▁ਲਿਸ਼	-15409
ਗੁਰਚਰਨ	-15410
▁ਅਸਿਸਟ	-15411
▁ਉਤਪੰਨ	-15412
▁ਨਾਨਕਾ	-15413
▁ਬਾਂਦਰ	-15414
▁ਮਾਰੀਏ	-15415
▁ਮੰਗਲਾ	-15416
▁ਸ਼ਿਖਰ	-15417
ਕਰਤਾਵਾਂ	-15418
▁ਅਹਿਸਾਨ	-15419
▁ਐਸਐਸਪੀ	-15420
▁ਤਿਓਹਾਰ	-15421
▁ਪ੍ਰਿੰਟ	-15422
▁ਵਾਪਰਦਾ	-15423
▁ਸਿਖਾਇਆ	-15424
▁ਜ਼ਿਲਿਆਂ	-15425
ਾਰਸ	-15426
▁ਵੁ	-15427
▁sep	-15428
▁ਚੁਪ	-15429
▁ਮੋਨ	-15430
ਕਰਾਣੀ	-15431
ਵੇਸ਼ਨ	-15432
ਿੰਦਰਾ	-15433
੍ਰੋਜਨ	-15434
▁ਅਪਨੇ	-15435
▁ਘੋੜਾ	-15436
▁ਦਸਤਕ	-15437
▁ਪਰਸਾ	-15438
▁ਪੁਜੀ	-15439
▁ਫਲੈਟ	-15440
▁ਫਾਸਟ	-15441
▁ਭੈੜੇ	-15442
▁ਹੁਸਨ	-15443
ਨਿਰਪੱਖ	-15444
▁ਘੜੀਆਂ	-15445
▁ਚਿੱਕੜ	-15446
▁ਚੌੜਾਈ	-15447
▁ਜਗਮੋਹ	-15448
▁ਪੜ੍ਹਣ	-15449
▁ਸ਼ਰੀਕ	-15450
▁ਸੁਣਨਾ	-15451
ਵਿਕਰਾਂਤ	-15452
▁ਨਜ਼ਰੀਆ	-15453
▁ਨਿਪੁੰਨ	-15454
▁ਪਾਰਕਾਂ	-15455
▁ਰਾਖਵੇਂ	-15456
ਗੁਰਵਿੰਦਰ	-15457
formation	-15458
▁ਕਹਿੰਦਿਆਂ	-15459
▁ਕੈਲਸ਼ੀਅਮ	-15460
▁ਪ੍ਰਵਿਰਤੀ	-15461
▁ਪੈਰੋਕਾਰਾਂ	-15462
PR	-15463
ve	-15464
्र	-15465
ਿਬ	-15466
itt	-15467
ਤਲਾ	-15468
ਮਹੇ	-15469
ਨਾਇਕ	-15470
ਸਰੀਰ	-15471
▁ਉੱਜ	-15472
▁ਲਤਾ	-15473
▁ਸੀਂ	-15474
ਤੰਤਰੀ	-15475
ਪੁੱਤਰ	-15476
▁ਆਯਾਤ	-15477
▁ਖੱਟਰ	-15478
▁ਧਾਤੂ	-15479
▁ਨੱਚਣ	-15480
▁ਬੁਸ਼	-15481
▁ਵਰ੍ਹ	-15482
▁ਵੱਜਣ	-15483
▁ਅੱਥਰੂ	-15484
▁ਆਖ਼ਿਰ	-15485
▁ਜ਼ਖ਼ਮ	-15486
▁ਜਾਪਦੇ	-15487
▁ਟਵਿਟਰ	-15488
▁ਪਰਾਪਤ	-15489
▁ਫਿਰਦੀ	-15490
▁ਵਹੁਟੀ	-15491
▁ਗਾਉਂਦਾ	-15492
▁ਪਛਾਣਿਆ	-15493
▁ਪੁੱਛਣਾ	-15494
▁ਬੁਢਾਪਾ	-15495
▁ਮਾਨਸੂਨ	-15496
▁ਰਹਿਮਾਨ	-15497
▁ਜ਼ੁਰਮਾਨ	-15498
▁ਸ਼ਿਕਾਗੋ	-15499
▁ਪੈਟਰੋਲੀਅਮ	-15500
▁ਵਿਸਥਾਰਪੂਰਵਕ	-15501
55	-15502
PN	-15503
ਬਕ	-15504
ਦ੍ਰ	-15505
▁ਆਊ	-15506
ਨਾਥਨ	-15507
਼ੀਆਂ	-15508
ਿਸਟਲ	-15509
ੁੱਲੀ	-15510
▁17,	-15511
▁ਗੁਨ	-15512
▁ਜੈਲ	-15513
▁ਭੌਂ	-15514
ਖ਼ਾਨੇ	-15515
ਪੁਨੀਤ	-15516
▁ਅੱਛਾ	-15517
▁ਓਹਨਾ	-15518
▁ਜੌਹਨ	-15519
▁ਡਾਂਗ	-15520
▁ਪੀਤਾ	-15521
▁ਬੇਘਰ	-15522
▁ਮਾਫ਼	-15523
▁ਰੂਬੀ	-15524
▁ਸਕਾਂ	-15525
▁ਉਪਰਲੇ	-15526
▁ਖਿੜਕੀ	-15527
▁ਗਿਆਨੁ	-15528
▁ਜੇਲਾਂ	-15529
▁ਵਡਾਲਾ	-15530
▁ਹਰਚੰਦ	-15531
▁ਖਿੱਚਿਆ	-15532
▁ਸੀਰੀਅਲ	-15533
▁ਸੈਂਟੀਮੀਟਰ	-15534
▁ਹੱਲਾਸ਼ੇਰੀ	-15535
ਤਾਈ	-15536
ਰੂੰ	-15537
▁Wh	-15538
ਹਾਰੇ	-15539
ਹੁਕਮ	-15540
▁4:1	-15541
▁ਆਦਮ	-15542
▁ਏਸ਼	-15543
▁ਚੀਕ	-15544
▁ਠੱਲ	-15545
▁ਧਰੁ	-15546
▁ਮਸਲ	-15547
▁ਵਾਟ	-15548
▁ਸ਼ਮ	-15549
ੁਰਾਡੇ	-15550
▁ਉਬਾਲ	-15551
▁ਬੀਜੀ	-15552
▁ਕਤਲਾਂ	-15553
▁ਖਾਂਦੀ	-15554
▁ਜਪੁਜੀ	-15555
▁ਤਾਮਿਲ	-15556
▁ਦੁਹਾਈ	-15557
▁ਪੰਡਾਲ	-15558
▁ਬੈਕਟੀ	-15559
▁ਸਾਦਗੀ	-15560
▁ਸ੍ਰੋਤ	-15561
▁ਕੈਮੀਕਲ	-15562
▁ਜਲਵਾਯੂ	-15563
▁ਸਰੋਕਾਰ	-15564
▁ਪ੍ਰਚੱਲਤ	-15565
▁ਪ੍ਰਿਥਵੀ	-15566
▁ਫੈਕਟਰੀਆਂ	-15567
▁ਵਿਕਟੋਰੀਆ	-15568
▁ਵਿਗਿਆਨਿਕ	-15569
ਸੇਲਿਬ੍ਰਿਟੀ	-15570
II	-15571
ict	-15572
mer	-15573
ਨਾਇ	-15574
▁ਏਚ	-15575
▁ਪਣ	-15576
ਤ੍ਰਿ	-15577
ਬਾਹਰ	-15578
ਿਆਇਆ	-15579
▁ਆਉਟ	-15580
▁ਧਾਤ	-15581
▁ਫਿਨ	-15582
▁ਲੂੰ	-15583
▁ਸੇਬ	-15584
▁3000	-15585
▁ਅਸ਼ਟ	-15586
▁ਚੁਣੋ	-15587
▁ਪਰਤਣ	-15588
▁ਪਰਤੇ	-15589
▁ਲਿਆਏ	-15590
▁ਵੱਜੀ	-15591
▁ਇਨ੍ਹਾ	-15592
▁ਪਰਮਿਟ	-15593
▁ਲੱਭਦਾ	-15594
▁ਹਨ੍ਹੇ	-15595
▁ਹੱਸਦੇ	-15596
▁ਅਧਿਆਪਨ	-15597
▁ਗੋਡਿਆਂ	-15598
▁ਮੋਢਿਆਂ	-15599
▁ਸਹਿਬਾਨ	-15600
▁ਕਾਨਵੈਂਟ	-15601
▁ਜ਼ਹਿਰਾਂ	-15602
▁ਭਿੰਡਰਾਂਵਾਲੇ	-15603
na	-15604
੨੦	-15605
ਇਸ਼	-15606
ਜੁਲ	-15607
ਨੂਰ	-15608
▁We	-15609
▁ਨਡ	-15610
▁ਰਗ	-15611
▁ਹਠ	-15612
ੁੱਲੇ	-15613
▁was	-15614
▁ਜਗੁ	-15615
ocurr	-15616
▁ਅਸੁਰ	-15617
▁ਖੋਖਰ	-15618
▁ਜੁਟਾ	-15619
▁ਮੀਤੇ	-15620
▁ਲਿਖਾ	-15621
▁ਸੂਫੀ	-15622
▁ਸੰਧੀ	-15623
ਨੇਸ਼ਵਰ	-15624
▁ਅਧੂਰੇ	-15625
▁ਅੱਖੋਂ	-15626
▁ਛੁਪਾਓ	-15627
▁ਅਨੁਰਾਗ	-15628
▁ਚੁੱਕਣਾ	-15629
▁ਥਾਣਿਆਂ	-15630
▁ਦਿਆਂਗੇ	-15631
▁ਪੱਤਰਾਂ	-15632
▁ਫਾਰਮੈਟ	-15633
▁ਸਟੇਜਾਂ	-15634
▁ਸਿਮਰਦਾ	-15635
▁ਹਸਤਾਖਰ	-15636
▁ਅਨੁਸ਼ਕਾ	-15637
▁ਇੰਗਲਿਸ਼	-15638
▁ਕੈਟਰੀਨਾ	-15639
▁ਗਾਲ੍ਹਾਂ	-15640
▁ਨਿਯੰਤਰਣ	-15641
▁ਬੈਂਕਿੰਗ	-15642
▁ਬੋਲਬਾਲਾ	-15643
▁ਨਜ਼ਰਅੰਦਾਜ਼	-15644
॥”	-15645
ਆਹ	-15646
ੂਦ	-15647
ਜ਼ੋ	-15648
▁ਥਿ	-15649
▁ਲੋਅ	-15650
ਕਮੇਟੀ	-15651
ਜ਼ੋਰਮ	-15652
▁Sukh	-15653
▁ਜਾਜਕ	-15654
▁ਤ੍ਰੈ	-15655
▁ਬਾਣੇ	-15656
▁ਰਸਾਂ	-15657
▁ਗ੍ਰਾਹ	-15658
▁ਡੁੱਬਣ	-15659
▁ਮਨਮੀਤ	-15660
▁ਸੌਂਪਣ	-15661
ਏਜੰਸੀਆਂ	-15662
▁ਤਿਮਾਹੀ	-15663
▁ਬੈਠੀਆਂ	-15664
▁ਮੁਆਵਜ਼ੇ	-15665
▁ਬੁਲੰਦੀਆਂ	-15666
▁ਡਾਇਰੈਕਟੋਰੇਟ	-15667
ਉਦੀ	-15668
ਪੋਲ	-15669
ਵਰਣ	-15670
▁AM	-15671
▁me	-15672
ਚਰਾਂ	-15673
ਬਲਾਕ	-15674
▁ਕੂਚ	-15675
▁ਗਈਆ	-15676
▁ਚੈਲ	-15677
▁ਟਾਪ	-15678
▁ਧਰਾ	-15679
ਡੀਸ਼ਨ	-15680
ਤ੍ਰਿਕ	-15681
▁ਰਿਵਾ	-15682
▁ਸਾਚਾ	-15683
▁ਓਹਨਾਂ	-15684
▁ਬੱਕਰੀ	-15685
▁ਮਿਥਿਆ	-15686
▁ਮੁੱਠੀ	-15687
▁ਲਿਫ਼ਾ	-15688
▁ਸਕੋਗੇ	-15689
▁ਖ਼ਲਾਸੀ	-15690
▁ਪ੍ਰੀਖਣ	-15691
▁ਯਹੂਦਾਹ	-15692
▁ਰੋਜਾਨਾ	-15693
ਚਰ੍ਮਾਨੰਦ	-15694
▁2017-18	-15695
▁ਸਟੈਂਡਰਡ	-15696
▁ਸਟੱਡੀਜ਼	-15697
▁ਕਰਵਾਉਂਦਾ	-15698
▁ਸਿਰਜਣਹਾਰ	-15699
▁ਪ੍ਰੋਗ੍ਰਾਮ	-15700
co	-15701
haa	-15702
ਖ਼ਮ	-15703
▁ਜਜ	-15704
ਤੇਰੀ	-15705
ਸੂਰਜ	-15706
▁ਕਲਪ	-15707
▁ਖ਼ਤ	-15708
▁ਤਿਤ	-15709
▁ਭੀਖ	-15710
▁ਸਤੀ	-15711
ਬਿਹਾਰ	-15712
▁ਕੈਲਾ	-15713
▁ਡੰਡਾ	-15714
▁ਤੰਗੀ	-15715
▁ਨਦੀਨ	-15716
▁ਰੁਕਾ	-15717
▁ਸ਼ੂਟ	-15718
▁ਦੋਹਰੇ	-15719
▁ਬੈਠਣਾ	-15720
▁ਮੰਨੀਏ	-15721
▁ਯਾਕੂਬ	-15722
▁ਸੁਲਝਾ	-15723
▁ਸੋਚਦੀ	-15724
▁ਹੇਠੋਂ	-15725
▁ਨਿਕਲਣਾ	-15726
▁ਵੱਡਿਆਂ	-15727
▁ਕੇਸਾਧਾਰੀ	-15728
▁ev	-15729
▁ਖਣ	-15730
like	-15731
ਧਰਾਂ	-15732
▁108	-15733
▁ਅਣਥ	-15734
▁ਦੋਆ	-15735
▁ਰੀਓ	-15736
enter	-15737
▁ਉਜਾੜ	-15738
▁ਕਿੱਟ	-15739
▁ਛੱਕੇ	-15740
▁ਪਖੋਂ	-15741
▁ਪੱਠੇ	-15742
▁ਸਪਾਂ	-15743
▁ਸੀਪੀ	-15744
▁ਅਧੂਰਾ	-15745
▁ਅਸਥਿਰ	-15746
▁ਘੁਮਾਣ	-15747
▁ਪ੍ਰੈਕ	-15748
▁ਬਚਿਆਂ	-15749
▁ਮਿਲਾਨ	-15750
▁ਇੰਡੀਜ਼	-15751
▁ਘੋੜਿਆਂ	-15752
▁ਢੁਕਵੀਂ	-15753
▁ਸਜਾਵਾਂ	-15754
▁ਦਿੜ੍ਹਬਾ	-15755
▁ਭੂਗੋਲਿਕ	-15756
.........	-15757
▁ਕਾਰਗੁਜਾਰੀ	-15758
▁ਪੈਨਸ਼ਨਰਜ਼	-15759
▁ਸਿਫਾਰਸ਼ਾਂ	-15760
ਪੱਤੀ	-15761
▁one	-15762
▁ਪਹੁ	-15763
ਕਵਿਤਾ	-15764
ਧਾਰਿਤ	-15765
▁KUMA	-15766
▁ਅਣਸੁ	-15767
▁ਗੈਸਟ	-15768
▁ਟਹਿਲ	-15769
▁ਪਰਾਈ	-15770
▁ਫਾਉਂ	-15771
▁ਮੋੜਨ	-15772
▁ਸੀਨੇ	-15773
▁ਇੰਚਾਰ	-15774
▁ਪਾਉਣੀ	-15775
▁ਭੂੰਦੜ	-15776
▁ਸੀਮਾਂ	-15777
▁ਸੁਭਾਉ	-15778
ਸਿਹਤਮੰਦ	-15779
▁ਕਪਤਾਨੀ	-15780
▁ਬਦਨਾਮੀ	-15781
▁ਬਾਥਰੂਮ	-15782
▁ਮਿਸ਼ਰਤ	-15783
▁ਰੰਗਦਾਰ	-15784
▁ਡਿਪਲੋਮਾ	-15785
▁ਮਿਜ਼ਾਈਲ	-15786
▁ਖਾਲਿਸਤਾਨੀ	-15787
ਸੁਆ	-15788
੍ਰਮ	-15789
ਨੇਜਾ	-15790
▁ਕੁਈ	-15791
▁ਕੱਖ	-15792
▁ਖਾਓ	-15793
▁ਟੋਏ	-15794
▁ਡਿੰ	-15795
▁ਦਸੇ	-15796
▁ਬੰਡ	-15797
▁ਰਸੁ	-15798
▁ਵਡੀ	-15799
▁ਹੌਟ	-15800
▁1970	-15801
▁1971	-15802
▁ਅਸਾਨ	-15803
▁ਆਰਕੀ	-15804
▁ਗਿਅਾ	-15805
▁ਚੌਕੇ	-15806
▁ਟਿਕੀ	-15807
▁ਫਰੇਮ	-15808
▁ਮਾਧੋ	-15809
▁ਲੇਬਲ	-15810
▁ਚੰਦ੍ਰ	-15811
▁ਡਰਾਮੇ	-15812
▁ਮੋਹਿਤ	-15813
▁ਲਾਗਲੇ	-15814
▁ਲਾਹੁਣ	-15815
ੈਜੂਏਸ਼ਨ	-15816
▁ਅੰਤਰਗਤ	-15817
▁ਅੰਨ੍ਹਾ	-15818
▁ਜਬਰਦਸਤ	-15819
▁ਲਾਸਾਨੀ	-15820
ਸੁਖਜਿੰਦਰ	-15821
▁ਦੀਨਾਨਗਰ	-15822
▁ਮੁਨਾਫ਼ਾ	-15823
▁ਰਿਪੋਰਟਰ	-15824
▁ਮਾਛੀਵਾੜਾ	-15825
▁ਲਾਉਂਦਿਆਂ	-15826
▁ਪਾਰਲੀਮਾਨੀ	-15827
▁ਪ੍ਰੋਫੈਸ਼ਨਲ	-15828
ya	-15829
ign	-15830
ons	-15831
ਫ਼ਿ	-15832
ੱਤਣ	-15833
▁ਉੜ	-15834
ਭੁਗਤ	-15835
▁ਆਖਿ	-15836
▁ਪੜੇ	-15837
ੋਜਪੁਰ	-15838
▁(201	-15839
▁ਅਹਿਦ	-15840
▁ਕਰੀਂ	-15841
▁ਕੋਸਟ	-15842
▁ਨਸ਼ਰ	-15843
▁ਬਹਿਲ	-15844
▁ਰੰਗਤ	-15845
▁ਵਰਨਾ	-15846
▁ਸਕੈਨ	-15847
▁ਅਜੋਕਾ	-15848
▁ਗਿੱਧੇ	-15849
▁ਚਾਰਟਰ	-15850
▁ਜ਼ੀਰੋ	-15851
▁ਜੋੜਦੇ	-15852
▁ਟਾਈਗਰ	-15853
▁ਤ੍ਰਿਸ	-15854
▁ਵਿਆਹੀ	-15855
▁Online	-15856
▁Visits	-15857
▁ਦਾਖ਼ਲਾ	-15858
▁ਕਾਬਲੀਅਤ	-15859
▁ਨਿਵੇਕਲੇ	-15860
▁ਮਾਰਕੰਡਾ	-15861
▁ਪੈਨਸ਼ਨਾਂ	-15862
eng	-15863
ime	-15864
ਅਰਬ	-15865
ਦਮਨ	-15866
▁sa	-15867
ਨਾਤੀ	-15868
ਪਟਾਪ	-15869
▁ਬਾਨ	-15870
▁ਵਾੜ	-15871
ਕੂਵਾਲ	-15872
ਚਿਹਰੇ	-15873
ਸ਼ਿਆਂ	-15874
▁ਅੰਗੂ	-15875
▁ਕਾਸ਼	-15876
▁ਪਲੇਅ	-15877
▁ਸੁਣਿ	-15878
ਤ੍ਰੀਆਂ	-15879
ਸੁਖਵੀਰ	-15880
▁ਏਂਜਲਸ	-15881
▁ਨਜਦੀਕ	-15882
▁ਪੁਤਲੇ	-15883
▁ਕੁੱਟਿਆ	-15884
▁ਬੋਰਡਾਂ	-15885
▁ਸੁਖਵੰਤ	-15886
▁ਹਿਦਾਇਤ	-15887
ਚਾਪ	-15888
ਜਿੰ	-15889
ਬਣਾ	-15890
ਸਤੂ	-15891
ਕਾਇਤ	-15892
ਫਾਈਲ	-15893
▁ਬਰਮ	-15894
ਵਰੇਜ਼	-15895
▁copy	-15896
▁ਉੱਠੀ	-15897
▁ਗਰੋਹ	-15898
▁ਚੂਹੇ	-15899
▁ਜਾਦੇ	-15900
▁ਤਰਫ਼	-15901
▁ਘਿਰਿਆ	-15902
▁ਫ਼ਕੀਰ	-15903
▁ਭਟਕਦਾ	-15904
▁ਡਰਾਇਵਰ	-15905
▁ਨਿਕਲਦੀ	-15906
▁ਪਹਿਲੋਂ	-15907
▁ਕਥਾਵਾਚਕ	-15908
▁ਕਿਹੜੀਆਂ	-15909
▁ਮਾਈਕ੍ਰੋ	-15910
▁ਪ੍ਰਸ਼ਾਂਤ	-15911
▁ਸਮੁੱਚੀਆਂ	-15912
ink	-15913
lic	-15914
▁05	-15915
▁Bl	-15916
▁ਜਯ	-15917
site	-15918
ਜਾਇਜ	-15919
ਮਾਇਣ	-15920
ਸਿੱਧ	-15921
▁ਊਨਾ	-15922
▁ਰਖੇ	-15923
▁ਹੋਆ	-15924
▁KAUR	-15925
▁ਪੜਿਆ	-15926
▁ਸ਼ੁਰ	-15927
▁ਸੂਤਕ	-15928
▁ਡਰਾਈਵ	-15929
▁ਦੋਹਰੀ	-15930
▁ਪੁਨੀਤ	-15931
▁ਬਥੇਰੇ	-15932
▁ਮਾਣਦਾ	-15933
▁ਲੰਘਦੇ	-15934
▁ਸ਼ਿਅਰ	-15935
▁ਸ਼ਿਕੰ	-15936
ptember	-15937
▁ਖੁਸ਼ਬੂ	-15938
▁ਮਿਨਹਾਸ	-15939
▁ਵਿਵਾਦਤ	-15940
▁ਜ਼ਖਮੀਆਂ	-15941
▁ਪ੍ਰਸਾਰਿਤ	-15942
64	-15943
ਹਦ	-15944
▁%	-15945
les	-15946
ਸਾਮ	-15947
ੁਆਏ	-15948
▁IS	-15949
ਕਰਮੀ	-15950
ਦਿਨੁ	-15951
ਬਾਇਆ	-15952
ਭਾਂਤ	-15953
ੰਬਰਮ	-15954
▁ਏਕਾ	-15955
▁ਧਨੀ	-15956
▁ਪਾਣ	-15957
▁ਬਾਝ	-15958
▁ਰਘੁ	-15959
▁ਰੇਡ	-15960
▁ਵਰਨ	-15961
▁ਸੋਂ	-15962
ਨਿਰਮਲ	-15963
ੋਰੰਜਨ	-15964
▁Fill	-15965
▁dogg	-15966
▁ਛਪਾਈ	-15967
▁ਡੰਡੇ	-15968
▁ਬੰਨੇ	-15969
▁ਹੱਥੀ	-15970
ਫਟਵੇਅਰ	-15971
▁ਉਸਤਤਿ	-15972
▁ਗਰਦਾਨ	-15973
▁ਨਵਤੇਜ	-15974
▁ਪਿੰਡਾ	-15975
▁ਲਹਿਣਾ	-15976
▁ਅਲੌਕਿਕ	-15977
▁ਆਰਟੀਕਲ	-15978
▁ਜੁਝਾਰੂ	-15979
▁ਤੇਰੀਆਂ	-15980
▁ਰਜਨੀਸ਼	-15981
▁separat	-15982
▁ਕਿਰਤੀਆਂ	-15983
▁ਜ਼ੁਲਮਾਂ	-15984
▁ਮਿਆਂਮਾਰ	-15985
▁ਗੁਰਮੁਖਾਂ	-15986
▁ਇੰਸਟੀਚਿਊਸ਼ਨ	-15987
TT	-15988
oh	-15989
ਝਿਆ	-15990
ਡ਼ਾ	-15991
ਬਿਟ	-15992
ਬੜਿਆ	-15993
ਮਿਲੀ	-15994
ਰਾਜਾ	-15995
▁ਕੰਤ	-15996
▁ਦੇਈ	-15997
ਫਰਾਂਸ	-15998
ਹਿੰਦਰ	-15999
▁1699	-16000
▁ਇਸ਼ਟ	-16001
▁ਛੀਨਾ	-16002
▁ਪੱਤਣ	-16003
▁ਸਿਵਾ	-16004
ਸੁਖਦੇਵ	-16005
▁first	-16006
▁ਛਾਬੜਾ	-16007
▁ਤਕਰਾਰ	-16008
▁ਬਿਜਲਈ	-16009
▁ਭੁਲੱਥ	-16010
▁ਸਵਰਗੀ	-16011
▁ਸਹਿਗਲ	-16012
▁ਅਗਿਆਨੀ	-16013
▁ਚਾਲਕਾਂ	-16014
▁ਜਿਸਤੋਂ	-16015
▁ਮੁਸਕਾਨ	-16016
▁ਡੈਨਮਾਰਕ	-16017
▁ਪੁਜਾਰੀਆਂ	-16018
▁ਪ੍ਰਾਣੀਆਂ	-16019
▁ਰਾਹਗੀਰਾਂ	-16020
▁ਜਾਣਕਾਰੀਆਂ	-16021
▁separately	-16022
?'	-16023
ਤੂਨ	-16024
ਸਪਲ	-16025
▁sp	-16026
tern	-16027
ਕਸ਼ੀ	-16028
▁per	-16029
▁ਦੁਧ	-16030
▁ਘਿਨਾ	-16031
▁ਪੇਸਟ	-16032
▁ਭੰਬਲ	-16033
▁ਮੁਨੀ	-16034
▁ਵਿੱਕ	-16035
ਹਿਮਾਚਲ	-16036
▁doggy	-16037
▁ਦੁਆਇਆ	-16038
▁ਬਾਗ਼ੀ	-16039
▁ਸੋਧਾਂ	-16040
▁ਹਜ਼ਰਤ	-16041
▁ਆਬਕਾਰੀ	-16042
▁ਆੜ੍ਹਤੀ	-16043
▁ਝੂਠੀਆਂ	-16044
▁ਦੋਰਾਹਾ	-16045
▁ਪਾਖੰਡੀ	-16046
▁ਮੁਸਕਰਾ	-16047
▁ਸ਼ੌਕੀਨ	-16048
▁ਅਧਿਆਤਮਿਕ	-16049
▁ਦਰਸਾਉਂਦੀ	-16050
▁ਸਹਿਯੋਗੀਆਂ	-16051
6]	-16052
॥:	-16053
ਅਗ	-16054
ਥਿ	-16055
vel	-16056
ਖਾਲ	-16057
ਟੇਡ	-16058
ੋਟੂ	-16059
▁ਪ੍	-16060
ਚੇਤਨ	-16061
ਜੁਗਤ	-16062
ਠਿਆਂ	-16063
ਹਰੇਕ	-16064
▁ਗਾਈ	-16065
▁ਜਿਣ	-16066
▁ਫਿਊ	-16067
▁ਭਇਆ	-16068
▁ਗੰਦੀ	-16069
▁ਜੁਆਨ	-16070
▁ਧਾਗੇ	-16071
▁ਧੁਰਾ	-16072
▁ਲੰਕਾ	-16073
▁ਹਿਨਾ	-16074
▁admin	-16075
▁ਗਾਵਾਂ	-16076
▁ਜੋੜਨਾ	-16077
▁ਜੰਮਿਆ	-16078
▁ਸ਼ਨਿੱ	-16079
▁ਸ਼ੂਦਰ	-16080
▁ਕਾਊਂਟੀ	-16081
▁ਕੁਆਂਟਮ	-16082
▁ਜਾਂਦਿਆਂ	-16083
▁ਵਧਾਉਂਦੇ	-16084
▁ਸਰਦਾਰਾਂ	-16085
▁ਮਨੋਵਿਗਿਆਨ	-16086
▁ਸੁਪਰਵਾਈਜ਼ਰ	-16087
33	-16088
ਅਡ	-16089
.00	-16090
ark	-16091
ਟੀਏ	-16092
ਾਂਦ	-16093
ੱਫ਼	-16094
▁88	-16095
▁ਤਫ	-16096
ਕੌੜੇ	-16097
ਗਰਾਮ	-16098
ਰਵਾਲ	-16099
▁Sri	-16100
▁ਚੌਲ	-16101
ਦੰਬਰਮ	-16102
ਪਾਰਾਏ	-16103
ਸਵਾਮੀ	-16104
▁1200	-16105
▁ਜਾਹਿ	-16106
▁ਜੀਵਤ	-16107
▁ਤ੍ਰੇ	-16108
▁ਵਿੰਨ	-16109
▁ਸੁਫ਼	-16110
▁ਖ਼ੁਲਾ	-16111
▁ਤ੍ਰਿਲ	-16112
▁ਦੂਤਘਰ	-16113
▁ਨੀਵੇਂ	-16114
▁ਪੱਧਰਾ	-16115
▁ਬੁਲਾਏ	-16116
▁ਸੱਜਣਾ	-16117
▁ਅਤਿਵਾਦ	-16118
▁ਕਲਕੱਤਾ	-16119
▁ਕੀੜਿਆਂ	-16120
▁ਜੀਊਂਦੇ	-16121
▁ਤੋਹਫ਼ੇ	-16122
▁ਪਤਨੀਆਂ	-16123
▁ਵਿਖਾਵੇ	-16124
▁ਸਿਰਦਾਰ	-16125
ute	-16126
ਗਲੋ	-16127
ਜੁਟ	-16128
ਜੰਡ	-16129
ਨਿਯ	-16130
ਨੈਸ	-16131
ਰੇਲ	-16132
▁SA	-16133
▁ਿਲ	-16134
ਜਿਸ਼	-16135
ਸੀਅਸ	-16136
ੈਂਟਸ	-16137
▁ਆਈਏ	-16138
▁ਢੰਡ	-16139
▁ਰਜਿ	-16140
▁ਵੈਟ	-16141
ਪੜਤਾਲ	-16142
▁ਅਫ਼ੀ	-16143
▁ਉਮਰੇ	-16144
▁ਦੈਵੀ	-16145
▁ਫ਼ੰਡ	-16146
▁ਰਾਜੀ	-16147
▁ਲਲਿਤ	-16148
▁ਅਟੁੱਟ	-16149
▁ਉੱਠਦਾ	-16150
▁ਕਮੀਆਂ	-16151
▁ਖੜੀਆਂ	-16152
▁ਜ਼ਿੰਦ	-16153
▁ਟੈਟੂਕ	-16154
▁ਮੁਹਈਆ	-16155
▁ਸੰਦੌੜ	-16156
▁ਅੰਬੈਸੀ	-16157
▁ਆਪਰੇਟਰ	-16158
▁ਤਿਰੰਗਾ	-16159
▁ਨਿਲਾਮੀ	-16160
▁ਮਨਰੇਗਾ	-16161
▁ਯੂਟਿਊਬ	-16162
▁ਵਰਗਿਆਂ	-16163
▁ਪਹਾੜੀਆਂ	-16164
▁ਲਿਆਉਂਦਾ	-16165
▁ਦੂਰਦਰਸ਼ਨ	-16166
▁ਕਰਮਕਾਂਡਾਂ	-16167
▁ਲੈਫਟੀਨੈਂਟ	-16168
ਕੁੰ	-16169
ੳੁਣ	-16170
▁ਝੱ	-16171
ਚਨਾਂ	-16172
▁140	-16173
▁ਕੋਂ	-16174
▁ਨਿਮ	-16175
▁ਮਕੈ	-16176
ਪਹਿਲੇ	-16177
▁ਰੋਡੇ	-16178
▁ਸਿਖੀ	-16179
▁ਹਾਣੀ	-16180
ਸ਼੍ਰਵਣ	-16181
▁ਉਸਾਰਨ	-16182
▁ਜਮਾਨਤ	-16183
▁ਫਿਰਕਾ	-16184
▁ਬੰਦਗੀ	-16185
▁ਭਤੀਜੇ	-16186
▁ਯੂਕਰੇ	-16187
▁ਸਨਸਨੀ	-16188
▁ਸਮੱਰਥ	-16189
▁ਅੰਗਰੇਜ	-16190
▁ਬੈਠਿਆਂ	-16191
▁ਮੈਰਾਥਨ	-16192
▁ਵਰਤਾਇਆ	-16193
▁ਸਮੂਹਾਂ	-16194
▁ਸੰਘੇੜਾ	-16195
▁ਜ਼ੁਬਾਨੀ	-16196
▁ਡੱਬਵਾਲੀ	-16197
▁ਦੁਸਹਿਰਾ	-16198
▁ਰਿਟਾਇਰਡ	-16199
▁ਰਾਜਕੁਮਾਰ	-16200
▁ਰੁਕਾਵਟਾਂ	-16201
▁ਕਾਲਾਂਵਾਲੀ	-16202
▁ਸ਼ਿਕਾਇਤਕਰਤਾ	-16203
81	-16204
੧੧	-16205
org	-16206
ਦਕੀ	-16207
ਪੀਆ	-16208
ਮੇਧ	-16209
▁se	-16210
▁ਫਟ	-16211
ਚਲਦਾ	-16212
ਫ਼ੈਸ	-16213
ਰਾਗੀ	-16214
ਸ਼ਤੀ	-16215
▁ਐਪਸ	-16216
▁ਕੇਕ	-16217
▁ਨਿਚ	-16218
▁ਮੌਰ	-16219
▁ਜਾਹਰ	-16220
▁ਬੁਧੀ	-16221
▁ਬੇਲਾ	-16222
▁ਬੋਲਡ	-16223
▁ਰਹਿਮ	-16224
▁ਵਲਟੋ	-16225
▁ਨਸਲਾਂ	-16226
▁ਪ੍ਰਣਾ	-16227
▁ਸਕਿੱਲ	-16228
▁ਸਜਾਉਣ	-16229
▁ਸੈਕਸਮ	-16230
▁Chhant	-16231
▁ਇਕਜੁੱਟ	-16232
▁ਗੁਰਾਇਆ	-16233
▁ਡੀਐਸਪੀ	-16234
▁ਲੈਪਟਾਪ	-16235
▁ਜਿ਼ੰਦਗੀ	-16236
▁ਬੋਪਾਰਾਏ	-16237
▁ਆੜ੍ਹਤੀਆਂ	-16238
▁ਗੁਰਬਖ਼ਸ਼	-16239
▁ਦਹਿਸ਼ਤਗਰਦੀ	-16240
OtslaivaniePorn	-16241
WS	-16242
ੌਟ	-16243
ool	-16244
[...]
